{"version":"1.0","truncation":{"max_length":410,"strategy":"LongestFirst","stride":0},"padding":null,"added_tokens":[{"id":0,"special":true,"content":"[PAD]","single_word":false,"lstrip":false,"rstrip":false,"normalized":false},{"id":1,"special":true,"content":"[UNK]","single_word":false,"lstrip":false,"rstrip":false,"normalized":false},{"id":2,"special":true,"content":"[CLS]","single_word":false,"lstrip":false,"rstrip":false,"normalized":false},{"id":3,"special":true,"content":"[SEP]","single_word":false,"lstrip":false,"rstrip":false,"normalized":false},{"id":4,"special":true,"content":"[MASK]","single_word":false,"lstrip":false,"rstrip":false,"normalized":false}],"normalizer":{"type":"BertNormalizer","clean_text":true,"handle_chinese_chars":true,"strip_accents":null,"lowercase":true},"pre_tokenizer":{"type":"BertPreTokenizer"},"post_processor":{"type":"TemplateProcessing","single":[{"SpecialToken":{"id":"[CLS]","type_id":0}},{"Sequence":{"id":"A","type_id":0}},{"SpecialToken":{"id":"[SEP]","type_id":0}}],"pair":[{"SpecialToken":{"id":"[CLS]","type_id":0}},{"Sequence":{"id":"A","type_id":0}},{"SpecialToken":{"id":"[SEP]","type_id":0}},{"Sequence":{"id":"B","type_id":1}},{"SpecialToken":{"id":"[SEP]","type_id":1}}],"special_tokens":{"[CLS]":{"id":"[CLS]","ids":[2],"tokens":["[CLS]"]},"[SEP]":{"id":"[SEP]","ids":[3],"tokens":["[SEP]"]}}},"decoder":{"type":"WordPiece","prefix":"##","cleanup":true},"model":{"type":"WordPiece","unk_token":"[UNK]","continuing_subword_prefix":"##","max_input_chars_per_word":100,"vocab":{"[PAD]":0,"[UNK]":1,"[CLS]":2,"[SEP]":3,"[MASK]":4,"!":5,"\"":6,"#":7,"$":8,"%":9,"&":10,"'":11,"(":12,")":13,"*":14,"+":15,",":16,"-":17,".":18,"/":19,"0":20,"1":21,"2":22,"3":23,"4":24,"5":25,"6":26,"7":27,"8":28,"9":29,":":30,";":31,"<":32,"=":33,">":34,"?":35,"@":36,"[":37,"\\":38,"]":39,"^":40,"_":41,"`":42,"a":43,"b":44,"c":45,"d":46,"e":47,"f":48,"g":49,"h":50,"i":51,"j":52,"k":53,"l":54,"m":55,"n":56,"o":57,"p":58,"q":59,"r":60,"s":61,"t":62,"u":63,"v":64,"w":65,"x":66,"y":67,"z":68,"{":69,"|":70,"}":71,"~":72,"¡":73,"¢":74,"£":75,"¤":76,"¥":77,"¦":78,"§":79,"¨":80,"©":81,"ª":82,"«":83,"¬":84,"®":85,"¯":86,"°":87,"±":88,"²":89,"³":90,"´":91,"µ":92,"¶":93,"·":94,"¸":95,"¹":96,"º":97,"»":98,"¼":99,"½":100,"¾":101,"¿":102,"×":103,"ß":104,"æ":105,"ð":106,"÷":107,"ø":108,"đ":109,"ı":110,"ĳ":111,"ĸ":112,"ł":113,"œ":114,"ƒ":115,"ƭ":116,"ƴ":117,"ƶ":118,"ƻ":119,"ƽ":120,"ɑ":121,"ɔ":122,"ə":123,"ɛ":124,"ɪ":125,"ɱ":126,"ɹ":127,"ʃ":128,"ʊ":129,"ʒ":130,"ʫ":131,"ʮ":132,"ʰ":133,"ʱ":134,"ʲ":135,"ʴ":136,"ʷ":137,"ʹ":138,"ʼ":139,"ʽ":140,"ʿ":141,"ˈ":142,"ː":143,"˫":144,"ˮ":145,"˼":146,"ͳ":147,"ͷ":148,"ͼ":149,"΢":150,"α":151,"β":152,"γ":153,"δ":154,"ε":155,"η":156,"θ":157,"ι":158,"κ":159,"λ":160,"μ":161,"ν":162,"ξ":163,"ο":164,"π":165,"ρ":166,"ς":167,"σ":168,"τ":169,"υ":170,"φ":171,"χ":172,"ω":173,"ϲ":174,"ϸ":175,"а":176,"б":177,"в":178,"г":179,"д":180,"е":181,"ж":182,"з":183,"и":184,"к":185,"л":186,"м":187,"н":188,"о":189,"п":190,"р":191,"с":192,"т":193,"у":194,"ф":195,"х":196,"ц":197,"ч":198,"ш":199,"щ":200,"ъ":201,"ы":202,"ь":203,"э":204,"ю":205,"я":206,"і":207,"ҹ":208,"һ":209,"ԥ":210,"ա":211,"ե":212,"ն":213,"ո":214,"վ":215,"տ":216,"א":217,"ב":218,"ג":219,"ד":220,"ה":221,"ו":222,"ח":223,"ט":224,"י":225,"כ":226,"ל":227,"ם":228,"מ":229,"ן":230,"נ":231,"ס":232,"ע":233,"פ":234,"צ":235,"ק":236,"ר":237,"ש":238,"ת":239,"׬":240,"׼":241,"،":242,"ء":243,"ا":244,"ب":245,"ة":246,"ت":247,"ث":248,"ج":249,"ح":250,"خ":251,"د":252,"ذ":253,"ر":254,"ز":255,"س":256,"ش":257,"ص":258,"ض":259,"ط":260,"ظ":261,"ع":262,"غ":263,"ـ":264,"ف":265,"ق":266,"ك":267,"ل":268,"م":269,"ن":270,"ه":271,"و":272,"ى":273,"ي":274,"ٱ":275,"ٷ":276,"پ":277,"چ":278,"ک":279,"گ":280,"ڲ":281,"ں":282,"ھ":283,"ہ":284,"ی":285,"ے":286,"۰":287,"۱":288,"۲":289,"۳":290,"۹":291,"अ":292,"आ":293,"ए":294,"क":295,"ख":296,"ग":297,"च":298,"ज":299,"ट":300,"ड":301,"ण":302,"त":303,"द":304,"ध":305,"न":306,"प":307,"ब":308,"भ":309,"म":310,"य":311,"र":312,"ल":313,"व":314,"श":315,"ष":316,"स":317,"ह":318,"ा":319,"ि":320,"ी":321,"ो":322,"।":323,"॥":324,"॰":325,"ং":326,"ঃ":327,"অ":328,"আ":329,"ই":330,"ঈ":331,"উ":332,"ঊ":333,"ঋ":334,"ঌ":335,"এ":336,"ঐ":337,"ও":338,"ঔ":339,"ক":340,"খ":341,"গ":342,"ঘ":343,"ঙ":344,"চ":345,"ছ":346,"জ":347,"ঝ":348,"ঞ":349,"ট":350,"ঠ":351,"ড":352,"ঢ":353,"ণ":354,"ত":355,"থ":356,"দ":357,"ধ":358,"ন":359,"প":360,"ফ":361,"ব":362,"ভ":363,"ম":364,"য":365,"র":366,"ল":367,"শ":368,"ষ":369,"স":370,"হ":371,"া":372,"ি":373,"ী":374,"ে":375,"ৈ":376,"ৎ":377,"ৗ":378,"৤":379,"০":380,"১":381,"২":382,"৩":383,"৪":384,"৫":385,"৬":386,"৭":387,"৮":388,"৯":389,"ৰ":390,"ৱ":391,"৳":392,"৷":393,"৻":394,"੔":395,"ા":396,"க":397,"த":398,"ப":399,"ம":400,"ா":401,"ி":402,"ு":403,"ക":404,"ന":405,"ാ":406,"ി":407,"ණ":408,"ก":409,"ค":410,"ง":411,"ด":412,"ต":413,"ท":414,"น":415,"บ":416,"ป":417,"พ":418,"ม":419,"ย":420,"ร":421,"ล":422,"ว":423,"ส":424,"ห":425,"อ":426,"ะ":427,"า":428,"เ":429,"แ":430,"ไ":431,"་":432,"ა":433,"ი":434,"ღ":435,"ᄀ":436,"ᄂ":437,"ᄃ":438,"ᄅ":439,"ᄆ":440,"ᄇ":441,"ᄈ":442,"ᄉ":443,"ᄋ":444,"ᄌ":445,"ᄎ":446,"ᄏ":447,"ᄐ":448,"ᄑ":449,"ᄒ":450,"ᅡ":451,"ᅢ":452,"ᅣ":453,"ᅥ":454,"ᅦ":455,"ᅧ":456,"ᅨ":457,"ᅩ":458,"ᅪ":459,"ᅬ":460,"ᅭ":461,"ᅮ":462,"ᅯ":463,"ᅳ":464,"ᅴ":465,"ᅵ":466,"ᆨ":467,"ᆫ":468,"ᆯ":469,"ᆷ":470,"ᆸ":471,"ᆻ":472,"ᆼ":473,"‒":474,"–":475,"—":476,"―":477,"‘":478,"’":479,"‚":480,"“":481,"”":482,"„":483,"†":484,"‡":485,"•":486,"…":487,"′":488,"″":489,"›":490,"€":491,"₹":492,"℃":493,"™":494,"←":495,"↑":496,"→":497,"↓":498,"⇄":499,"⇒":500,"−":501,"√":502,"─":503,"━":504,"├":505,"■":506,"▬":507,"▶":508,"►":509,"◆":510,"◈":511,"◌":512,"●":513,"★":514,"☆":515,"☐":516,"☛":517,"☞":518,"♠":519,"♣":520,"♥":521,"♦":522,"✅":523,"✌":524,"✔":525,"✪":526,"❏":527,"❤":528,"➡":529,"➢":530,"➤":531,"➳":532,"ⱥ":533,"、":534,"。":535,"「":536,"」":537,"【":538,"】":539,"あ":540,"い":541,"う":542,"え":543,"お":544,"か":545,"き":546,"く":547,"け":548,"こ":549,"さ":550,"し":551,"す":552,"せ":553,"そ":554,"た":555,"ち":556,"っ":557,"つ":558,"て":559,"と":560,"な":561,"に":562,"の":563,"は":564,"ま":565,"み":566,"め":567,"も":568,"や":569,"よ":570,"ら":571,"り":572,"る":573,"れ":574,"わ":575,"を":576,"ん":577,"ア":578,"ィ":579,"イ":580,"ウ":581,"エ":582,"オ":583,"カ":584,"キ":585,"ク":586,"コ":587,"サ":588,"シ":589,"ス":590,"セ":591,"タ":592,"チ":593,"ッ":594,"ツ":595,"テ":596,"ト":597,"ナ":598,"ニ":599,"ハ":600,"ヒ":601,"フ":602,"ヘ":603,"ホ":604,"マ":605,"ム":606,"メ":607,"ャ":608,"ュ":609,"ラ":610,"リ":611,"ル":612,"レ":613,"ロ":614,"ン":615,"・":616,"ー":617,"一":618,"万":619,"三":620,"上":621,"下":622,"不":623,"与":624,"专":625,"世":626,"业":627,"东":628,"个":629,"中":630,"为":631,"主":632,"么":633,"之":634,"乐":635,"也":636,"买":637,"了":638,"事":639,"二":640,"于":641,"五":642,"亚":643,"交":644,"产":645,"京":646,"人":647,"什":648,"今":649,"他":650,"代":651,"以":652,"们":653,"件":654,"优":655,"会":656,"位":657,"体":658,"作":659,"使":660,"保":661,"信":662,"倍":663,"值":664,"免":665,"入":666,"全":667,"公":668,"关":669,"其":670,"内":671,"円":672,"册":673,"军":674,"冠":675,"出":676,"分":677,"划":678,"利":679,"到":680,"制":681,"前":682,"力":683,"加":684,"务":685,"动":686,"势":687,"化":688,"北":689,"区":690,"十":691,"华":692,"单":693,"南":694,"博":695,"历":696,"县":697,"及":698,"双":699,"发":700,"口":701,"古":702,"可":703,"台":704,"史":705,"号":706,"司":707,"合":708,"吉":709,"同":710,"名":711,"后":712,"吗":713,"员":714,"和":715,"品":716,"哪":717,"商":718,"器":719,"国":720,"图":721,"在":722,"地":723,"场":724,"址":725,"城":726,"外":727,"多":728,"大":729,"天":730,"奖":731,"女":732,"好":733,"如":734,"娱":735,"子":736,"学":737,"安":738,"官":739,"定":740,"宝":741,"实":742,"客":743,"家":744,"对":745,"将":746,"小":747,"少":748,"就":749,"展":750,"山":751,"川":752,"州":753,"工":754,"巧":755,"市":756,"平":757,"年":758,"广":759,"庆":760,"度":761,"建":762,"开":763,"式":764,"录":765,"彩":766,"影":767,"律":768,"得":769,"微":770,"徽":771,"心":772,"必":773,"快":774,"怎":775,"性":776,"情":777,"意":778,"成":779,"我":780,"户":781,"房":782,"所":783,"手":784,"技":785,"投":786,"报":787,"据":788,"推":789,"提":790,"播":791,"政":792,"教":793,"数":794,"文":795,"料":796,"新":797,"方":798,"日":799,"时":800,"明":801,"易":802,"星":803,"是":804,"最":805,"月":806,"有":807,"服":808,"期":809,"本":810,"机":811,"杀":812,"来":813,"林":814,"果":815,"查":816,"样":817,"正":818,"比":819,"民":820,"水":821,"江":822,"河":823,"法":824,"注":825,"活":826,"流":827,"测":828,"海":829,"淨":830,"港":831,"游":832,"湖":833,"源":834,"漏":835,"澳":836,"点":837,"版":838,"牛":839,"物":840,"特":841,"玩":842,"现":843,"理":844,"甘":845,"生":846,"用":847,"电":848,"界":849,"登":850,"百":851,"的":852,"皇":853,"盘":854,"目":855,"直":856,"省":857,"看":858,"県":859,"真":860,"着":861,"码":862,"破":863,"社":864,"神":865,"票":866,"福":867,"程":868,"稳":869,"站":870,"等":871,"算":872,"管":873,"精":874,"系":875,"线":876,"经":877,"结":878,"统":879,"网":880,"美":881,"群":882,"老":883,"者":884,"联":885,"肃":886,"能":887,"自":888,"色":889,"苏":890,"荐":891,"行":892,"表":893,"装":894,"西":895,"要":896,"规":897,"视":898,"解":899,"计":900,"记":901,"论":902,"设":903,"费":904,"资":905,"赌":906,"赚":907,"赛":908,"赢":909,"走":910,"路":911,"车":912,"软":913,"载":914,"过":915,"运":916,"这":917,"进":918,"选":919,"通":920,"速":921,"道":922,"遗":923,"部":924,"都":925,"里":926,"重":927,"量":928,"金":929,"钱":930,"银":931,"长":932,"门":933,"间":934,"际":935,"限":936,"院":937,"集":938,"面":939,"预":940,"频":941,"食":942,"香":943,"高":944,"黑":945,"龙":946,"﴾":947,"﴿":948,"ﷺ":949,"ﷻ":950,"ﺃ":951,"ﺍ":952,"ﺎ":953,"ﺑ":954,"ﺒ":955,"ﺔ":956,"ﺘ":957,"ﺪ":958,"ﺭ":959,"ﺮ":960,"ﺳ":961,"ﺴ":962,"ﻋ":963,"ﻌ":964,"ﻓ":965,"ﻗ":966,"ﻛ":967,"ﻟ":968,"ﻠ":969,"ﻢ":970,"ﻣ":971,"ﻤ":972,"ﻥ":973,"ﻦ":974,"ﻧ":975,"ﻨ":976,"ﻪ":977,"ﻭ":978,"ﻮ":979,"ﻰ":980,"ﻲ":981,"ﻳ":982,"ﻴ":983,"！":984,"（":985,"）":986,"，":987,"：":988,"👇":989,"👉":990,"👿":991,"💙":992,"💜":993,"😀":994,"😂":995,"😆":996,"😉":997,"😎":998,"😛":999,"😮":1000,"😯":1001,"🙁":1002,"🙂":1003,"🙄":1004,"##ম":1005,"##য":1006,"##ে":1007,"##া":1008,"##গ":1009,"##ত":1010,"##র":1011,"##i":1012,"##n":1013,"##z":1014,"##p":1015,"##প":1016,"##ধ":1017,"##ী":1018,"##দ":1019,"##ব":1020,"##ি":1021,"##স":1022,"##হ":1023,"##ল":1024,"##ক":1025,"##ভ":1026,"##ং":1027,"##ফ":1028,"##ড":1029,"##জ":1030,"##ন":1031,"##ই":1032,"##খ":1033,"##শ":1034,"##9":1035,"##3":1036,"##7":1037,"##ণ":1038,"##উ":1039,"##m":1040,"##a":1041,"##l":1042,"##r":1043,"##৪":1044,"##২":1045,"##5":1046,"##ষ":1047,"##ৈ":1048,"##ট":1049,"##চ":1050,"##ل":1051,"##ي":1052,"##ب":1053,"##ر":1054,"##ঃ":1055,"##ৗ":1056,"##এ":1057,"##ৱ":1058,"##আ":1059,"##e":1060,"##u":1061,"##g":1062,"##h":1063,"##t":1064,"##y":1065,"##ঙ":1066,"##ͷ":1067,"##ছ":1068,"##ও":1069,"##ঞ":1070,"##b":1071,"##o":1072,"##w":1073,"##j":1074,"##১":1075,"##৭":1076,"##৯":1077,"##৬":1078,"##৩":1079,"##ᅡ":1080,"##ᄋ":1081,"##ᄃ":1082,"##ᅩ":1083,"##0":1084,"##1":1085,"##ঘ":1086,"##d":1087,"##c":1088,"##v":1089,"##f":1090,"##k":1091,"##s":1092,"##ৎ":1093,"##ঠ":1094,"##০":1095,"##৷":1096,"##е":1097,"##р":1098,"##м":1099,"##и":1100,"##н":1101,"##о":1102,"##л":1103,"##৫":1104,"##৮":1105,"##8":1106,"##2":1107,"##4":1108,"##থ":1109,"##6":1110,"##অ":1111,"##в":1112,"##а":1113,"##ա":1114,"##к":1115,"##δ":1116,"##ه":1117,"##ا":1118,"##ت":1119,"##x":1120,"##с":1121,"##у":1122,"##б":1123,"##т":1124,"##ʷ":1125,"##৤":1126,"##ঝ":1127,"##α":1128,"##μ":1129,"##η":1130,"##λ":1131,"##ο":1132,"##ق":1133,"##ن":1134,"##€":1135,"##™":1136,"##²":1137,"##ा":1138,"##च":1139,"##र":1140,"##ʽ":1141,"##і":1142,"##х":1143,"##¦":1144,"##ط":1145,"##ج":1146,"##¤":1147,"##❤":1148,"##ל":1149,"##ה":1150,"##イ":1151,"##フ":1152,"##て":1153,"##あ":1154,"##れ":1155,"##は":1156,"##œ":1157,"##щ":1158,"##こ":1159,"##ち":1160,"##ら":1161,"##の":1162,"##ラ":1163,"##ー":1164,"##メ":1165,"##ン":1166,"##を":1167,"##ৰ":1168,"##ض":1169,"##ح":1170,"##ة":1171,"##د":1172,"##ঊ":1173,"##q":1174,"##ঈ":1175,"##ы":1176,"##д":1177,"##ͼ":1178,"##ो":1179,"##प":1180,"##ड":1181,"##п":1182,"##я":1183,"##з":1184,"##ł":1185,"##¨":1186,"##ঢ":1187,"##ى":1188,"##ƭ":1189,"##ω":1190,"##σ":1191,"##ς":1192,"##ા":1193,"##ˮ":1194,"##վ":1195,"##س":1196,"##ك":1197,"##م":1198,"##ᅥ":1199,"##ᅮ":1200,"##ᆯ":1201,"##ᄂ":1202,"##ᆷ":1203,"##ᄇ":1204,"##ᄀ":1205,"##ᄎ":1206,"##ᅵ":1207,"##ᄉ":1208,"##ᄅ":1209,"##ð":1210,"##ш":1211,"##ь":1212,"##ص":1213,"##ف":1214,"##г":1215,"##°":1216,"##¬":1217,"##ع":1218,"##ч":1219,"##♠":1220,"##た":1221,"##し":1222,"##お":1223,"##り":1224,"##ま":1225,"##す":1226,"##خ":1227,"##ث":1228,"##ی":1229,"##ز":1230,"##ĳ":1231,"##ʼ":1232,"##ᅯ":1233,"##ᆫ":1234,"##ב":1235,"##י":1236,"##ת":1237,"##ᄑ":1238,"##ᅳ":1239,"##ᆼ":1240,"##ʫ":1241,"##ம":1242,"##®":1243,"##¾":1244,"##ф":1245,"##ᅭ":1246,"##ʮ":1247,"##ঐ":1248,"##な":1249,"##い":1250,"##ാ":1251,"##ക":1252,"##ന":1253,"##ش":1254,"##و":1255,"##ж":1256,"##ウ":1257,"##ト":1258,"##タ":1259,"##ロ":1260,"##カ":1261,"##ק":1262,"##ד":1263,"##★":1264,"##ہ":1265,"##غ":1266,"##リ":1267,"##ר":1268,"##ו":1269,"##ک":1270,"##स":1271,"##त":1272,"##ı":1273,"##ƒ":1274,"##ø":1275,"##ﻟ":1276,"##ٷ":1277,"##オ":1278,"##ϲ":1279,"##θ":1280,"##る":1281,"##ঋ":1282,"##ц":1283,"##פ":1284,"##य":1285,"##ल":1286,"##チ":1287,"##コ":1288,"##ク":1289,"##ю":1290,"##ɱ":1291,"##ʃ":1292,"##ɔ":1293,"##ʱ":1294,"##द":1295,"##−":1296,"##ᆨ":1297,"##न":1298,"##ि":1299,"##´":1300,"##һ":1301,"##ᅧ":1302,"##ᄐ":1303,"##ष":1304,"##ण":1305,"##क":1306,"##ᆻ":1307,"##π":1308,"##φ":1309,"##♥":1310,"##×":1311,"##ذ":1312,"##ᄌ":1313,"##マ":1314,"##ル":1315,"##ス":1316,"##シ":1317,"##ア":1318,"##ム":1319,"##ん":1320,"##ナ":1321,"##ニ":1322,"##さ":1323,"##つ":1324,"##っ":1325,"##ャ":1326,"##ハ":1327,"##セ":1328,"##گ":1329,"##ﺘ":1330,"##ƽ":1331,"##נ":1332,"##כ":1333,"##ט":1334,"##ס":1335,"##ッ":1336,"##ٱ":1337,"##ͳ":1338,"##☞":1339,"##æ":1340,"##ε":1341,"##τ":1342,"##ρ":1343,"##ն":1344,"##ﺎ":1345,"##ﻛ":1346,"##ﺮ":1347,"##ﻳ":1348,"##ﻦ":1349,"##ß":1350,"##ν":1351,"##ι":1352,"##מ":1353,"##γ":1354,"##µ":1355,"##ज":1356,"##ी":1357,"##ঔ":1358,"##ᅴ":1359,"##υ":1360,"##ʒ":1361,"##か":1362,"##ɑ":1363,"##ː":1364,"##ʊ":1365,"##ə":1366,"##ა":1367,"##ი":1368,"##─":1369,"##˫":1370,"##¯":1371,"##と":1372,"##➢":1373,"##く":1374,"##க":1375,"##ா":1376,"##キ":1377,"##ュ":1378,"##ﻤ":1379,"##ﻥ":1380,"##ﻌ":1381,"##β":1382,"##ח":1383,"##ھ":1384,"##ء":1385,"##³":1386,"##ﻣ":1387,"##ש":1388,"##۹":1389,"##サ":1390,"##ホ":1391,"##ヘ":1392,"##に":1393,"##ƶ":1394,"##ᅢ":1395,"##ﻮ":1396,"##ग":1397,"##ध":1398,"##व":1399,"##म":1400,"##ے":1401,"##ค":1402,"##พ":1403,"##ย":1404,"##า":1405,"##ม":1406,"##ท":1407,"##ต":1408,"##ก":1409,"##ร":1410,"##เ":1411,"##ล":1412,"##น":1413,"##แ":1414,"##บ":1415,"##ヒ":1416,"##テ":1417,"##ィ":1418,"##エ":1419,"##श":1420,"##ϸ":1421,"##ˈ":1422,"##ɪ":1423,"##ɛ":1424,"##→":1425,"##χ":1426,"##ᅬ":1427,"##׼":1428,"##ᄒ":1429,"##ᄆ":1430,"##੔":1431,"##¸":1432,"##ª":1433,"##ъ":1434,"##ʰ":1435,"##ʿ":1436,"##わ":1437,"##ᅨ":1438,"##ɹ":1439,"##ƻ":1440,"##ு":1441,"##ி":1442,"##৻":1443,"##も":1444,"##ظ":1445,"##ᅦ":1446,"##ﻋ":1447,"##ﻢ":1448,"##ҹ":1449,"##ԥ":1450,"##レ":1451,"##κ":1452,"##৳":1453,"##ख":1454,"##¼":1455,"##©":1456,"##ツ":1457,"##み":1458,"##よ":1459,"##う":1460,"##۱":1461,"##ע":1462,"##ப":1463,"##த":1464,"##ﺒ":1465,"##ﻰ":1466,"##½":1467,"##¹":1468,"##●":1469,"##¥":1470,"##˼":1471,"##ว":1472,"##ง":1473,"##ᅣ":1474,"##ʲ":1475,"##ʴ":1476,"##💜":1477,"##भ":1478,"##ﻲ":1479,"##ट":1480,"##ह":1481,"##ﻴ":1482,"##ﻨ":1483,"##ـ":1484,"##±":1485,"##ם":1486,"##ﺪ":1487,"##ะ":1488,"##ส":1489,"##ﺔ":1490,"##ĸ":1491,"##ด":1492,"##ไ":1493,"##อ":1494,"##ե":1495,"##ി":1496,"##э":1497,"##ᅪ":1498,"##ᄏ":1499,"##ں":1500,"##ﻠ":1501,"##ᆸ":1502,"##せ":1503,"##や":1504,"##ﺴ":1505,"##ﻪ":1506,"##ג":1507,"##ঌ":1508,"##अ":1509,"##ﺍ":1510,"##چ":1511,"##ป":1512,"##ڲ":1513,"##め":1514,"##א":1515,"##え":1516,"##ﻓ":1517,"##đ":1518,"##ξ":1519,"##ﻧ":1520,"##ﺳ":1521,"##✌":1522,"##♦":1523,"##♣":1524,"##き":1525,"##け":1526,"##ब":1527,"##ⱥ":1528,"##ﷺ":1529,"##↓":1530,"##ห":1531,"##ʹ":1532,"##º":1533,"##ן":1534,"##ᄈ":1535,"##ո":1536,"##►":1537,"##צ":1538,"##ƴ":1539,"##ﺭ":1540,"##۰":1541,"##÷":1542,"##ﻭ":1543,"##✅":1544,"##£":1545,"##☆":1546,"##⇒":1547,"##✔":1548,"##ﺑ":1549,"##տ":1550,"##√":1551,"##そ":1552,"##👉":1553,"##¢":1554,"##۲":1555,"##پ":1556,"##😂":1557,"##΢":1558,"##😆":1559,"##ए":1560,"##├":1561,"##😉":1562,"##ﻗ":1563,"##➤":1564,"##۳":1565,"##׬":1566,"##👇":1567,"##➡":1568,"##आ":1569,"##■":1570,"##↑":1571,"##▶":1572,"##😎":1573,"##😀":1574,"##☛":1575,"##₹":1576,"##℃":1577,"##ﺃ":1578,"##🙂":1579,"##💙":1580,"##😛":1581,"##➳":1582,"##😯":1583,"##ණ":1584,"##ღ":1585,"##🙄":1586,"##👿":1587,"##▬":1588,"##←":1589,"##✪":1590,"##◌":1591,"##❏":1592,"##━":1593,"##◆":1594,"##◈":1595,"##😮":1596,"##ার":1597,"##ের":1598,"##ো":1599,"##ান":1600,"পর":1601,"##যে":1602,"কর":1603,"##যা":1604,"##েন":1605,"##িক":1606,"##িন":1607,"##লা":1608,"##তে":1609,"##কে":1610,"##লে":1611,"##ির":1612,"##ায":1613,"##বে":1614,"##ছে":1615,"বি":1616,"##তি":1617,"##াম":1618,"##াল":1619,"##টি":1620,"##তর":1621,"বা":1622,"##বা":1623,"##িযে":1624,"##দের":1625,"##িত":1626,"এক":1627,"করে":1628,"##াক":1629,"সম":1630,"##পর":1631,"##েশ":1632,"##িল":1633,"##াই":1634,"##াজ":1635,"##াস":1636,"##তা":1637,"##নে":1638,"আম":1639,"সা":1640,"##বার":1641,"##যার":1642,"তার":1643,"##রা":1644,"না":1645,"জন":1646,"সে":1647,"নি":1648,"হযে":1649,"তা":1650,"##কষ":1651,"##টা":1652,"দে":1653,"##িস":1654,"##না":1655,"##েকে":1656,"##কার":1657,"##রে":1658,"অন":1659,"মা":1660,"##ভা":1661,"##বি":1662,"থেকে":1663,"হয":1664,"##ঙগ":1665,"##ছেন":1666,"##িনি":1667,"##েল":1668,"##ীর":1669,"##োগ":1670,"##াত":1671,"##নের":1672,"এই":1673,"কো":1674,"আর":1675,"##বং":1676,"পা":1677,"সং":1678,"##বর":1679,"এবং":1680,"যে":1681,"##নি":1682,"##লি":1683,"##যান":1684,"পরি":1685,"করা":1686,"বল":1687,"##রি":1688,"##ীয":1689,"নে":1690,"পার":1691,"জান":1692,"##থা":1693,"নির":1694,"##মান":1695,"যা":1696,"বয":1697,"##দেশ":1698,"##দর":1699,"##োর":1700,"##দধ":1701,"উপ":1702,"##লো":1703,"##কা":1704,"##ওযা":1705,"##মন":1706,"##কত":1707,"কা":1708,"##কর":1709,"##ডি":1710,"##মা":1711,"এর":1712,"কি":1713,"সর":1714,"##টে":1715,"পরতি":1716,"##ডা":1717,"কার":1718,"##বস":1719,"##জন":1720,"তিনি":1721,"জনয":1722,"রা":1723,"##ডে":1724,"##খন":1725,"##াদ":1726,"হযেছে":1727,"বিশ":1728,"##গর":1729,"সব":1730,"বাং":1731,"##যের":1732,"##েষ":1733,"আস":1734,"হবে":1735,"নিযে":1736,"মো":1737,"##যোগ":1738,"##মে":1739,"বাংলা":1740,"মে":1741,"গর":1742,"##লাম":1743,"মান":1744,"##যন":1745,"##িকে":1746,"শর":1747,"একটি":1748,"##টার":1749,"কোন":1750,"##ষঠ":1751,"##াকা":1752,"দেখ":1753,"দিযে":1754,"##ানে":1755,"করতে":1756,"##াপ":1757,"##মি":1758,"বলে":1759,"##তার":1760,"##ষট":1761,"##েলা":1762,"মধ":1763,"##ছিল":1764,"##েস":1765,"##ধান":1766,"ছিল":1767,"আগ":1768,"করেন":1769,"বাংলাদেশ":1770,"##বন":1771,"আপ":1772,"##যাল":1773,"দেশ":1774,"##ভি":1775,"##তন":1776,"##কতি":1777,"##নার":1778,"##চছে":1779,"##দি":1780,"##িকষ":1781,"পে":1782,"##পি":1783,"বলেন":1784,"সি":1785,"##তরী":1786,"কষ":1787,"তাদের":1788,"২০":1789,"##জি":1790,"রাজ":1791,"এস":1792,"দর":1793,"কে":1794,"কিন":1795,"##বাস":1796,"আল":1797,"##লের":1798,"মত":1799,"##বাদ":1800,"মহ":1801,"থাক":1802,"মধযে":1803,"বর":1804,"বযা":1805,"নাম":1806,"চে":1807,"মন":1808,"##ঙগে":1809,"ভা":1810,"মি":1811,"##ীন":1812,"##দিন":1813,"যায":1814,"##ভাবে":1815,"##কের":1816,"লা":1817,"কাজ":1818,"##েখ":1819,"##তব":1820,"উদ":1821,"##থে":1822,"সহ":1823,"আন":1824,"সময":1825,"##চার":1826,"##াহ":1827,"করম":1828,"সরকার":1829,"দি":1830,"##ছি":1831,"ছা":1832,"বে":1833,"##ারা":1834,"##পতি":1835,"অনে":1836,"গে":1837,"কিনত":1838,"##ছর":1839,"আমা":1840,"ইস":1841,"##দা":1842,"##শন":1843,"সন":1844,"##জে":1845,"শিকষ":1846,"কিছ":1847,"অর":1848,"সঙগে":1849,"##ওযার":1850,"##বল":1851,"কথা":1852,"দিন":1853,"##ভিন":1854,"আমি":1855,"সক":1856,"বিষ":1857,"নিরবা":1858,"##িযা":1859,"##জার":1860,"##বেন":1861,"বেশ":1862,"দা":1863,"অভি":1864,"##যো":1865,"##টির":1866,"ইউ":1867,"তারা":1868,"##বহ":1869,"আই":1870,"মানষ":1871,"##সি":1872,"পরধান":1873,"##ংশ":1874,"##ধার":1875,"##চি":1876,"##ধয":1877,"##িসে":1878,"ধর":1879,"##তিক":1880,"সাম":1881,"বছর":1882,"##োস":1883,"##লিশ":1884,"আমার":1885,"##ানা":1886,"##োন":1887,"তো":1888,"আহ":1889,"##ানের":1890,"উপজ":1891,"কম":1892,"##টের":1893,"##সথ":1894,"বিশব":1895,"##ীগ":1896,"করার":1897,"হা":1898,"বন":1899,"##তরে":1900,"হাস":1901,"##পা":1902,"##োধ":1903,"আমাদের":1904,"নিরবাচ":1905,"##ানি":1906,"##ঞজ":1907,"পলিশ":1908,"রাখ":1909,"##থম":1910,"ঘট":1911,"অব":1912,"তবে":1913,"ভার":1914,"অনেক":1915,"পরত":1916,"##লপ":1917,"##গলো":1918,"রযে":1919,"##োক":1920,"আমরা":1921,"##শি":1922,"##োল":1923,"এখন":1924,"##সত":1925,"##পার":1926,"##ীদের":1927,"কেন":1928,"##ষণ":1929,"##খানে":1930,"লি":1931,"সমপ":1932,"সাথে":1933,"আজ":1934,"কারণ":1935,"ইসলাম":1936,"সেই":1937,"##চে":1938,"সথ":1939,"##তের":1940,"করেছে":1941,"বির":1942,"##োট":1943,"##বদ":1944,"রহ":1945,"গত":1946,"অধ":1947,"##িকা":1948,"হচছে":1949,"##নন":1950,"##ালো":1951,"হাজ":1952,"##কি":1953,"সভা":1954,"##বী":1955,"কোনো":1956,"সমপর":1957,"খা":1958,"ইন":1959,"২০১":1960,"চল":1961,"##ভিনন":1962,"##তম":1963,"##াকে":1964,"জাত":1965,"##জঞ":1966,"অস":1967,"##মী":1968,"নিজ":1969,"##ানত":1970,"##এন":1971,"শেষ":1972,"আছে":1973,"##লাহ":1974,"বযবস":1975,"##কষে":1976,"হিসে":1977,"সবা":1978,"##যায":1979,"পারে":1980,"শি":1981,"আগে":1982,"বিভিনন":1983,"পরে":1984,"রযেছে":1985,"১৯":1986,"##সে":1987,"হিসেবে":1988,"মার":1989,"##লার":1990,"অনষঠ":1991,"অবস":1992,"##টর":1993,"জানান":1994,"এমন":1995,"টাকা":1996,"##লাই":1997,"##দন":1998,"##ালের":1999,"##দে":2000,"##েলার":2001,"পরিচ":2002,"##েলে":2003,"##সয":2004,"##িম":2005,"দই":2006,"সদ":2007,"হতে":2008,"হলে":2009,"নয":2010,"করেছেন":2011,"সংস":2012,"##ারথ":2013,"##কাশ":2014,"##ঞচ":2015,"##মপ":2016,"পরথম":2017,"##ডার":2018,"##ধারণ":2019,"বড":2020,"বাস":2021,"এলা":2022,"গো":2023,"কমি":2024,"##নী":2025,"##যনত":2026,"##তো":2027,"হাজার":2028,"তাকে":2029,"##কস":2030,"অনয":2031,"দল":2032,"রো":2033,"##ণের":2034,"নেই":2035,"বহ":2036,"##মদ":2037,"##িকার":2038,"##মের":2039,"##ামী":2040,"ডি":2041,"মাধয":2042,"কাছে":2043,"আশ":2044,"##তির":2045,"##থয":2046,"মনে":2047,"##ছিলেন":2048,"##েনট":2049,"##মনতরী":2050,"যদি":2051,"সভাপতি":2052,"মাস":2053,"##দযাল":2054,"উত":2055,"##ছা":2056,"##ৎস":2057,"সো":2058,"##মবর":2059,"একটা":2060,"##রের":2061,"জাতীয":2062,"বযবহ":2063,"##হা":2064,"দেখা":2065,"নতন":2066,"জেলা":2067,"##যাপ":2068,"##তরা":2069,"রহমান":2070,"তাই":2071,"##মার":2072,"মাম":2073,"##নায":2074,"বিষয":2075,"রি":2076,"১০":2077,"জী":2078,"ছিলেন":2079,"##লেন":2080,"##ডের":2081,"##ানো":2082,"গা":2083,"আপনার":2084,"ওই":2085,"সমপাদ":2086,"বার":2087,"পরশ":2088,"মল":2089,"নার":2090,"##টক":2091,"##বিত":2092,"দেশের":2093,"থাকে":2094,"##পে":2095,"হোস":2096,"সালে":2097,"পরা":2098,"##ভাগ":2099,"##জা":2100,"##এস":2101,"বিএন":2102,"##রম":2103,"##তযা":2104,"পরকাশ":2105,"##ঠে":2106,"উপজেলা":2107,"##দার":2108,"মখ":2109,"বেশি":2110,"মস":2111,"গেছে":2112,"পরযনত":2113,"পডে":2114,"সদসয":2115,"বযবহার":2116,"হার":2117,"##শে":2118,"তিন":2119,"##থায":2120,"শহ":2121,"আওযা":2122,"গণ":2123,"##ভাব":2124,"ভালো":2125,"পরতিষঠ":2126,"টর":2127,"সাধারণ":2128,"##ধর":2129,"সমপাদক":2130,"##যেক":2131,"আলো":2132,"পরস":2133,"জানা":2134,"আদ":2135,"ইউনি":2136,"চাল":2137,"অংশ":2138,"মাধযমে":2139,"চা":2140,"##সহ":2141,"দিকে":2142,"##থি":2143,"##পন":2144,"এসে":2145,"অরথ":2146,"জি":2147,"গিযে":2148,"##দধে":2149,"তৈ":2150,"গরাম":2151,"আওযামী":2152,"পরায":2153,"রে":2154,"##চিত":2155,"মযা":2156,"তখন":2157,"##উন":2158,"খব":2159,"হোসেন":2160,"##রণ":2161,"কল":2162,"ঢাকা":2163,"##ডিযে":2164,"##বয":2165,"সার":2166,"এম":2167,"##বাহ":2168,"সাং":2169,"বিশেষ":2170,"##গা":2171,"টি":2172,"##তত":2173,"##বের":2174,"পাল":2175,"##কারী":2176,"জানিযে":2177,"##বির":2178,"##তী":2179,"##কাল":2180,"##মাণ":2181,"মতো":2182,"উনন":2183,"বনধ":2184,"সপ":2185,"যোগ":2186,"##যর":2187,"##চচ":2188,"##ষটি":2189,"##মিক":2190,"লীগ":2191,"দায":2192,"##ভার":2193,"##লায":2194,"##ষটর":2195,"##er":2196,"বিক":2197,"একজন":2198,"উল":2199,"##গে":2200,"##তান":2201,"অফ":2202,"ধরে":2203,"##গরহ":2204,"চার":2205,"দিতে":2206,"##দী":2207,"সথান":2208,"পড":2209,"##তরণ":2210,"অভিযোগ":2211,"##গত":2212,"বৈ":2213,"##ফল":2214,"শেখ":2215,"##পরে":2216,"##িজ":2217,"বাংলাদেশের":2218,"সকল":2219,"কারণে":2220,"ছাতর":2221,"##ধি":2222,"সরব":2223,"পরিচাল":2224,"##বেশ":2225,"##নিক":2226,"##কষা":2227,"##an":2228,"পি":2229,"পারেন":2230,"##in":2231,"##সের":2232,"##যোজন":2233,"##ীল":2234,"আপনি":2235,"সাহ":2236,"##চনা":2237,"ঘো":2238,"##গরাম":2239,"##তায":2240,"কযেক":2241,"অপর":2242,"ভে":2243,"##টো":2244,"##ময":2245,"##ধা":2246,"##িকি":2247,"##মযান":2248,"আবার":2249,"ভি":2250,"##পোর":2251,"আরো":2252,"তথয":2253,"##সা":2254,"চেযার":2255,"বিরদধে":2256,"##াপত":2257,"পেযে":2258,"লেখ":2259,"বলা":2260,"করমকর":2261,"##উজ":2262,"লকষ":2263,"অযা":2264,"##বিদযাল":2265,"কযা":2266,"পৌ":2267,"দেওযা":2268,"##গঞজ":2269,"##ীরা":2270,"আবদ":2271,"যাবে":2272,"##হি":2273,"##বনধ":2274,"মানষের":2275,"##ভে":2276,"হল":2277,"তাহ":2278,"পাঠ":2279,"বিশববিদযাল":2280,"##তরের":2281,"চাই":2282,"ছবি":2283,"এটা":2284,"##বান":2285,"কেনদর":2286,"জা":2287,"পরী":2288,"##াকার":2289,"চলে":2290,"আইন":2291,"করছে":2292,"বাড":2293,"বিভাগ":2294,"##সব":2295,"##তয":2296,"##সট":2297,"শধ":2298,"জাম":2299,"##দান":2300,"চি":2301,"##বাজার":2302,"##তিতে":2303,"উপজেলার":2304,"রাস":2305,"কেউ":2306,"হলো":2307,"কলে":2308,"বিস":2309,"##জাত":2310,"##তমান":2311,"নিরবাচন":2312,"##বারের":2313,"##লেও":2314,"এটি":2315,"সালের":2316,"আরও":2317,"##হত":2318,"##ালি":2319,"পাওযা":2320,"##দল":2321,"কী":2322,"শিশ":2323,"দেযা":2324,"ফলে":2325,"##ৈতিক":2326,"##েই":2327,"নিজের":2328,"##েশন":2329,"##পের":2330,"চৌ":2331,"বরতমান":2332,"তৈরি":2333,"##কায":2334,"##েক":2335,"করত":2336,"উপর":2337,"বযবসথা":2338,"##খযা":2339,"##াধ":2340,"##on":2341,"##িনা":2342,"##or":2343,"##সার":2344,"##েসক":2345,"কষে":2346,"##দিকে":2347,"দলের":2348,"সেন":2349,"বাডি":2350,"##খে":2351,"শাহ":2352,"মর":2353,"পদ":2354,"##ভব":2355,"বযাং":2356,"ফির":2357,"##পরি":2358,"মকতি":2359,"##যাম":2360,"##িতা":2361,"বকত":2362,"পরক":2363,"##ফর":2364,"দেন":2365,"লোক":2366,"##েষটা":2367,"আব":2368,"বিষযে":2369,"একই":2370,"##ষণা":2371,"ভাই":2372,"দশ":2373,"শিকষা":2374,"যখন":2375,"##াইন":2376,"পরধানমনতরী":2377,"অবসথ":2378,"বিপ":2379,"ভারত":2380,"লাখ":2381,"গরহ":2382,"##নদ":2383,"##es":2384,"রেখ":2385,"সংবাদ":2386,"ঘটনা":2387,"দাবি":2388,"##শা":2389,"ছেলে":2390,"##তেই":2391,"##ar":2392,"অনষঠিত":2393,"##যারি":2394,"ধার":2395,"আবদল":2396,"##হার":2397,"মাল":2398,"দেয":2399,"উপসথ":2400,"##গঠ":2401,"পরব":2402,"##ীত":2403,"##নৈতিক":2404,"##কালে":2405,"ঠিক":2406,"পাশ":2407,"বস":2408,"খান":2409,"মাঝ":2410,"আদাল":2411,"মিল":2412,"##যেন":2413,"সেখানে":2414,"নেতা":2415,"বো":2416,"হাম":2417,"নিশ":2418,"পাক":2419,"##ছাডা":2420,"##ালী":2421,"করি":2422,"কাম":2423,"নামে":2424,"##লেখ":2425,"##en":2426,"করমকরতা":2427,"তে":2428,"##যানড":2429,"পরিষ":2430,"ছাডা":2431,"##কতির":2432,"কোটি":2433,"##পির":2434,"ওযা":2435,"##োযা":2436,"এসব":2437,"এতে":2438,"পরতিনি":2439,"সাল":2440,"ছোট":2441,"##পরণ":2442,"১২":2443,"হওযা":2444,"##গার":2445,"বিচার":2446,"##কষি":2447,"করবে":2448,"কলেজ":2449,"বলেছেন":2450,"ফর":2451,"বছরের":2452,"দেশে":2453,"##িকিৎস":2454,"বাজার":2455,"দেখে":2456,"সরকারের":2457,"তলে":2458,"শতা":2459,"বযকতি":2460,"##জর":2461,"##াযের":2462,"##ধীন":2463,"##ঙগল":2464,"হওযার":2465,"চৌধর":2466,"##তিহ":2467,"আগামী":2468,"চেযারমযান":2469,"সথানীয":2470,"##টাই":2471,"রেখে":2472,"##টট":2473,"গরে":2474,"##ণা":2475,"কন":2476,"১১":2477,"চিকিৎস":2478,"কারয":2479,"এবার":2480,"এন":2481,"##চছ":2482,"ওপর":2483,"থান":2484,"অফিস":2485,"##০০":2486,"##দক":2487,"ডেসক":2488,"##ষা":2489,"হাত":2490,"##বেক":2491,"##যোজ":2492,"বদধ":2493,"##গম":2494,"বের":2495,"সামনে":2496,"উদধ":2497,"অতি":2498,"ভর":2499,"মাহ":2500,"নিজে":2501,"##মল":2502,"চো":2503,"সমস":2504,"##at":2505,"১৫":2506,"ফল":2507,"##ানোর":2508,"##দয":2509,"যারা":2510,"কষেতরে":2511,"তাহলে":2512,"##েনে":2513,"সাই":2514,"ডা":2515,"##মখ":2516,"উততর":2517,"##om":2518,"##লোর":2519,"##al":2520,"##জজ":2521,"##াপা":2522,"পাচ":2523,"##এম":2524,"বযাপার":2525,"আললাহ":2526,"##ঙগা":2527,"##যনের":2528,"পরয":2529,"জীবন":2530,"##ারথী":2531,"শিল":2532,"ধরনের":2533,"যেন":2534,"##কম":2535,"##বক":2536,"যান":2537,"উপসথিত":2538,"##ণড":2539,"##লেট":2540,"উললেখ":2541,"কোর":2542,"শে":2543,"খবর":2544,"##রথ":2545,"এলাকায":2546,"কোমপ":2547,"এখানে":2548,"##গন":2549,"##সং":2550,"হন":2551,"বিজঞ":2552,"##ামমদ":2553,"আনদ":2554,"সির":2555,"মেযে":2556,"যাচছে":2557,"তল":2558,"##বেদন":2559,"##রাহ":2560,"বিএনপি":2561,"##বরতী":2562,"চেযে":2563,"রাষটর":2564,"বাই":2565,"##আই":2566,"অভিন":2567,"মোহ":2568,"উঠে":2569,"চটট":2570,"##করম":2571,"##মবার":2572,"সমাজ":2573,"যেতে":2574,"পরযোজন":2575,"কষম":2576,"হাতে":2577,"লে":2578,"হযেছিল":2579,"তাল":2580,"##শয":2581,"চটটগরাম":2582,"আলী":2583,"নারী":2584,"আনতর":2585,"এছাডা":2586,"লাগ":2587,"##টিতে":2588,"চৌধরী":2589,"কলা":2590,"##বাদিক":2591,"আলম":2592,"বাহ":2593,"পরো":2594,"অথ":2595,"নর":2596,"বঝ":2597,"ঘটে":2598,"##াযক":2599,"সাংবাদিক":2600,"সযোগ":2601,"##হে":2602,"গেল":2603,"দাযিত":2604,"আনদোল":2605,"চেষটা":2606,"করন":2607,"##বাই":2608,"ভাল":2609,"সাবেক":2610,"সট":2611,"পরতিনিধি":2612,"##টায":2613,"##িসা":2614,"২০০":2615,"পো":2616,"##যম":2617,"উঠ":2618,"সড":2619,"নিতে":2620,"##াযী":2621,"যার":2622,"লীগের":2623,"শিকষক":2624,"##লীগ":2625,"##িনী":2626,"শা":2627,"##কষণ":2628,"পাকিস":2629,"ঘোষণা":2630,"পান":2631,"##াকি":2632,"সমম":2633,"বই":2634,"##বো":2635,"বঙগ":2636,"১৮":2637,"হক":2638,"সবাই":2639,"সৌ":2640,"সতর":2641,"রাত":2642,"দবিত":2643,"সিদধ":2644,"উচচ":2645,"বিসতার":2646,"সদর":2647,"যেমন":2648,"পানি":2649,"অপ":2650,"##াইল":2651,"##জাতিক":2652,"পরশাস":2653,"৩০":2654,"জীব":2655,"মামলা":2656,"কত":2657,"তর":2658,"থাকা":2659,"কখন":2660,"##টন":2661,"করছেন":2662,"##িনে":2663,"সরকারি":2664,"##লিম":2665,"বিএনপির":2666,"##পত":2667,"উই":2668,"##ফা":2669,"##ললাহ":2670,"ইং":2671,"জায":2672,"উদধার":2673,"##যাস":2674,"পরেস":2675,"করলে":2676,"সমযে":2677,"বরি":2678,"মধয":2679,"নেত":2680,"নানা":2681,"##েরা":2682,"##ষে":2683,"##ীতে":2684,"##পতর":2685,"গরহণ":2686,"##িসি":2687,"খে":2688,"যৌ":2689,"পথ":2690,"গরামের":2691,"পশ":2692,"দবিতীয":2693,"এগ":2694,"হতযা":2695,"##সন":2696,"##হের":2697,"##পাত":2698,"গরতব":2699,"ফট":2700,"আতম":2701,"এরপর":2702,"অনযান":2703,"খালে":2704,"আনতরজাতিক":2705,"সেটা":2706,"শতাংশ":2707,"সমভব":2708,"মঙগল":2709,"দিযেছে":2710,"রাজনৈতিক":2711,"করবেন":2712,"দিল":2713,"##it":2714,"##েরে":2715,"উদদিন":2716,"##ডিযা":2717,"সকাল":2718,"ভারতের":2719,"বধ":2720,"##রত":2721,"##ফিক":2722,"##চিব":2723,"##োজ":2724,"##তিহাস":2725,"##কেই":2726,"##চেযে":2727,"দেখতে":2728,"পরিবর":2729,"ধরম":2730,"থেকেই":2731,"পরশন":2732,"মতয":2733,"মাতর":2734,"##ীরঘ":2735,"মৌ":2736,"বিন":2737,"সবাধীন":2738,"##টিং":2739,"মাঝে":2740,"অনযায":2741,"যক":2742,"##পকষ":2743,"জনম":2744,"রোগ":2745,"বহস":2746,"সভ":2747,"দকষি":2748,"হযনি":2749,"সংগঠ":2750,"সমপরকে":2751,"পতর":2752,"করিকে":2753,"সতয":2754,"##নীতি":2755,"সবচেযে":2756,"##রিযা":2757,"নিশচিত":2758,"শন":2759,"পরযা":2760,"শেযার":2761,"##সম":2762,"##দদ":2763,"বহসপতি":2764,"##জী":2765,"নিহত":2766,"##াকর":2767,"শিলপ":2768,"সমা":2769,"দাযিতব":2770,"১৪":2771,"##ফি":2772,"দীরঘ":2773,"আলোচনা":2774,"নিরদেশ":2775,"তত":2776,"রান":2777,"ফে":2778,"##চছেন":2779,"বান":2780,"উৎস":2781,"হিসা":2782,"ওযে":2783,"বিসতারিত":2784,"##ডিও":2785,"একে":2786,"রাজধান":2787,"অনযানয":2788,"বহসপতিবার":2789,"শনি":2790,"নিউজ":2791,"একট":2792,"দিযেছেন":2793,"পরণ":2794,"সবার":2795,"থাকবে":2796,"##কেট":2797,"##ফতার":2798,"কিং":2799,"বধবার":2800,"##চর":2801,"আটক":2802,"খেলা":2803,"জানিযেছেন":2804,"##মো":2805,"সংসদ":2806,"পরিস":2807,"জনগ":2808,"গঠ":2809,"সোমবার":2810,"খেল":2811,"##শীল":2812,"ডাক":2813,"শেষে":2814,"উননযন":2815,"শো":2816,"হে":2817,"মহি":2818,"জয":2819,"##মেদ":2820,"এত":2821,"##লেই":2822,"আপনা":2823,"পরতিষঠান":2824,"পাশাপা":2825,"আমাকে":2826,"পাশাপাশি":2827,"সী":2828,"নিরবাচনে":2829,"সমসযা":2830,"##বাব":2831,"গতকাল":2832,"বকতবয":2833,"##িনার":2834,"রিপোর":2835,"বিদযাল":2836,"শকর":2837,"##খান":2838,"মঙগলবার":2839,"ঘরে":2840,"পরষ":2841,"শরে":2842,"শাস":2843,"দকষিণ":2844,"##মাতর":2845,"বলতে":2846,"##িদ":2847,"ফের":2848,"আসে":2849,"##গলোর":2850,"##চা":2851,"শরী":2852,"পালন":2853,"মহান":2854,"মোঃ":2855,"জাহ":2856,"হলেও":2857,"২৫":2858,"হাই":2859,"উৎ":2860,"##কল":2861,"হযেছেন":2862,"অনষঠানে":2863,"রাতে":2864,"চিন":2865,"একস":2866,"##কট":2867,"যাওযা":2868,"##হী":2869,"মোহামমদ":2870,"জার":2871,"##he":2872,"পলিশের":2873,"বিষযটি":2874,"মিনি":2875,"##পক":2876,"গবে":2877,"অভিযান":2878,"এলাকার":2879,"##পরের":2880,"##লী":2881,"অবশয":2882,"ডে":2883,"##াযোগ":2884,"##বোধ":2885,"##দরশ":2886,"##ভর":2887,"শনিবার":2888,"##দধা":2889,"পরদান":2890,"##বাসী":2891,"##পাতা":2892,"১৬":2893,"##িং":2894,"##ew":2895,"গান":2896,"##কদের":2897,"উদযোগ":2898,"##ad":2899,"##মর":2900,"##ডাই":2901,"##শর":2902,"ওযার":2903,"সকালে":2904,"সংশ":2905,"পায":2906,"আহত":2907,"রায":2908,"অক":2909,"পকষ":2910,"বাবা":2911,"সবাস":2912,"সিদধানত":2913,"সষটি":2914,"##িরা":2915,"অনযাযী":2916,"##কয":2917,"পরকলপ":2918,"জিযা":2919,"দাম":2920,"বাসতব":2921,"কমিটির":2922,"বিমান":2923,"শকরবার":2924,"##িড":2925,"জে":2926,"সারা":2927,"১৩":2928,"বযাংক":2929,"##ামা":2930,"খর":2931,"##ic":2932,"কোনও":2933,"##াট":2934,"পন":2935,"সমমেল":2936,"খালেদা":2937,"ভাবে":2938,"ভাব":2939,"##যকত":2940,"লাই":2941,"লেখা":2942,"##করানত":2943,"বাংলাদেশে":2944,"রাখা":2945,"বসে":2946,"মযাচ":2947,"আহমেদ":2948,"##োপ":2949,"সংখযা":2950,"ইউনিযনের":2951,"বযাপারে":2952,"##শোর":2953,"ফিরে":2954,"##বীর":2955,"বিশবাস":2956,"পরীকষ":2957,"জেলার":2958,"শিকষারথ":2959,"##িকত":2960,"ফার":2961,"নাই":2962,"বিশববিদযালযের":2963,"মানব":2964,"পরিবার":2965,"##েনস":2966,"com":2967,"##গল":2968,"এগিযে":2969,"যাওযার":2970,"বেডে":2971,"বযস":2972,"তদন":2973,"##িসট":2974,"হাসপাতা":2975,"লাভ":2976,"কেনদরীয":2977,"সতরী":2978,"##জনের":2979,"উদদেশ":2980,"ভিত":2981,"মারক":2982,"আলা":2983,"##গের":2984,"##যাত":2985,"অবসথান":2986,"সাত":2987,"বিরোধ":2988,"দটি":2989,"##রেক":2990,"বিদেশ":2991,"নিযন":2992,"যকতরা":2993,"গরেফতার":2994,"তারপর":2995,"হাসপাতালে":2996,"##is":2997,"বরতমানে":2998,"##বনদ":2999,"উপল":3000,"টে":3001,"থানার":3002,"বিনি":3003,"বিদয":3004,"১৭":3005,"সহযোগ":3006,"আয":3007,"##ণয":3008,"লো":3009,"ককস":3010,"হাসান":3011,"##াযন":3012,"##িকলপ":3013,"জল":3014,"কাছ":3015,"বিভাগের":3016,"শরমিক":3017,"##করা":3018,"বরণ":3019,"বরা":3020,"যোগাযোগ":3021,"##ীতি":3022,"চলছে":3023,"ঘটনায":3024,"ভো":3025,"এলাকা":3026,"কিংবা":3027,"ইতিহাস":3028,"##শিযা":3029,"গোল":3030,"##বিষ":3031,"##মব":3032,"রাখতে":3033,"পরিচালক":3034,"##ed":3035,"আশা":3036,"##শেষ":3037,"আযোজ":3038,"হত":3039,"##ামান":3040,"সবাসথয":3041,"শকতি":3042,"পরীকষা":3043,"ককসবাজার":3044,"পরাণ":3045,"অত":3046,"গডে":3047,"সাজ":3048,"নিযম":3049,"ফি":3050,"আট":3051,"নভে":3052,"ঘর":3053,"থাকতে":3054,"##সর":3055,"শীর":3056,"বৈঠ":3057,"পরচার":3058,"গলপ":3059,"সমপরক":3060,"পারি":3061,"মহাস":3062,"##জের":3063,"সৈ":3064,"##াজিক":3065,"পরাথম":3066,"অবসথায":3067,"সনদর":3068,"ইনটার":3069,"রোহি":3070,"ফেস":3071,"২০১৮":3072,"পশচি":3073,"##ঙক":3074,"পৌর":3075,"তারি":3076,"পরাথমিক":3077,"##তরীর":3078,"##লক":3079,"বোর":3080,"নিরাপত":3081,"মালিক":3082,"##খা":3083,"##ছিলাম":3084,"পরিবারের":3085,"যত":3086,"সভায":3087,"##দায":3088,"দিনের":3089,"সপার":3090,"কাজে":3091,"##তরণাল":3092,"জানতে":3093,"সবি":3094,"মোট":3095,"##চিতর":3096,"পরসত":3097,"##িনন":3098,"##ews":3099,"পথি":3100,"করমস":3101,"##টস":3102,"in":3103,"ভাগ":3104,"পরবরতী":3105,"দরত":3106,"বেগম":3107,"##পরিয":3108,"##গলি":3109,"নিজেদের":3110,"##িনদ":3111,"##করণ":3112,"২৪":3113,"##তানের":3114,"কাল":3115,"বেস":3116,"চাপ":3117,"ইউনিযন":3118,"##ভকত":3119,"সডক":3120,"##পটে":3121,"জো":3122,"পরিকলপ":3123,"ফেলে":3124,"ভোট":3125,"##পাদ":3126,"##েলের":3127,"সাক":3128,"মনতরণাল":3129,"বাইরে":3130,"নভেমবর":3131,"লাল":3132,"বিজ":3133,"ছে":3134,"##ডায":3135,"##পরাপত":3136,"##নদর":3137,"সনধ":3138,"দবার":3139,"সামাজিক":3140,"হই":3141,"##নড":3142,"##মত":3143,"আবেদন":3144,"মোবাই":3145,"পারবেন":3146,"অঞচ":3147,"গেলে":3148,"ফেল":3149,"ওর":3150,"##লাইন":3151,"সমরথ":3152,"অকটো":3153,"কমিশ":3154,"সাডে":3155,"##চল":3156,"##টিকে":3157,"সিলেট":3158,"টা":3159,"কোমপানি":3160,"##ধযে":3161,"পরেসিড":3162,"ভিডিও":3163,"সাহায":3164,"পকষে":3165,"অধিকার":3166,"বদধি":3167,"##ঠা":3168,"রপ":3169,"চান":3170,"গাডি":3171,"##ানতি":3172,"অথবা":3173,"পল":3174,"মহিলা":3175,"ময":3176,"নব":3177,"মিযা":3178,"টাই":3179,"মসলিম":3180,"20":3181,"##কো":3182,"##গরিক":3183,"মারকিন":3184,"##বেদ":3185,"গরতবপরণ":3186,"সথা":3187,"##আর":3188,"##িনীর":3189,"মলয":3190,"চোখ":3191,"ভরতি":3192,"##নয":3193,"বিশববিদযালয":3194,"##তবয":3195,"আহমদ":3196,"হিসাবে":3197,"একা":3198,"##কোর":3199,"অনযতম":3200,"দার":3201,"বঙগবনধ":3202,"মেড":3203,"শরেণ":3204,"যেখানে":3205,"ভল":3206,"##ৗশ":3207,"নগর":3208,"চাক":3209,"জলাই":3210,"##লীগের":3211,"##ou":3212,"সেপটে":3213,"শত":3214,"##ানির":3215,"নেওযা":3216,"আদালত":3217,"পাশে":3218,"চলা":3219,"##গরহণ":3220,"জাতি":3221,"চালিযে":3222,"##বদধ":3223,"অপরাধ":3224,"ভারতীয":3225,"হাসিনা":3226,"আরেক":3227,"##ion":3228,"রবি":3229,"##চয":3230,"সেনা":3231,"জমি":3232,"##তারা":3233,"##ing":3234,"পরতযা":3235,"খো":3236,"চলচ":3237,"এসেছে":3238,"কঠ":3239,"২১":3240,"ফোন":3241,"##মধযে":3242,"##কারি":3243,"সনতান":3244,"মাদক":3245,"লিখ":3246,"আনদোলন":3247,"##েলি":3248,"খল":3249,"সবর":3250,"জনপরিয":3251,"শহরের":3252,"##াসা":3253,"সিনে":3254,"রোহিঙগা":3255,"অকটোবর":3256,"কারা":3257,"##ঙগি":3258,"সপতা":3259,"##ততবে":3260,"দিবস":3261,"মারচ":3262,"##ঘর":3263,"পেশ":3264,"সবী":3265,"শবদ":3266,"##le":3267,"ভাষ":3268,"অতিথি":3269,"##ঘট":3270,"নিরবাহী":3271,"পথে":3272,"##দির":3273,"##বাল":3274,"রযা":3275,"##হীন":3276,"পরিমাণ":3277,"অফিসার":3278,"শরীর":3279,"৫০":3280,"রাখেন":3281,"শীরষ":3282,"##মেনট":3283,"##াকায":3284,"মখে":3285,"২২":3286,"বিশবের":3287,"##যাক":3288,"##রী":3289,"লকষয":3290,"##ামি":3291,"##ছরে":3292,"অতির":3293,"কমার":3294,"ফা":3295,"##ডির":3296,"##বত":3297,"##ীদ":3298,"ডিসে":3299,"থাকেন":3300,"সতরে":3301,"রোব":3302,"রকত":3303,"চরি":3304,"খাবার":3305,"আসতে":3306,"##ইন":3307,"##ang":3308,"সেপটেমবর":3309,"কারযাল":3310,"জর":3311,"##সিং":3312,"করেছিলেন":3313,"ভম":3314,"মজি":3315,"জানায":3316,"যদধ":3317,"সংসথা":3318,"##শের":3319,"তাতে":3320,"##la":3321,"থাকার":3322,"নৌ":3323,"পডা":3324,"মনোন":3325,"এদিকে":3326,"পরেসিডেনট":3327,"অতিরিকত":3328,"সচিব":3329,"নজর":3330,"##িকভাবে":3331,"the":3332,"আসা":3333,"নেযা":3334,"##োযার":3335,"নামের":3336,"সিটি":3337,"পরমাণ":3338,"বললেন":3339,"নিরমাণ":3340,"##াতের":3341,"পরিবরতন":3342,"মির":3343,"অধযাপ":3344,"বলি":3345,"বাডিতে":3346,"দিক":3347,"দেওযার":3348,"##নাথ":3349,"পরিবেশ":3350,"চায":3351,"সনতর":3352,"নদী":3353,"##াসট":3354,"ছেডে":3355,"##যোগয":3356,"কষতি":3357,"নিক":3358,"##েনার":3359,"সংগরহ":3360,"মনতরী":3361,"কখনো":3362,"মাসে":3363,"খাদ":3364,"টাকার":3365,"উদবোধ":3366,"সফ":3367,"পরারথী":3368,"আযোজন":3369,"তদনত":3370,"আধ":3371,"ঘটনার":3372,"তরণ":3373,"##যাট":3374,"যাতে":3375,"##টিযে":3376,"আগের":3377,"ইতযা":3378,"সমমান":3379,"মাঠে":3380,"ইংরে":3381,"##গান":3382,"##জান":3383,"বাদ":3384,"মাই":3385,"নাগরিক":3386,"বাণ":3387,"##ফে":3388,"হারিযে":3389,"##জজামান":3390,"সনতরাস":3391,"##লিষট":3392,"গাজ":3393,"##চছা":3394,"সফল":3395,"##থার":3396,"করতপকষ":3397,"নিরাপততা":3398,"##উল":3399,"আমের":3400,"নিযোগ":3401,"আছেন":3402,"বিশবকা":3403,"বিযে":3404,"##াসে":3405,"চর":3406,"দৈ":3407,"মোবাইল":3408,"##ভীর":3409,"পলা":3410,"##পাল":3411,"##িতয":3412,"নমবর":3413,"##দরশন":3414,"##ফোর":3415,"##গরে":3416,"অধযাপক":3417,"##সিল":3418,"অভ":3419,"জড":3420,"##st":3421,"বিজঞান":3422,"##ামর":3423,"##ষটরের":3424,"যৌন":3425,"##তেন":3426,"হামলা":3427,"দাডিযে":3428,"##বায":3429,"মেডিক":3430,"তমি":3431,"ধারা":3432,"বোঝ":3433,"দিনে":3434,"অবসথা":3435,"বেলা":3436,"বিকরি":3437,"গলি":3438,"মারা":3439,"দবারা":3440,"##মিন":3441,"পরসতা":3442,"নিন":3443,"##উট":3444,"সরবো":3445,"সংশলিষট":3446,"কষি":3447,"পরিষদের":3448,"##দদিন":3449,"শার":3450,"সমন":3451,"##ধে":3452,"ডিসেমবর":3453,"##ফার":3454,"##লিক":3455,"##কতার":3456,"মাছ":3457,"##টেড":3458,"উৎপাদ":3459,"জানিযেছে":3460,"##জল":3461,"সমযের":3462,"আসলে":3463,"##ণে":3464,"হাসপাত":3465,"গাছ":3466,"দেযার":3467,"জোর":3468,"##re":3469,"ইযা":3470,"২০১৭":3471,"লিখে":3472,"##রয":3473,"##ঠি":3474,"উপলকষে":3475,"মযান":3476,"##শাহ":3477,"কাপ":3478,"রাজধানীর":3479,"মযাচে":3480,"১৯৭":3481,"পরিচালনা":3482,"পরের":3483,"##সল":3484,"হযতো":3485,"##হর":3486,"##মিত":3487,"সেবা":3488,"পরতিযোগ":3489,"নিরবাচনের":3490,"অরথা":3491,"মামলায":3492,"মহা":3493,"কাউন":3494,"নিজসব":3495,"হম":3496,"##েশনের":3497,"পরতিটি":3498,"মসজি":3499,"টেস":3500,"##নত":3501,"পরভাব":3502,"সমপরতি":3503,"##ংস":3504,"করিকেট":3505,"ফিল":3506,"বিপল":3507,"মামলার":3508,"পরসকার":3509,"করছি":3510,"an":3511,"##মস":3512,"সল":3513,"দপরে":3514,"জিন":3515,"নিযনতরণ":3516,"সথানে":3517,"অরথাৎ":3518,"##lo":3519,"##োভ":3520,"##শার":3521,"##লাল":3522,"বাজারে":3523,"পরযকতি":3524,"##মাধয":3525,"থাকলে":3526,"কষমতা":3527,"ফরি":3528,"রোববার":3529,"##িকায":3530,"কবিত":3531,"নেয":3532,"পেতে":3533,"##তবে":3534,"কমে":3535,"ভমিকা":3536,"কমিটি":3537,"পাহা":3538,"২৩":3539,"##হন":3540,"ইতযাদি":3541,"আবল":3542,"বাঙ":3543,"আগসট":3544,"করেছি":3545,"হোক":3546,"##েনি":3547,"##লেক":3548,"আললাহর":3549,"যদিও":3550,"of":3551,"১৯৯":3552,"থানা":3553,"তারিখ":3554,"৪০":3555,"পাই":3556,"##কষম":3557,"জামা":3558,"কাজের":3559,"এখনো":3560,"পরতিদিন":3561,"দরঘট":3562,"পোস":3563,"##কতা":3564,"##বাদী":3565,"সামর":3566,"মসল":3567,"পরথ":3568,"বিল":3569,"পরকাশিত":3570,"ভাষা":3571,"জাযগা":3572,"চিনতা":3573,"##বিদ":3574,"ছয":3575,"অভিনে":3576,"নাস":3577,"##il":3578,"সাহাযয":3579,"পদধ":3580,"বাল":3581,"##ষিক":3582,"সহায":3583,"##এফ":3584,"ফটবল":3585,"পাকিসতান":3586,"##গরি":3587,"গহ":3588,"পরাক":3589,"সবপন":3590,"##রো":3591,"সহকারী":3592,"আসছে":3593,"তোমার":3594,"কারযকর":3595,"##াতার":3596,"টেক":3597,"সঙগ":3598,"নেমে":3599,"ঢাকার":3600,"অনতর":3601,"##বিষয":3602,"কান":3603,"মনতবয":3604,"##তল":3605,"হলেন":3606,"আলাই":3607,"বছরে":3608,"সীমান":3609,"কিশোর":3610,"ধরা":3611,"আহবান":3612,"সংগঠন":3613,"উচিত":3614,"##গণ":3615,"##যেল":3616,"মেযর":3617,"আগেই":3618,"##ংক":3619,"##কালীন":3620,"বযাপক":3621,"ফেবর":3622,"করপোর":3623,"পাস":3624,"##চের":3625,"জীবনের":3626,"পরশিকষ":3627,"বিপকষে":3628,"পরযাযে":3629,"re":3630,"দোক":3631,"ততীয":3632,"কযামপ":3633,"মকতিযো":3634,"২৮":3635,"নো":3636,"পরমখ":3637,"থানায":3638,"আপনাকে":3639,"ডলার":3640,"##মনতরীর":3641,"এপর":3642,"দলীয":3643,"কযেকটি":3644,"নেন":3645,"পরবেশ":3646,"##বাধ":3647,"শিকার":3648,"ধারণা":3649,"পরিসথি":3650,"201":3651,"##বিক":3652,"করলেন":3653,"##দেহ":3654,"তালিকা":3655,"সবিধা":3656,"পরিকলপনা":3657,"অযানড":3658,"শহর":3659,"##েনের":3660,"ঐকয":3661,"##ঙখ":3662,"##ষের":3663,"মাসের":3664,"এল":3665,"পরথমে":3666,"##গায":3667,"অনষঠান":3668,"##am":3669,"অযাপ":3670,"##কেল":3671,"এদের":3672,"এসময":3673,"সঠ":3674,"রং":3675,"এখনও":3676,"আদালতে":3677,"খবই":3678,"##েনদর":3679,"মড":3680,"##গলোতে":3681,"অনেকেই":3682,"ভয":3683,"গরামে":3684,"রাম":3685,"মজ":3686,"##দরে":3687,"সকলের":3688,"পরতিবাদ":3689,"কারযকরম":3690,"##িনের":3691,"টেলি":3692,"এপরিল":3693,"ঘণ":3694,"সেক":3695,"তব":3696,"##দীর":3697,"পরিচয":3698,"অনলাইন":3699,"##পনা":3700,"##নাম":3701,"অরজন":3702,"##চক":3703,"##তাম":3704,"পিছ":3705,"##িযার":3706,"সৌদি":3707,"ঘন":3708,"মাদর":3709,"##গো":3710,"নাকি":3711,"চিকিৎসা":3712,"আরথ":3713,"হযা":3714,"২৬":3715,"##যদধ":3716,"সরবোচচ":3717,"ছি":3718,"##খালী":3719,"##কষেপ":3720,"##বিল":3721,"পাওযার":3722,"##খার":3723,"পরতির":3724,"বিরোধী":3725,"ইর":3726,"পছ":3727,"মহানগর":3728,"##ভত":3729,"##কতিক":3730,"গঠন":3731,"বদ":3732,"নিরবাচিত":3733,"বিষযক":3734,"##ডী":3735,"বিনিযোগ":3736,"হাল":3737,"শহীদ":3738,"তোমা":3739,"পরবে":3740,"পারবে":3741,"যাতরী":3742,"##ঘাত":3743,"##যাশন":3744,"পরতিষঠা":3745,"নিউ":3746,"নিজেকে":3747,"২০১৬":3748,"##টিশ":3749,"সমার":3750,"##শাল":3751,"খার":3752,"##ভাবিক":3753,"##সী":3754,"অনর":3755,"bang":3756,"ডর":3757,"বযবসায":3758,"পরিষদ":3759,"বাণিজ":3760,"সমভাব":3761,"##রাষটর":3762,"##ানী":3763,"##বধ":3764,"বিদযৎ":3765,"##কিং":3766,"কবি":3767,"জানযারি":3768,"পরিচিত":3769,"##টাল":3770,"##বনে":3771,"জানানো":3772,"অপে":3773,"পণয":3774,"##পাডা":3775,"জমা":3776,"জঞ":3777,"##বাদের":3778,"যথ":3779,"দখ":3780,"সটে":3781,"দরকার":3782,"##ডাতে":3783,"এমনকি":3784,"শির":3785,"##সিক":3786,"##ভী":3787,"কামাল":3788,"বিজয":3789,"২৭":3790,"অভিনয":3791,"মাথা":3792,"মিযান":3793,"এভাবে":3794,"সভাপতিতবে":3795,"মাহমদ":3796,"##ৎকার":3797,"দরশ":3798,"শনে":3799,"##গডা":3800,"হো":3801,"##শালী":3802,"বেসর":3803,"যাচ":3804,"মিযানমার":3805,"বযাংকের":3806,"##ot":3807,"নেততবে":3808,"রেল":3809,"জিযার":3810,"সাংস":3811,"আননদ":3812,"দো":3813,"করেছিল":3814,"##লিযা":3815,"ইম":3816,"হিনদ":3817,"বযবসাযী":3818,"শিকষারথীদের":3819,"গল":3820,"সবামী":3821,"##মক":3822,"পদে":3823,"কেবল":3824,"জেনার":3825,"সহজ":3826,"##িতে":3827,"কমপ":3828,"##যদ":3829,"রব":3830,"##কোন":3831,"চাদ":3832,"পরিণ":3833,"নাজ":3834,"##িতির":3835,"হওযায":3836,"##as":3837,"##ীকে":3838,"বরং":3839,"##টিক":3840,"##দিষট":3841,"যকত":3842,"ইতি":3843,"শিকষারথী":3844,"নিযমিত":3845,"##রল":3846,"##জনয":3847,"##উর":3848,"মাও":3849,"গড":3850,"পরারথ":3851,"কমিশন":3852,"পরিবহ":3853,"অবশযই":3854,"##ent":3855,"চিতর":3856,"বঝতে":3857,"লাশ":3858,"পনর":3859,"সবাধীনতা":3860,"নিষ":3861,"##et":3862,"লিমি":3863,"##উদদিন":3864,"রকম":3865,"জাতির":3866,"##শী":3867,"##ঙকা":3868,"নিযেছে":3869,"মনোনযন":3870,"বাকি":3871,"বাধা":3872,"মসলমান":3873,"##াসথ":3874,"রিপোরট":3875,"##লাললাহ":3876,"সেরা":3877,"##খয":3878,"ইংরেজি":3879,"পডেছে":3880,"##াদার":3881,"##ধব":3882,"##সতা":3883,"##ানস":3884,"রকষ":3885,"কবির":3886,"এমপি":3887,"পেছ":3888,"অসতর":3889,"মেডিকেল":3890,"##ol":3891,"রাজশাহ":3892,"একবার":3893,"গভীর":3894,"জনের":3895,"অথচ":3896,"##মির":3897,"ভালোবাস":3898,"##শিযার":3899,"##দেশের":3900,"গন":3901,"আলাইহি":3902,"সিনি":3903,"##িতি":3904,"##কান":3905,"তেমন":3906,"চকতি":3907,"যগম":3908,"এড":3909,"##উনড":3910,"##মিটার":3911,"মলত":3912,"##ামের":3913,"অপার":3914,"ভিনন":3915,"আও":3916,"##পরা":3917,"রম":3918,"কলেজের":3919,"##কারীদের":3920,"রাখার":3921,"আলাদা":3922,"চলচচিতর":3923,"পযেন":3924,"##পী":3925,"হাদ":3926,"##ভো":3927,"হতো":3928,"মকতিযোদধা":3929,"জাযগায":3930,"##ur":3931,"##িতার":3932,"চাম":3933,"লেন":3934,"##টরে":3935,"##ানতর":3936,"##ীরে":3937,"কাঠ":3938,"মিথ":3939,"সংর":3940,"উদযোগে":3941,"##উটার":3942,"গলো":3943,"বাহিনী":3944,"বিকা":3945,"বিপর":3946,"##ততি":3947,"পঞচ":3948,"সিনিযর":3949,"ছডিযে":3950,"নন":3951,"আফ":3952,"জঙগি":3953,"বাডির":3954,"রাজনীতি":3955,"চাকরি":3956,"মাথায":3957,"দঃ":3958,"##নীতির":3959,"একাধ":3960,"উঠেছে":3961,"পরযোজ":3962,"তিনটি":3963,"কিনা":3964,"বিব":3965,"ইসলামী":3966,"খজে":3967,"##চেতন":3968,"ওঠে":3969,"পৌছে":3970,"পরতিবেদন":3971,"জিজঞ":3972,"কযান":3973,"একাধিক":3974,"সঠিক":3975,"নাট":3976,"সমমেলনে":3977,"##াযার":3978,"চী":3979,"কমপি":3980,"দাযের":3981,"বযবসা":3982,"ছিলো":3983,"আধনিক":3984,"শানতি":3985,"কিভাবে":3986,"##ঘা":3987,"আগরহ":3988,"করমসচি":3989,"রাসতা":3990,"আকর":3991,"দয":3992,"বাজে":3993,"ভবিষয":3994,"বিবে":3995,"##ামার":3996,"##হাজ":3997,"নিকট":3998,"সটা":3999,"বিতর":4000,"এনে":4001,"সৈযদ":4002,"উদবোধন":4003,"##বযে":4004,"মিশ":4005,"কমিশনার":4006,"##িলো":4007,"কাদের":4008,"##বিতর":4009,"হি":4010,"পরামর":4011,"পরসতাব":4012,"পাবেন":4013,"একদিন":4014,"৩১":4015,"জডিত":4016,"##নো":4017,"##ia":4018,"পরযোজনীয":4019,"চাইলে":4020,"অনতত":4021,"দরে":4022,"বিদযালয":4023,"অনেকে":4024,"জনগণের":4025,"##ষঠান":4026,"৩৫":4027,"সমপরণ":4028,"অংশগরহণ":4029,"টরাম":4030,"আসার":4031,"জনযে":4032,"ইনস":4033,"##যনে":4034,"বাণিজয":4035,"লকষযে":4036,"##গঞজের":4037,"মাযের":4038,"সপর":4039,"কিছই":4040,"ফো":4041,"জীবনে":4042,"এছাডাও":4043,"##জীবী":4044,"বিশাল":4045,"কাউ":4046,"ইসলামের":4047,"বাধয":4048,"নিরাপ":4049,"অবসথিত":4050,"##তনতর":4051,"##ষক":4052,"চড":4053,"চলতি":4054,"বিকষ":4055,"পরধানমনতরীর":4056,"ছাতরী":4057,"পরিয":4058,"মডেল":4059,"##ভোগ":4060,"রবিবার":4061,"মানে":4062,"ওসি":4063,"যাই":4064,"২৯":4065,"মতে":4066,"উভ":4067,"রিপোরটার":4068,"আকতার":4069,"খাদয":4070,"এইচ":4071,"হঠা":4072,"খারাপ":4073,"অশ":4074,"কাউনসিল":4075,"আপনাদের":4076,"একমাতর":4077,"##ঙে":4078,"যাদের":4079,"সিরিজ":4080,"রযেছেন":4081,"ঈদ":4082,"পোশ":4083,"যকতরাষটরের":4084,"সমালো":4085,"পযা":4086,"অভিজঞ":4087,"ফেবরযারি":4088,"##ওযে":4089,"##বারে":4090,"news":4091,"##ডিং":4092,"##ফের":4093,"গবেষণা":4094,"হঠাৎ":4095,"ভারপরাপত":4096,"অবৈ":4097,"##িশ":4098,"##পতার":4099,"##তরিক":4100,"##ঞজে":4101,"অনমো":4102,"অনযদিকে":4103,"সমপনন":4104,"জেনারেল":4105,"##যানডের":4106,"আরথিক":4107,"সই":4108,"আলোচ":4109,"##টিভ":4110,"কিছটা":4111,"##তাস":4112,"পেযেছে":4113,"সেটি":4114,"সাংবাদিকদের":4115,"রহমানের":4116,"আকাশ":4117,"হর":4118,"কমপিউটার":4119,"বাতি":4120,"আনা":4121,"ঘটন":4122,"থাকলেও":4123,"##এসই":4124,"আসন":4125,"পরিসথিতি":4126,"মকত":4127,"বেসরকারি":4128,"##গারে":4129,"মতযর":4130,"পবিতর":4131,"গাজী":4132,"##খযাত":4133,"##ch":4134,"সাললাললাহ":4135,"কোমপানির":4136,"সবাভাবিক":4137,"সিলে":4138,"##েনা":4139,"তাদেরকে":4140,"বিতরণ":4141,"নীতি":4142,"রাসল":4143,"অতযনত":4144,"সংকরানত":4145,"বলছেন":4146,"দেবে":4147,"##দেশে":4148,"গরেপতার":4149,"পেরে":4150,"মনো":4151,"##id":4152,"অবৈধ":4153,"##বাডি":4154,"##el":4155,"থাকায":4156,"##াব":4157,"বাহিনীর":4158,"ঢাকায":4159,"দকষ":4160,"২০১৫":4161,"##ভিস":4162,"কঠিন":4163,"##াসরি":4164,"পাঠানো":4165,"অঙগ":4166,"আক":4167,"চোখে":4168,"সাহিতয":4169,"##জির":4170,"##াযণ":4171,"ডিজি":4172,"##জেনট":4173,"##সথা":4174,"সমসত":4175,"কালো":4176,"দেব":4177,"##রিয":4178,"##তক":4179,"শহরে":4180,"ছবির":4181,"##রির":4182,"সকষম":4183,"সরাসরি":4184,"##চাল":4185,"কষট":4186,"পাকিসতানের":4187,"##েনড":4188,"##িরে":4189,"##যাগ":4190,"আযোজিত":4191,"পরদ":4192,"##কষিত":4193,"##তেও":4194,"মেনে":4195,"##যাপী":4196,"মখো":4197,"ভিততিতে":4198,"পরচ":4199,"গার":4200,"##ওযান":4201,"খেলে":4202,"ভযা":4203,"on":4204,"করতেন":4205,"মানষকে":4206,"##কারের":4207,"##বকে":4208,"সিং":4209,"##ফোন":4210,"ফলা":4211,"পথিবীর":4212,"লাগে":4213,"সাব":4214,"##লানা":4215,"##যাশনাল":4216,"আত":4217,"পরামরশ":4218,"বিকে":4219,"##বছর":4220,"রেকর":4221,"##ro":4222,"আসবে":4223,"অগর":4224,"তৎ":4225,"আকরম":4226,"কেটে":4227,"খরচ":4228,"##কষর":4229,"নরল":4230,"সাকষ":4231,"পরকরিযা":4232,"##সভা":4233,"বিদযালযের":4234,"কারো":4235,"রঙ":4236,"জেনে":4237,"পডতে":4238,"and":4239,"যন":4240,"সমাধান":4241,"ফোর":4242,"##ষটির":4243,"আসেন":4244,"শভ":4245,"সেনাবাহ":4246,"##ফিজ":4247,"##াকত":4248,"কমান":4249,"ফাই":4250,"টার":4251,"বযকতিগত":4252,"জাপ":4253,"মকতিযদধ":4254,"উৎপাদন":4255,"জানি":4256,"নদীর":4257,"##মনি":4258,"##াহি":4259,"বাচচ":4260,"খাত":4261,"অযাড":4262,"সথাযী":4263,"কলযা":4264,"পারব":4265,"পরসততি":4266,"পরতিক":4267,"##হল":4268,"বীর":4269,"##সক":4270,"সত":4271,"কেমন":4272,"ইনটারনে":4273,"পযার":4274,"##এল":4275,"লডাই":4276,"ঘটনাসথ":4277,"কোথা":4278,"##কারে":4279,"মাঠ":4280,"পরশাসন":4281,"রকষা":4282,"##সংঘ":4283,"নিচে":4284,"আদায":4285,"করিম":4286,"জারমান":4287,"দষটি":4288,"##কৌশ":4289,"##ষধ":4290,"ডাকতার":4291,"মিনিট":4292,"করেই":4293,"অধিদ":4294,"দৈনিক":4295,"##গঠনিক":4296,"মেযের":4297,"গরপ":4298,"গরাহ":4299,"##ামে":4300,"আমিন":4301,"ইউপি":4302,"অধিন":4303,"##ct":4304,"হাসিনার":4305,"লোকজন":4306,"দরনীতি":4307,"##েরি":4308,"অরথনৈতিক":4309,"কাটা":4310,"জটি":4311,"ঘোষ":4312,"সতযি":4313,"যব":4314,"##মতি":4315,"সহজে":4316,"##পথ":4317,"পরিণত":4318,"মহর":4319,"বিজে":4320,"১৯৮":4321,"##যামপি":4322,"অভিযোগে":4323,"যেকোন":4324,"অবযা":4325,"চালা":4326,"বষটি":4327,"আহব":4328,"##বযাপী":4329,"##মকে":4330,"সিনেমা":4331,"পছনদ":4332,"পরতিরোধ":4333,"##পণ":4334,"ইঞজ":4335,"সহাযতা":4336,"বিযের":4337,"বযকতির":4338,"##ামল":4339,"পরতিবে":4340,"জরি":4341,"পরশিকষণ":4342,"দেশটির":4343,"পজি":4344,"সাংগঠনিক":4345,"আফর":4346,"##াসের":4347,"যাযনি":4348,"নিরযা":4349,"পোশাক":4350,"##িষট":4351,"আচ":4352,"ছাড":4353,"ফেসবক":4354,"##াময":4355,"ভাঙ":4356,"হাট":4357,"বাক":4358,"##জনক":4359,"অসটরে":4360,"সটাফ":4361,"ছাতরলীগের":4362,"ধান":4363,"কবিতা":4364,"তাক":4365,"তেল":4366,"মহাসচিব":4367,"রস":4368,"ঋণ":4369,"ছাডাও":4370,"##এসসি":4371,"##ধিক":4372,"সরবরাহ":4373,"সেনটার":4374,"সংগঠনের":4375,"গেছেন":4376,"চযা":4377,"জাতিসংঘ":4378,"লেনদ":4379,"##নিযা":4380,"মিনিটে":4381,"ভবন":4382,"ভোর":4383,"উন":4384,"দিলে":4385,"ঘটেছে":4386,"শাম":4387,"নী":4388,"সবীকার":4389,"পথিবী":4390,"আবদর":4391,"দলে":4392,"নিরধারণ":4393,"সখ":4394,"কোথায":4395,"দিচছে":4396,"মধযেই":4397,"নং":4398,"বিকেলে":4399,"নান":4400,"##দাতা":4401,"##বিশ":4402,"ধরষণ":4403,"সিরাজ":4404,"করমচার":4405,"ঘম":4406,"সারভিস":4407,"পৌছ":4408,"##সথান":4409,"আখ":4410,"##িলোমিটার":4411,"সেত":4412,"ওযান":4413,"বযরথ":4414,"##মলক":4415,"চেযারপার":4416,"পোসট":4417,"আনদোলনের":4418,"সচেতন":4419,"মনতরণালযের":4420,"পত":4421,"##শেষে":4422,"##াসহ":4423,"জবা":4424,"নিরভর":4425,"##00":4426,"খাওযা":4427,"##ইল":4428,"##রাফ":4429,"বেশির":4430,"সমভাবনা":4431,"হসত":4432,"পরতিষঠানের":4433,"দী":4434,"২০১৪":4435,"##মরা":4436,"সমপদ":4437,"অধয":4438,"ভেঙে":4439,"হামলার":4440,"পরশনের":4441,"বোরড":4442,"##গাও":4443,"পরেম":4444,"সংঘর":4445,"গরম":4446,"হতযার":4447,"তরি":4448,"সোহ":4449,"চকর":4450,"আজি":4451,"##ণী":4452,"##েষট":4453,"সরে":4454,"##শনের":4455,"বেরিযে":4456,"লেখক":4457,"খেযে":4458,"জনগণ":4459,"##তবের":4460,"##যামপিযন":4461,"ভাষায":4462,"এরা":4463,"দিলেন":4464,"##দিনের":4465,"##াকিব":4466,"উইকেট":4467,"পশচিম":4468,"পরতিবেদক":4469,"সামরিক":4470,"ওযেবস":4471,"করী":4472,"চডানত":4473,"উননত":4474,"##ir":4475,"##ob":4476,"বৈঠক":4477,"গোপন":4478,"##ঙখলা":4479,"মিস":4480,"মেহের":4481,"কষমতায":4482,"##হাট":4483,"দপর":4484,"১০০":4485,"##শবর":4486,"আকরানত":4487,"পাবে":4488,"কযেকজন":4489,"রেস":4490,"রাই":4491,"পরীকষার":4492,"বিজঞপতি":4493,"ওযেবসাই":4494,"করতক":4495,"ভমি":4496,"বক":4497,"সমারট":4498,"আইনজীবী":4499,"বৈঠকে":4500,"বিশিষট":4501,"সেখান":4502,"রাজধানী":4503,"##বেশে":4504,"বাসায":4505,"##পো":4506,"পিতা":4507,"##তিত":4508,"সাংসকতিক":4509,"উপজেলায":4510,"টেসট":4511,"দেখিযে":4512,"পরতযেক":4513,"করায":4514,"মাওলানা":4515,"মযানে":4516,"রাজশাহী":4517,"আইনের":4518,"বসবাস":4519,"জিনিস":4520,"৩২":4521,"##েনটের":4522,"কং":4523,"চনদর":4524,"সথাপন":4525,"যবক":4526,"কাগ":4527,"তী":4528,"ধীরে":4529,"##াজয":4530,"সবস":4531,"নিরদিষট":4532,"বযয":4533,"উচ":4534,"বলছে":4535,"নজরল":4536,"ভগ":4537,"পারটির":4538,"নীল":4539,"কোথাও":4540,"৬০":4541,"##োনাল":4542,"to":4543,"##বাহী":4544,"মানসিক":4545,"ইক":4546,"##বনধন":4547,"করব":4548,"##নিং":4549,"কাজী":4550,"একাডে":4551,"গরন":4552,"মহামমদ":4553,"সমমেলন":4554,"অলপ":4555,"##বেল":4556,"রাজয":4557,"উতত":4558,"##লাস":4559,"চযামপিযন":4560,"চযান":4561,"##গীর":4562,"কথ":4563,"উদদেশযে":4564,"দখল":4565,"বসত":4566,"উদদেশয":4567,"খলে":4568,"সংসথ":4569,"বাংলার":4570,"তোমাদের":4571,"উললেখয":4572,"পালিযে":4573,"পেযেছেন":4574,"ch":4575,"মজিবর":4576,"রেকরড":4577,"এনড":4578,"পরিবহন":4579,"সিস":4580,"##ীগঞজ":4581,"##কিছ":4582,"##নিউজ":4583,"সান":4584,"সমতি":4585,"কিলোমিটার":4586,"##ig":4587,"বরিটিশ":4588,"ধবং":4589,"মনতরণালয":4590,"করমী":4591,"বাচ":4592,"বলল":4593,"একাদ":4594,"##বনের":4595,"##সান":4596,"নবী":4597,"##ag":4598,"আগন":4599,"##বিধান":4600,"বিকষোভ":4601,"করণ":4602,"##যযার":4603,"মনদির":4604,"ঘা":4605,"মিডিযা":4606,"দাবিতে":4607,"##ছডি":4608,"##তিকর":4609,"##খানা":4610,"মিলে":4611,"উপা":4612,"উকত":4613,"কৌশ":4614,"মিলি":4615,"##লস":4616,"গণমাধয":4617,"কযামের":4618,"দিনাজ":4619,"অধি":4620,"##লযানড":4621,"যেসব":4622,"নিরধার":4623,"বিদ":4624,"##যত":4625,"ইমাম":4626,"কারযালযে":4627,"তথা":4628,"নেওযার":4629,"পরান":4630,"পারেনি":4631,"##ঙগের":4632,"##াসি":4633,"##কেও":4634,"##থর":4635,"তলনায":4636,"আহবাযক":4637,"অনি":4638,"আদালতের":4639,"৪৫":4640,"বায":4641,"ধরমীয":4642,"চরম":4643,"জঞান":4644,"খেলোযা":4645,"পরকৌশ":4646,"সাহে":4647,"সহযোগিতা":4648,"মম":4649,"সামপর":4650,"সাললাম":4651,"##পতরের":4652,"চাহি":4653,"বিচারপতি":4654,"রেজ":4655,"কখনও":4656,"অনসার":4657,"উপসথা":4658,"উৎসব":4659,"খন":4660,"সমাজের":4661,"দৌ":4662,"সবে":4663,"দেখার":4664,"##পাধ":4665,"সকলে":4666,"বেশী":4667,"কলক":4668,"তারকা":4669,"আদেশ":4670,"অসসথ":4671,"অবযাহত":4672,"করো":4673,"##ore":4674,"মিথযা":4675,"##যাব":4676,"দশমিক":4677,"খলনা":4678,"সমিতির":4679,"দবি":4680,"##নীয":4681,"##িলের":4682,"বেডেছে":4683,"##ষেধ":4684,"##ভাই":4685,"দধ":4686,"রাসতায":4687,"হাসপাতাল":4688,"সরকারী":4689,"খেলার":4690,"দাস":4691,"আরব":4692,"অধিনাযক":4693,"##ভোকেট":4694,"চাষ":4695,"##est":4696,"উপদ":4697,"সদসযরা":4698,"লিমিটেড":4699,"##শিষট":4700,"খেতে":4701,"##িকের":4702,"অনরোধ":4703,"##মকত":4704,"যোগয":4705,"জনকে":4706,"রাখে":4707,"ডিজিটাল":4708,"##ck":4709,"পরজন":4710,"বলেও":4711,"মনতর":4712,"##ীনদর":4713,"আনোযার":4714,"সমরথন":4715,"কাট":4716,"সমাবেশ":4717,"করমসচ":4718,"জগ":4719,"কংগরে":4720,"চিঠি":4721,"পেছনে":4722,"উভয":4723,"বযসত":4724,"চিহন":4725,"##তানতরিক":4726,"##মানের":4727,"বোন":4728,"##টিটি":4729,"লেগে":4730,"সাফল":4731,"আওতায":4732,"##ীক":4733,"উননযনের":4734,"আশরয":4735,"নারাযণ":4736,"##গলোকে":4737,"নাটক":4738,"##িলার":4739,"ফরম":4740,"মোটর":4741,"পরকলপের":4742,"##সাই":4743,"সাদা":4744,"ঐতিহ":4745,"##az":4746,"ভেবে":4747,"##জায":4748,"ঝকি":4749,"##ধন":4750,"পরসতত":4751,"ভেতরে":4752,"গোলাম":4753,"গৌ":4754,"পরসঙগে":4755,"##িতায":4756,"কাউকে":4757,"করল":4758,"নিরাপদ":4759,"পরতয":4760,"চতর":4761,"আজকের":4762,"##হেত":4763,"##মনসিং":4764,"হেল":4765,"ওভার":4766,"##শো":4767,"নারীর":4768,"##জিত":4769,"##থির":4770,"পরকত":4771,"দান":4772,"ভাডা":4773,"##িকাংশ":4774,"পদকষেপ":4775,"পয":4776,"##লাপ":4777,"##ay":4778,"বাঙালি":4779,"বোধ":4780,"তীবর":4781,"যিনি":4782,"এযার":4783,"এফ":4784,"অধিকাংশ":4785,"উপরে":4786,"##জিং":4787,"পদধতি":4788,"সনধযায":4789,"শকতিশালী":4790,"হবেন":4791,"st":4792,"চির":4793,"দবী":4794,"তাম":4795,"মযমনসিং":4796,"##দো":4797,"##রাম":4798,"সাধারণত":4799,"পযেনট":4800,"গিযেছে":4801,"দোকান":4802,"কমিল":4803,"রাজা":4804,"##ul":4805,"হযরত":4806,"মাহব":4807,"বাংলাদেশি":4808,"হাইকোর":4809,"##ফিকল":4810,"##পনের":4811,"মেযা":4812,"##জঞান":4813,"সংগরাম":4814,"ধারাবাহ":4815,"বিধ":4816,"##লিং":4817,"নেযার":4818,"হজ":4819,"পরদরশন":4820,"##চছি":4821,"সিন":4822,"মিছিল":4823,"অযান":4824,"বারতা":4825,"##বলীগ":4826,"বী":4827,"সেকস":4828,"##কাতা":4829,"##বিরোধ":4830,"নামক":4831,"আদরশ":4832,"ধনয":4833,"পরিশ":4834,"সরবশেষ":4835,"হতা":4836,"ভাস":4837,"বাবার":4838,"দেখি":4839,"মদ":4840,"##ut":4841,"যকতরাষটর":4842,"বিধান":4843,"সফর":4844,"অনমতি":4845,"১৯৬":4846,"পরচর":4847,"সাকষা":4848,"দাবী":4849,"সংসথার":4850,"তেমনি":4851,"ঘণটা":4852,"নিরমা":4853,"রক":4854,"নিযেছেন":4855,"ঘরের":4856,"দশয":4857,"ধারণ":4858,"মখয":4859,"টিভি":4860,"মৌল":4861,"বিশেষজঞ":4862,"নামাজ":4863,"##নালে":4864,"আপনারা":4865,"##যেনটি":4866,"আসামি":4867,"##iv":4868,"এরই":4869,"গাই":4870,"চম":4871,"##im":4872,"মাধযমিক":4873,"সপষট":4874,"আমির":4875,"অনমোদন":4876,"##গী":4877,"পাখ":4878,"বারষিক":4879,"পরাচ":4880,"মৌস":4881,"সিবি":4882,"টরেন":4883,"অনধ":4884,"##াঙগ":4885,"নিষেধ":4886,"##টারি":4887,"ভারতে":4888,"পরশাসক":4889,"সাধার":4890,"হোট":4891,"বলেই":4892,"সবাইকে":4893,"##news":4894,"ধরণের":4895,"নিরযাতন":4896,"ওঠ":4897,"মশ":4898,"অধিক":4899,"করলেও":4900,"বযবহত":4901,"গতি":4902,"শরীরের":4903,"##নং":4904,"##িলি":4905,"হাজির":4906,"মিরজা":4907,"##ap":4908,"খোলা":4909,"বেল":4910,"উপায":4911,"##াজন":4912,"পরীকষায":4913,"অভিনেতরী":4914,"পারটি":4915,"ইউন":4916,"##ানড":4917,"পরতিবেদ":4918,"অগ":4919,"##গরী":4920,"উপন":4921,"অদ":4922,"##em":4923,"##মখি":4924,"দফ":4925,"##মণ":4926,"ঈদের":4927,"নিমন":4928,"##ভতি":4929,"অপেকষা":4930,"নিরধারিত":4931,"পরাই":4932,"##আন":4933,"লনড":4934,"##গরসত":4935,"জররি":4936,"##তনের":4937,"শারীর":4938,"ভোগ":4939,"কীভাবে":4940,"নিখ":4941,"##ফরম":4942,"তাপ":4943,"শিশদের":4944,"চীন":4945,"##লোড":4946,"বাসতবাযন":4947,"##হান":4948,"##রেট":4949,"##োলার":4950,"যাচছেন":4951,"##ডো":4952,"তণ":4953,"পরিন":4954,"সরা":4955,"টরে":4956,"মেশ":4957,"##ফো":4958,"ছবিতে":4959,"কলকাতা":4960,"রবীনদর":4961,"মহাসড":4962,"##সাল":4963,"সবজ":4964,"##ততর":4965,"বোঝা":4966,"রাষটরপতি":4967,"কণ":4968,"##পোরট":4969,"ডটক":4970,"চলেছে":4971,"##ালেন":4972,"জানেন":4973,"পযান":4974,"অনষঠানের":4975,"##ভাবেই":4976,"##টাকে":4977,"বিকেল":4978,"নিশচয":4979,"কলাব":4980,"শাখার":4981,"##ভিত":4982,"##ঘাট":4983,"বরণনা":4984,"বযবসথাপনা":4985,"আওযামীলীগের":4986,"করীডা":4987,"দীরঘদিন":4988,"##ানয":4989,"ডিজ":4990,"পরিচালিত":4991,"##সতর":4992,"টরাক":4993,"যৌথ":4994,"নষট":4995,"##নট":4996,"নিঃ":4997,"##শাস":4998,"মোর":4999,"দঃখ":5000,"তোমরা":5001,"মসজিদ":5002,"যবলীগ":5003,"##ীনে":5004,"কাহ":5005,"উর":5006,"##বরণ":5007,"##ারে":5008,"চেযারপারসন":5009,"বাতিল":5010,"৭০":5011,"তালিকায":5012,"##টিযা":5013,"##নদের":5014,"bangla":5015,"##দরের":5016,"নেতারা":5017,"##সেল":5018,"##সির":5019,"পডার":5020,"জম":5021,"##সঙগ":5022,"##নাত":5023,"বলিউ":5024,"ধনযবাদ":5025,"হিসাব":5026,"সিসটে":5027,"টরামপ":5028,"গবেষণ":5029,"ইনডি":5030,"##াকরমী":5031,"এটাই":5032,"ডিএসই":5033,"ইউরো":5034,"সমরণ":5035,"নিরবাচনী":5036,"##বসত":5037,"মের":5038,"বাসতবায":5039,"পরবরতীতে":5040,"কেজি":5041,"শধমাতর":5042,"##ation":5043,"আরি":5044,"সঞচ":5045,"আকরষণ":5046,"এশিযা":5047,"বিকলপ":5048,"এগলো":5049,"সসথ":5050,"উপাদ":5051,"বকতবযে":5052,"##চারয":5053,"গোযেন":5054,"কোচ":5055,"ইনসটিটি":5056,"সনদেহ":5057,"##িকান":5058,"##সভার":5059,"কারাগারে":5060,"কেনদরে":5061,"আবদললাহ":5062,"রযাব":5063,"চক":5064,"একাদশ":5065,"মনির":5066,"ভকত":5067,"খেলোযাড":5068,"জডিযে":5069,"আনষঠান":5070,"##বাডী":5071,"##শিল":5072,"##পরতি":5073,"বদলে":5074,"সংসকতি":5075,"পরিষকার":5076,"যাতরা":5077,"কলযাণ":5078,"বরাজ":5079,"রাজি":5080,"বিজি":5081,"##ow":5082,"ভাইস":5083,"মখোমখি":5084,"ডিম":5085,"##তনে":5086,"বলার":5087,"বেচে":5088,"জামাল":5089,"ওষধ":5090,"অসথ":5091,"বরষ":5092,"বাধ":5093,"তোলা":5094,"ইনটারনেট":5095,"পরযোগ":5096,"##দদিক":5097,"গঠিত":5098,"##টোর":5099,"পরাকতিক":5100,"##ers":5101,"ফিরিযে":5102,"লেনদেন":5103,"সবরণ":5104,"##গলির":5105,"বাম":5106,"আবহ":5107,"পরনো":5108,"শরীল":5109,"হাসপাতালের":5110,"নযায":5111,"যেহেত":5112,"পররাষটর":5113,"গোযেনদা":5114,"##চছিল":5115,"নারীদের":5116,"কট":5117,"শাখা":5118,"##যাজ":5119,"এরকম":5120,"##ওযযার":5121,"##পতির":5122,"জাহাঙগ":5123,"##সিটি":5124,"লাইন":5125,"ভোটার":5126,"উদযাপ":5127,"হবার":5128,"##টেন":5129,"##ভেল":5130,"##ফিল":5131,"২০১৩":5132,"চাহিদা":5133,"করলাম":5134,"##এই":5135,"শিকষারথীরা":5136,"ইতিমধযে":5137,"##জনকে":5138,"বৌ":5139,"সংশোধ":5140,"সদসযদের":5141,"অরধ":5142,"জারি":5143,"বাগ":5144,"জোট":5145,"ইচছা":5146,"শী":5147,"##লিউ":5148,"মনের":5149,"পের":5150,"অধীনে":5151,"##ণডের":5152,"##মবা":5153,"ভেতর":5154,"ফাইন":5155,"চলাচল":5156,"ভরম":5157,"যাক":5158,"##হিত":5159,"এবারের":5160,"হারড":5161,"পরফ":5162,"শানত":5163,"আনতে":5164,"সপতাহ":5165,"পরেসক":5166,"গযাস":5167,"কষক":5168,"##কির":5169,"##েসে":5170,"সামানয":5171,"##মবরে":5172,"কথায":5173,"মরযা":5174,"মেঘ":5175,"দরঘটনা":5176,"##ারের":5177,"কনযা":5178,"পরশাসনের":5179,"th":5180,"পাঠিযে":5181,"টেলিভি":5182,"এজনয":5183,"হবি":5184,"ইলেক":5185,"কমিশনের":5186,"দাড":5187,"মিলিযে":5188,"টিম":5189,"রশি":5190,"কয":5191,"বিবাহ":5192,"জিতে":5193,"বযকত":5194,"বাডিযে":5195,"##াজা":5196,"ইমর":5197,"তৈরী":5198,"বিশবকাপ":5199,"সমান":5200,"##দম":5201,"উপদেষটা":5202,"##িনদা":5203,"নেতাকরমী":5204,"নেততব":5205,"চিকিৎসক":5206,"##বিরোধী":5207,"##un":5208,"হাও":5209,"হমকি":5210,"##ab":5211,"অবা":5212,"জিম":5213,"বিশববিদযালযে":5214,"ঐতিহয":5215,"ফারক":5216,"শিলপী":5217,"চলবে":5218,"কযানসার":5219,"##কিযে":5220,"নগরীর":5221,"ফাস":5222,"##কেটে":5223,"বযসে":5224,"সাধারন":5225,"রচনা":5226,"পরবাসী":5227,"ইতো":5228,"লিখেছেন":5229,"আকরমণ":5230,"টো":5231,"জিজঞাসা":5232,"নিযনতর":5233,"##us":5234,"##ামত":5235,"##বেগ":5236,"সনধযা":5237,"আরেকটি":5238,"আঘাত":5239,"বযসী":5240,"জাহাঙগীর":5241,"কঠোর":5242,"টানা":5243,"আসনে":5244,"জাল":5245,"পরতিষঠিত":5246,"শরতে":5247,"##ঞচল":5248,"অঞচলের":5249,"ছাতরলীগ":5250,"নিজেই":5251,"উজজ":5252,"##ce":5253,"##করো":5254,"বিদেশি":5255,"চাকর":5256,"ওযারড":5257,"শোক":5258,"মাদরাসা":5259,"জবাবে":5260,"হাদী":5261,"ওস":5262,"##উনি":5263,"৮০":5264,"রোহিঙগাদের":5265,"অজ":5266,"শীত":5267,"##ডযন":5268,"দেড":5269,"##টরি":5270,"##বাধিকার":5271,"##oo":5272,"আসনের":5273,"যশোর":5274,"যাবেন":5275,"শরীরে":5276,"১৯৫":5277,"বরিশাল":5278,"টরা":5279,"অনেকের":5280,"##বাজারে":5281,"আলমগীর":5282,"মহরতে":5283,"ফখ":5284,"উততে":5285,"##ীম":5286,"আচরণ":5287,"ইউর":5288,"করিযে":5289,"সফট":5290,"অভিজঞতা":5291,"সবাকষর":5292,"যথেষট":5293,"গোলে":5294,"পষঠ":5295,"ধবংস":5296,"বাব":5297,"হাবি":5298,"মোসত":5299,"সমসযার":5300,"জনযই":5301,"##েসর":5302,"দরবল":5303,"শারীরিক":5304,"দটো":5305,"বিনো":5306,"রাশিযা":5307,"মেযেদের":5308,"পরেসকলা":5309,"সনাম":5310,"##ীরণ":5311,"ফলাফল":5312,"ঐতিহাস":5313,"আবেদ":5314,"সেদিন":5315,"চোখের":5316,"অসং":5317,"দোযা":5318,"জেলায":5319,"খশি":5320,"অযাল":5321,"থাকবেন":5322,"পরচল":5323,"জডে":5324,"সযার":5325,"টেকস":5326,"পানির":5327,"##ox":5328,"ইনটারন":5329,"মিন":5330,"পরোগ":5331,"দিযেছিলেন":5332,"পডেন":5333,"বিখযাত":5334,"ধারাবাহিক":5335,"রাজযের":5336,"বযাট":5337,"##বযা":5338,"জটিল":5339,"##নেস":5340,"জবাল":5341,"গযা":5342,"জেল":5343,"##ভিততিক":5344,"যকতি":5345,"নেট":5346,"##রাই":5347,"read":5348,"চরিতর":5349,"##নির":5350,"সালাম":5351,"শিকষার":5352,"জব":5353,"ডাউন":5354,"##লাইট":5355,"মাদ":5356,"রেজা":5357,"for":5358,"ঘিরে":5359,"নেতাদের":5360,"অতিথির":5361,"##জাহ":5362,"##ইউ":5363,"গোটা":5364,"##োসিযে":5365,"##পাধযায":5366,"##বনধর":5367,"##যী":5368,"অল":5369,"মযাচের":5370,"দেবেন":5371,"সমদধ":5372,"রানের":5373,"করপোরেশন":5374,"শাসতি":5375,"জানে":5376,"##eng":5377,"##াওযা":5378,"##কারীরা":5379,"##াদা":5380,"বাসিনদা":5381,"কারণেই":5382,"সষঠ":5383,"বিতরক":5384,"##দরো":5385,"সেল":5386,"সিদদিক":5387,"ইলেকটর":5388,"তলতে":5389,"ষডযন":5390,"নৌকা":5391,"গজ":5392,"##um":5393,"হোসেনের":5394,"পাত":5395,"নও":5396,"##সযের":5397,"নযা":5398,"##২৪":5399,"##জো":5400,"খেলতে":5401,"##os":5402,"ডটকম":5403,"লিখিত":5404,"শরদধা":5405,"জনসং":5406,"১৯৪":5407,"ওবায":5408,"সপতাহে":5409,"জবাব":5410,"খোজ":5411,"বিভাগে":5412,"##কেরা":5413,"নক":5414,"blo":5415,"আলহাজ":5416,"আড":5417,"##গতি":5418,"কারড":5419,"সতরক":5420,"##াজিত":5421,"##মাদ":5422,"অঞচলে":5423,"চটটগরামের":5424,"সংবাদদাতা":5425,"তাও":5426,"অসম":5427,"##sb":5428,"মোতা":5429,"বরাহ":5430,"রিক":5431,"গাযে":5432,"চামচ":5433,"ঐতিহাসিক":5434,"খাতে":5435,"##িসটার":5436,"ওরা":5437,"বঙগবনধর":5438,"সীমানত":5439,"পরতিবেদনে":5440,"##esh":5441,"##িদধ":5442,"ইবনে":5443,"পণ":5444,"একেবারে":5445,"ইঞজিনি":5446,"##যেত":5447,"ইতোমধযে":5448,"উৎসাহ":5449,"মাত":5450,"আদি":5451,"ভিততি":5452,"##বণ":5453,"বেতন":5454,"মালযে":5455,"##থী":5456,"পাতা":5457,"রানে":5458,"##তানি":5459,"বযার":5460,"হায":5461,"##ামো":5462,"যেকোনো":5463,"দিনাজপর":5464,"##পল":5465,"দারণ":5466,"আটকে":5467,"বিশলে":5468,"বলেছিলেন":5469,"সতরা":5470,"গরতর":5471,"##গধ":5472,"নিরমিত":5473,"দম":5474,"ভট":5475,"ইকবাল":5476,"সোনার":5477,"##েনটে":5478,"শোনা":5479,"পাহাড":5480,"##দিক":5481,"বাছ":5482,"জাক":5483,"অবহ":5484,"##াপন":5485,"##গির":5486,"শিখ":5487,"মক":5488,"শতর":5489,"নিষিদধ":5490,"টই":5491,"বিজেপি":5492,"গলা":5493,"উপাদান":5494,"৩৬":5495,"পারেননি":5496,"সডকের":5497,"##টিস":5498,"করবো":5499,"more":5500,"##হতযা":5501,"ওদের":5502,"অঞচল":5503,"তারেক":5504,"##বাসীর":5505,"পেল":5506,"গরপের":5507,"##িকিউ":5508,"##শিযান":5509,"হোটেল":5510,"##ারি":5511,"সহযোগী":5512,"মিজান":5513,"অতী":5514,"##ইযা":5515,"কারনে":5516,"করিকেটার":5517,"৩৩":5518,"ডিস":5519,"সমালোচনা":5520,"ডান":5521,"দষট":5522,"জামাযা":5523,"আযোজনে":5524,"মামন":5525,"ইউনিভার":5526,"ঢকে":5527,"মেলা":5528,"##হারা":5529,"সিলেটের":5530,"অনেকটা":5531,"আবারও":5532,"তাছাডা":5533,"কিছদিন":5534,"##ামীর":5535,"##লিযার":5536,"করেনি":5537,"শিশর":5538,"চতরথ":5539,"যাব":5540,"টাকায":5541,"কলপ":5542,"মোকা":5543,"টেকনা":5544,"##চন":5545,"মেহেরপর":5546,"রশ":5547,"সংবিধান":5548,"##পিএস":5549,"##বাচক":5550,"অফিসে":5551,"বাডছে":5552,"সবকিছ":5553,"সেলিম":5554,"জনাব":5555,"ওবাযদল":5556,"পাশের":5557,"সবাধীনতার":5558,"##ভায":5559,"ওযেব":5560,"চলচচি":5561,"পরসঙগ":5562,"সংযোগ":5563,"##শত":5564,"পরাচীন":5565,"##নান":5566,"অধযকষ":5567,"আরজেনট":5568,"সস":5569,"চালক":5570,"সংরকষণ":5571,"##থের":5572,"ফরিদ":5573,"সিবিএন":5574,"ইত":5575,"বযবহারের":5576,"মানবাধিকার":5577,"সেগলো":5578,"##ak":5579,"পট":5580,"আলীর":5581,"ইযাবা":5582,"৯০":5583,"পথক":5584,"নায":5585,"##পিত":5586,"আবাস":5587,"##াজঞ":5588,"সতরাং":5589,"সাধ":5590,"পরও":5591,"##মায":5592,"se":5593,"ফাউনড":5594,"##গঞজে":5595,"##দানি":5596,"শাসন":5597,"গিযেছিল":5598,"বিসি":5599,"পতরিকা":5600,"চীনের":5601,"মাদরাস":5602,"চারটি":5603,"চলতে":5604,"ঘোষণ":5605,"##শাদ":5606,"সবসময":5607,"কিনে":5608,"চালানো":5609,"খালি":5610,"##ov":5611,"জামিন":5612,"চালায":5613,"নিরদেশনা":5614,"নিযেই":5615,"করাই":5616,"রাজনী":5617,"করমকরতারা":5618,"মকতিযদধের":5619,"তথ":5620,"সনতানের":5621,"সংঘ":5622,"##িসের":5623,"শিবির":5624,"যথায":5625,"##উনট":5626,"পরিদরশ":5627,"##িসহ":5628,"সোন":5629,"চযালে":5630,"কানা":5631,"নিল":5632,"##খযান":5633,"কাগজ":5634,"কলেজে":5635,"সবীকতি":5636,"##জেন":5637,"##াকরম":5638,"##azar":5639,"কেননা":5640,"বনদ":5641,"০১":5642,"একক":5643,"মাসটার":5644,"বললাম":5645,"অনতরভকত":5646,"যেভাবে":5647,"দরদ":5648,"সাগর":5649,"বকে":5650,"শভে":5651,"সীমা":5652,"সংগ":5653,"##াতমক":5654,"ভমিক":5655,"অসংখয":5656,"শরর":5657,"সৌনদর":5658,"খানের":5659,"##ষিত":5660,"যগ":5661,"সংসকার":5662,"বঝে":5663,"সযা":5664,"##শনে":5665,"কযারি":5666,"সবরাষটর":5667,"##াতে":5668,"শব":5669,"বাচচা":5670,"টান":5671,"খাতের":5672,"##মযে":5673,"##পেকষ":5674,"##বেলা":5675,"সাইট":5676,"মঞজ":5677,"##লাইনে":5678,"পরিদরশন":5679,"##ডেন":5680,"২০১২":5681,"##ষেতরে":5682,"মোড":5683,"কারাদ":5684,"উঠতে":5685,"লাগিযে":5686,"con":5687,"অনসারে":5688,"##িকস":5689,"বেশিরভাগ":5690,"রিযা":5691,"আছি":5692,"শৈ":5693,"বোরডের":5694,"অভিভাব":5695,"বিসফোর":5696,"আজাদ":5697,"সপোর":5698,"সাহা":5699,"ডিগরি":5700,"হাসি":5701,"ভযাবহ":5702,"বারবার":5703,"মকতির":5704,"কষদর":5705,"উনি":5706,"সমদর":5707,"##মালা":5708,"বযান":5709,"আসাদ":5710,"ঘাট":5711,"গানের":5712,"তযাগ":5713,"দেখন":5714,"বেধে":5715,"অবদান":5716,"##শেদ":5717,"ফখরল":5718,"দোষ":5719,"##মতো":5720,"ধাক":5721,"##িকেট":5722,"বিভাগীয":5723,"অভিযকত":5724,"শরেষঠ":5725,"মাটি":5726,"##নগর":5727,"কাউনসিলর":5728,"##কষেতরে":5729,"##engal":5730,"ইসয":5731,"##sbazar":5732,"সাপ":5733,"এখান":5734,"##oxsbazar":5735,"অসা":5736,"মাজ":5737,"হাউ":5738,"পানিতে":5739,"লাগবে":5740,"ভালবাস":5741,"##যারী":5742,"মাধযম":5743,"ইউরোপ":5744,"##এইচ":5745,"বগডা":5746,"নেতবনদ":5747,"অপারে":5748,"বাসা":5749,"##ততব":5750,"আহম":5751,"অতযা":5752,"হাতের":5753,"তারিখে":5754,"নিহ":5755,"যনতর":5756,"bengal":5757,"##যেড":5758,"##বলিক":5759,"উদাহ":5760,"সিল":5761,"রংপর":5762,"##তাকে":5763,"এদিন":5764,"কোটা":5765,"##ংসা":5766,"##ফট":5767,"যকতর":5768,"##ra":5769,"এতো":5770,"মিযানমারের":5771,"জযের":5772,"সনতরাসী":5773,"##মানা":5774,"মৌলভী":5775,"দাখ":5776,"কামনা":5777,"পরাপত":5778,"চলমান":5779,"আশঙকা":5780,"গেলেন":5781,"তৈরির":5782,"ওযাল":5783,"সবেচছ":5784,"##ub":5785,"অবর":5786,"সরিযে":5787,"পরতিদ":5788,"আনার":5789,"কলিক":5790,"রাসতার":5791,"ছবিটি":5792,"##তিকরম":5793,"ককসবাজারনিউজ":5794,"##oxsbazarnews":5795,"##ঙকার":5796,"হালকা":5797,"টাইমস":5798,"চিহনিত":5799,"##তঃ":5800,"অসবী":5801,"ফেরত":5802,"##তাই":5803,"##সফ":5804,"ঠাকর":5805,"##তাদের":5806,"মিটার":5807,"##ভাবন":5808,"উললেখযোগয":5809,"পৌরসভার":5810,"##ঞজন":5811,"কষণ":5812,"##ৈর":5813,"থাকি":5814,"অলি":5815,"##পিএ":5816,"##মাতরা":5817,"##যং":5818,"বাছাই":5819,"করিযা":5820,"অভাব":5821,"কেনদরের":5822,"পারিবার":5823,"অনস":5824,"সচ":5825,"হচছেন":5826,"টাঙগ":5827,"পারবতয":5828,"উননযনে":5829,"সংখ":5830,"৫৫":5831,"##চছিনন":5832,"শভেচছা":5833,"করমীদের":5834,"মেধা":5835,"বযাখযা":5836,"হান":5837,"##ist":5838,"##যানস":5839,"মিডি":5840,"পরকার":5841,"আমন":5842,"##রিযার":5843,"জামাযাত":5844,"মযমনসিংহ":5845,"ওপ":5846,"##করমী":5847,"টরনাম":5848,"##খযক":5849,"বিদেশে":5850,"##ালির":5851,"মোল":5852,"পলে":5853,"##িসত":5854,"তি":5855,"##কন":5856,"অপেকষ":5857,"সবাদ":5858,"##ip":5859,"সামপরতিক":5860,"রাসলললাহ":5861,"সফটওযযার":5862,"পরাপ":5863,"##বরের":5864,"সশ":5865,"বেন":5866,"##দৌ":5867,"জের":5868,"ভী":5869,"de":5870,"উপহার":5871,"##জনা":5872,"##মম":5873,"সেনাবাহিনী":5874,"হাক":5875,"##ink":5876,"মেটর":5877,"আউট":5878,"2018":5879,"##মখী":5880,"পরফেসর":5881,"বিদায":5882,"জঙগ":5883,"##েশনে":5884,"কৌশল":5885,"একষেতরে":5886,"মেরে":5887,"মিযার":5888,"৩৪":5889,"সটক":5890,"##পাশে":5891,"পরতিমনতরী":5892,"কারও":5893,"সহজেই":5894,"##িদল":5895,"##ভমি":5896,"পরযবে":5897,"রাননা":5898,"ভলে":5899,"শকত":5900,"##যব":5901,"##ঘন":5902,"ডাউনলোড":5903,"##টাম":5904,"##বাগ":5905,"##লড":5906,"al":5907,"##ীব":5908,"##লযানডের":5909,"পেলে":5910,"ঝিন":5911,"রশিদ":5912,"পরভা":5913,"ইব":5914,"অসহ":5915,"##lad":5916,"এলো":5917,"২০১১":5918,"ইচছে":5919,"##বেশন":5920,"আইনে":5921,"তাডা":5922,"বৈশিষট":5923,"##মনা":5924,"শের":5925,"টেমপ":5926,"সদসযের":5927,"নিষেধাজঞ":5928,"ধাপ":5929,"##জম":5930,"পারলে":5931,"##িযাল":5932,"জাফর":5933,"বনদর":5934,"অযাকা":5935,"ডেকে":5936,"অবশেষে":5937,"৩৮":5938,"বিনা":5939,"##বাং":5940,"নিখোজ":5941,"পরবাহ":5942,"##ছিলো":5943,"আবদস":5944,"জাহাজ":5945,"চেক":5946,"ফেসবকে":5947,"মানিক":5948,"গাছের":5949,"ডরাই":5950,"##কষিতে":5951,"##দলের":5952,"ইনটারনযাশনাল":5953,"##বরধ":5954,"৫০০":5955,"পরতযকষ":5956,"সাফলয":5957,"##ডর":5958,"তালক":5959,"সাকিব":5960,"করেননি":5961,"অযাস":5962,"##ঞচিত":5963,"##যোগী":5964,"পযসা":5965,"##াধীন":5966,"আলোচনায":5967,"সমনবয":5968,"ওজন":5969,"##ঞচলিক":5970,"রাতের":5971,"শামী":5972,"বিকাল":5973,"মনি":5974,"পরতিযোগিতা":5975,"গণতনতর":5976,"##টেই":5977,"##চালক":5978,"চোর":5979,"সারবিক":5980,"হযর":5981,"বরাহমণ":5982,"উড":5983,"আঞচলিক":5984,"##নিষঠ":5985,"##বধানে":5986,"চিকিৎসার":5987,"জযা":5988,"সটর":5989,"ঐকযফর":5990,"এসআই":5991,"বোমা":5992,"দলকে":5993,"আফগান":5994,"বিবেচনা":5995,"##চারের":5996,"সকরিয":5997,"##াকের":5998,"মতি":5999,"৪২":6000,"পিস":6001,"##লগন":6002,"থেকেও":6003,"##বোর":6004,"##ধিকার":6005,"সাহেব":6006,"সংকট":6007,"তফ":6008,"কমিউনি":6009,"পশচিমব":6010,"রাযের":6011,"করপোরেশনের":6012,"ঈশবর":6013,"##পট":6014,"খেলায":6015,"বদধির":6016,"পারিবারিক":6017,"পরই":6018,"##ladesh":6019,"শনানি":6020,"লমবা":6021,"পারথ":6022,"অনা":6023,"গোষঠ":6024,"##বিধ":6025,"সপরিম":6026,"##বসথা":6027,"##াদে":6028,"হাতি":6029,"বিশবে":6030,"মাশ":6031,"খোক":6032,"পরিশোধ":6033,"রোড":6034,"শনয":6035,"##শকতি":6036,"তাজ":6037,"ভরা":6038,"বযে":6039,"সথগ":6040,"অভিযানে":6041,"অভিনেতা":6042,"##জনে":6043,"৩৭":6044,"তালকদার":6045,"##ডল":6046,"আসি":6047,"পজা":6048,"কমিললা":6049,"আবিষ":6050,"আতমীয":6051,"is":6052,"অভযন":6053,"pr":6054,"চৌধরীর":6055,"সজন":6056,"২০১০":6057,"ইবন":6058,"তাকিযে":6059,"যথাযথ":6060,"পাট":6061,"ঘটনাটি":6062,"শরেণির":6063,"ফাইনালে":6064,"##শান":6065,"আপিল":6066,"পরতিবাদে":6067,"##াইদ":6068,"মাংস":6069,"তোলার":6070,"##কাঠ":6071,"ওসমান":6072,"৪৮":6073,"##শব":6074,"##গদ":6075,"বিরাট":6076,"##ওযারড":6077,"নেতাকরম":6078,"##টাও":6079,"আমেরিকার":6080,"রেখেছে":6081,"আসনন":6082,"##লামা":6083,"দমন":6084,"পলি":6085,"পরচলিত":6086,"আসাম":6087,"চযালেঞজ":6088,"##োগান":6089,"হামলায":6090,"পিছিযে":6091,"রবীনদরনাথ":6092,"ফেন":6093,"ছিলাম":6094,"##িকর":6095,"অনলাইনে":6096,"চযানেল":6097,"টেবিল":6098,"বংশ":6099,"খনদ":6100,"10":6101,"উদধতি":6102,"bangladesh":6103,"মৎ":6104,"বিদরো":6105,"##tt":6106,"গেম":6107,"বরাদদ":6108,"##বনদর":6109,"ভাইর":6110,"কযামেরা":6111,"শতাধিক":6112,"যদধে":6113,"কংগরেস":6114,"আলি":6115,"ধরমের":6116,"দজন":6117,"সমাবেশে":6118,"মযাজ":6119,"পরতিপকষ":6120,"বিডি":6121,"অবাক":6122,"সফরে":6123,"##টসমযান":6124,"অফিসের":6125,"মাতরা":6126,"পাবলিক":6127,"উততরা":6128,"##চনায":6129,"##টাতে":6130,"##চারজ":6131,"সনদ":6132,"সটেডিযা":6133,"ধন":6134,"বলেছে":6135,"গাজীপর":6136,"মোসতফা":6137,"পাথর":6138,"৭৫":6139,"##চাপ":6140,"পডবে":6141,"রাষটরীয":6142,"পরতীক":6143,"সংসদের":6144,"বহন":6145,"সংক":6146,"##সমহ":6147,"কলাবের":6148,"##ফাজ":6149,"sh":6150,"##ফাই":6151,"উদাহরণ":6152,"পনরায":6153,"##ঃপর":6154,"মিলিযন":6155,"বৈধ":6156,"ওযেবসাইট":6157,"টযা":6158,"আলোক":6159,"##তলা":6160,"করয":6161,"পডছে":6162,"##রিদর":6163,"ছিন":6164,"বিশবকাপের":6165,"গণতানতরিক":6166,"সরকারকে":6167,"কব":6168,"কারন":6169,"কাপড":6170,"তহ":6171,"কলাস":6172,"ভাষার":6173,"বিনোদন":6174,"কষতিগরসত":6175,"পরতিবনধ":6176,"হমাযন":6177,"তালা":6178,"##পস":6179,"কযাপ":6180,"tit":6181,"ইতিহাসে":6182,"সবজন":6183,"বিগত":6184,"সিসটেম":6185,"তণমল":6186,"##বিনি":6187,"ভযে":6188,"করতপকষের":6189,"গোপাল":6190,"পরতিদবনদ":6191,"আওযামীলীগ":6192,"##ঙগার":6193,"পরযাযের":6194,"শযা":6195,"তৎকালীন":6196,"##দিযা":6197,"আলহাজব":6198,"বাজেট":6199,"সমাজে":6200,"পরতযাহার":6201,"নাগ":6202,"তাৎ":6203,"সপোরটস":6204,"##শির":6205,"পাচছে":6206,"উদযাপন":6207,"##th":6208,"বযাটসমযান":6209,"ওযানডে":6210,"বিপরীতে":6211,"দযা":6212,"দেখানো":6213,"বিজযী":6214,"শিরোন":6215,"রাজনীতির":6216,"##24":6217,"দরঘটনায":6218,"সবলপ":6219,"##দানের":6220,"##ess":6221,"##াজযের":6222,"উপসথাপন":6223,"বৌদধ":6224,"ফেরার":6225,"পরোপরি":6226,"##পরয":6227,"ডাকা":6228,"##তিতব":6229,"বিকালে":6230,"কষমতাস":6231,"হবিগঞজ":6232,"লেখার":6233,"আমেরিকা":6234,"সালা":6235,"সাডা":6236,"শিব":6237,"বিচারক":6238,"শরণ":6239,"বাবল":6240,"##টারে":6241,"পাব":6242,"##ine":6243,"##and":6244,"পাযে":6245,"##গি":6246,"সিরিজের":6247,"জযে":6248,"মিলনায":6249,"নিরযাত":6250,"আনদোলনে":6251,"##শিকষ":6252,"##ment":6253,"কের":6254,"##বরত":6255,"##নতরী":6256,"যানবাহ":6257,"সংগরহের":6258,"তখনই":6259,"পরকৌশলী":6260,"##জডে":6261,"শনতে":6262,"দরজা":6263,"পকষের":6264,"দিযেই":6265,"জরিমানা":6266,"নিবনধ":6267,"দিত":6268,"এসেছেন":6269,"ঘটনাসথলে":6270,"##ঙকর":6271,"##েসট":6272,"মরযাদা":6273,"সতরীর":6274,"বানিযে":6275,"কলিন":6276,"##ঞচে":6277,"পারলাম":6278,"দাযী":6279,"ঝল":6280,"ইমরান":6281,"নেটওযার":6282,"গরহণের":6283,"যাকে":6284,"আমদানি":6285,"গগল":6286,"কষমা":6287,"শয":6288,"ভালোবাসা":6289,"অনসরণ":6290,"শরম":6291,"কারযালয":6292,"অনসন":6293,"উজজবল":6294,"বাজারের":6295,"বিড":6296,"রফিকল":6297,"সটেশন":6298,"আজকে":6299,"##চিন":6300,"রাঃ":6301,"ভবনের":6302,"করমকরতাদের":6303,"আইএস":6304,"২০০৯":6305,"আসামী":6306,"কই":6307,"তালিকাভকত":6308,"##our":6309,"রানা":6310,"করলো":6311,"অপরি":6312,"##ডাক":6313,"রহসয":6314,"গেলেও":6315,"শক":6316,"রোজ":6317,"অসবীকার":6318,"দিযেছিল":6319,"bd":6320,"পরেরণ":6321,"পরজাত":6322,"##তনা":6323,"১৯৭১":6324,"মৎসয":6325,"খাওযার":6326,"##সেনস":6327,"হরি":6328,"টেমপলেট":6329,"##িতব":6330,"খায":6331,"বেছে":6332,"কলকাতার":6333,"মোশার":6334,"জানাতে":6335,"জোটের":6336,"##ততবেও":6337,"##আপ":6338,"নযাশনাল":6339,"রাখন":6340,"##বদে":6341,"ফাযার":6342,"হযেছিলেন":6343,"আসল":6344,"পরতার":6345,"পালিত":6346,"##ালীর":6347,"গাডির":6348,"সাইফল":6349,"করমকা":6350,"বলগ":6351,"বিনামল":6352,"##রাণ":6353,"সটার":6354,"মীর":6355,"##হাদ":6356,"সনা":6357,"##ter":6358,"##মাস":6359,"বযথা":6360,"##বাসের":6361,"সডকে":6362,"মৌলভীবাজার":6363,"মাটিতে":6364,"একসচে":6365,"টেনে":6366,"গম":6367,"##যদধে":6368,"খনদকার":6369,"মখের":6370,"অযাডভোকেট":6371,"সঙগীত":6372,"link":6373,"##ফিজর":6374,"আলোচনার":6375,"সিক":6376,"ভাষণ":6377,"রিস":6378,"বযাক":6379,"##চনার":6380,"সাজা":6381,"ওযেসট":6382,"অজঞ":6383,"জাতিসংঘের":6384,"গি":6385,"জাহান":6386,"দেহ":6387,"##পতয":6388,"উদদ":6389,"##od":6390,"হযত":6391,"##পথে":6392,"ফেডার":6393,"ফলের":6394,"সিএন":6395,"##বলী":6396,"ঘনটা":6397,"দফা":6398,"পরতিষঠাতা":6399,"সেনাবাহিনীর":6400,"পরতিবেশ":6401,"##হির":6402,"জমির":6403,"##কালের":6404,"সরয":6405,"অরথনীতি":6406,"সাময":6407,"##িদর":6408,"##ষটরে":6409,"কণঠ":6410,"আকা":6411,"একসঙগে":6412,"তোর":6413,"আলোচিত":6414,"বিছ":6415,"যেত":6416,"সথগিত":6417,"যেটা":6418,"জিযাকে":6419,"যদধের":6420,"বজায":6421,"ষডযনতর":6422,"পদারথ":6423,"পতাকা":6424,"সেম":6425,"হিম":6426,"ভেঙগে":6427,"মৌসমে":6428,"ছাডাই":6429,"রহল":6430,"পাখি":6431,"আউ":6432,"হদ":6433,"হতযাকা":6434,"করমরত":6435,"রহিম":6436,"রাষটরের":6437,"পরথমবারের":6438,"হেরে":6439,"ধরতে":6440,"৪৩":6441,"দেখেন":6442,"পরোগরাম":6443,"নোযা":6444,"উপনযাস":6445,"মেশিন":6446,"##যারে":6447,"##োষঠ":6448,"০০০":6449,"পদতযা":6450,"মাসদ":6451,"সোহেল":6452,"দিচছেন":6453,"সাহিত":6454,"কারি":6455,"##ভেন":6456,"ফেলা":6457,"##মাল":6458,"নিযনতরণে":6459,"ভযান":6460,"তারই":6461,"কতটা":6462,"হোযা":6463,"টন":6464,"##লীল":6465,"পরপর":6466,"##রাফি":6467,"ছাপ":6468,"##লির":6469,"মোটরসাই":6470,"থাকছে":6471,"পরিচালনায":6472,"সৌনদরয":6473,"সবাগত":6474,"##করমে":6475,"নারাযণগঞজ":6476,"একর":6477,"পরযোজনে":6478,"জেলে":6479,"নেতাকরমীদের":6480,"##ভাস":6481,"ছটে":6482,"মাটির":6483,"##পিং":6484,"বরগ":6485,"বিশবকাপে":6486,"##২০":6487,"##ind":6488,"ততত":6489,"ফয":6490,"তান":6491,"বনদক":6492,"কালাম":6493,"২০০৮":6494,"কারখানা":6495,"মানের":6496,"নিরপেকষ":6497,"আডাই":6498,"পরষের":6499,"সহিং":6500,"আলাপ":6501,"বিজিবি":6502,"বাংলাদেশকে":6503,"##বযের":6504,"টরাই":6505,"সমিতি":6506,"বাজ":6507,"দাখিল":6508,"##পাশের":6509,"মযানেজার":6510,"এলে":6511,"দিলাম":6512,"ফযা":6513,"##বাবধ":6514,"নিরী":6515,"##দাযের":6516,"৬৫":6517,"ফরানস":6518,"যাচাই":6519,"শেযারবাজার":6520,"##রিযায":6521,"ঘোষণার":6522,"ছেলের":6523,"বিনামলযে":6524,"গরনথ":6525,"শরেণীর":6526,"মাহবব":6527,"ইবরাহ":6528,"সমপরকিত":6529,"উদযো":6530,"জনস":6531,"হারে":6532,"ইউনিট":6533,"সততবেও":6534,"##op":6535,"উননতি":6536,"মতোই":6537,"মসলমানদের":6538,"সামনের":6539,"##যানট":6540,"নেবে":6541,"মিজানর":6542,"শরীফ":6543,"##পটি":6544,"শরমিকদের":6545,"জিত":6546,"আহসান":6547,"ইতিহাসের":6548,"বিবতিতে":6549,"ছোটট":6550,"সষট":6551,"অসাধারণ":6552,"##াতন":6553,"রঙের":6554,"ধরেই":6555,"##বলম":6556,"ইহ":6557,"ইউনিযনে":6558,"৭১":6559,"বিকাশ":6560,"অনপ":6561,"ওরফে":6562,"জাদ":6563,"পোর":6564,"##iz":6565,"ডিভাই":6566,"মানববনধন":6567,"অরথমনতরী":6568,"কষমতাসীন":6569,"সরমা":6570,"বিচছিনন":6571,"পরযটন":6572,"##বিনদ":6573,"ছটি":6574,"কপ":6575,"ডাযা":6576,"শামীম":6577,"##দদীন":6578,"গরামী":6579,"নাসির":6580,"নিরযাতনের":6581,"শরত":6582,"##নর":6583,"উততোল":6584,"##বাসীদের":6585,"মরদেহ":6586,"##নটের":6587,"ডাকাত":6588,"খনি":6589,"as":6590,"রীতি":6591,"মিলনাযতনে":6592,"৩০০":6593,"##ate":6594,"পরেই":6595,"উপভোগ":6596,"##লেস":6597,"##ডিতে":6598,"ইসলামিক":6599,"##পদ":6600,"শতাবদ":6601,"পরাকতন":6602,"সংযকত":6603,"দেখেছি":6604,"তৎপর":6605,"পথিবীতে":6606,"বযবধানে":6607,"পেশা":6608,"খাতন":6609,"সঞচাল":6610,"অবরোধ":6611,"সনধান":6612,"সঙগী":6613,"##নাল":6614,"সাকষাৎকার":6615,"পরাজিত":6616,"গরামীণ":6617,"সবামীর":6618,"দাডিযেছে":6619,"মিষটি":6620,"সবেচছাসে":6621,"##ইট":6622,"##সাথে":6623,"তোমাকে":6624,"ভাইযের":6625,"আবহাওযা":6626,"##জয":6627,"##াতত":6628,"পরশংসা":6629,"##েকটর":6630,"৩৯":6631,"সপতাহের":6632,"নিচের":6633,"নিষেধাজঞা":6634,"ফজল":6635,"ভিতরে":6636,"ছো":6637,"##ওনা":6638,"শঙখলা":6639,"অনবাদ":6640,"করেও":6641,"##সকে":6642,"পরিবরতে":6643,"মখযমনতরী":6644,"পঞচা":6645,"##ww":6646,"ভরমণ":6647,"##ণডে":6648,"বৈশিষটয":6649,"ইনদ":6650,"চরিতরে":6651,"সারব":6652,"কাটিযে":6653,"রসল":6654,"গেলো":6655,"সংবাদমাধয":6656,"নিরাপততার":6657,"খরি":6658,"##কলা":6659,"যাবত":6660,"খাল":6661,"মমতা":6662,"##বাডিযা":6663,"বেগ":6664,"অসহায":6665,"##ততম":6666,"যগে":6667,"##িও":6668,"##িসটর":6669,"পরবল":6670,"সমারটফোন":6671,"পরকাশের":6672,"ফরে":6673,"##বাসন":6674,"##ail":6675,"ফোনে":6676,"সংলগন":6677,"বযাটিং":6678,"করমীরা":6679,"বরণিত":6680,"মোসতা":6681,"সংগীত":6682,"টেলিভিশন":6683,"ভোটের":6684,"সবারথ":6685,"বদর":6686,"খজ":6687,"হেড":6688,"মাদরাসার":6689,"##দত":6690,"আইনশ":6691,"শীরষক":6692,"##করণের":6693,"##কারীর":6694,"শিকষকদের":6695,"সমপরদাযের":6696,"পরতিশর":6697,"##সিম":6698,"##যাতরা":6699,"উললাহ":6700,"কবর":6701,"সংসদে":6702,"সলতান":6703,"জমিতে":6704,"হামিদ":6705,"জিজঞেস":6706,"নগদ":6707,"##মীর":6708,"জনমদিন":6709,"সতযিই":6710,"কাছাকা":6711,"রাশিযার":6712,"##বরে":6713,"##েনডার":6714,"##ডন":6715,"##োদ":6716,"চমৎকার":6717,"##যারিং":6718,"নদীতে":6719,"ইনড":6720,"তামিম":6721,"গডা":6722,"গোলা":6723,"এরশাদ":6724,"কাছাকাছি":6725,"নিহতের":6726,"পরবের":6727,"মও":6728,"যাবার":6729,"মানবিক":6730,"নিচছে":6731,"##গামী":6732,"খেযাল":6733,"##িযায":6734,"হারডকোর":6735,"ওকে":6736,"ইজ":6737,"মিশিযে":6738,"ককষে":6739,"ইফতার":6740,"পদমা":6741,"উম":6742,"নিয":6743,"অংশে":6744,"উততম":6745,"দরশক":6746,"বীজ":6747,"ইনসটিটিউট":6748,"##টকে":6749,"##তনতরের":6750,"উদদেশে":6751,"মহল":6752,"##মাতে":6753,"##যাপত":6754,"কমানডার":6755,"ইংলযানড":6756,"আনষঠানিক":6757,"কৌ":6758,"##ামলক":6759,"পরতিকরিযা":6760,"রাজসব":6761,"বিদযালযে":6762,"বাসত":6763,"১৯৩":6764,"##বিন":6765,"উদবোধনী":6766,"পদধতিতে":6767,"সালমান":6768,"মতবিনি":6769,"পরযটক":6770,"নিরমাণের":6771,"সটেডিযামে":6772,"হদয":6773,"জনগোষঠ":6774,"সমপরসার":6775,"##োনালড":6776,"সাতকষ":6777,"bengali":6778,"হচছিল":6779,"##পততি":6780,"করআন":6781,"৪৭":6782,"##জিও":6783,"##বলের":6784,"বাডতি":6785,"একদল":6786,"www":6787,"##লেকস":6788,"##ষটা":6789,"একের":6790,"পডন":6791,"ঝিনাইদ":6792,"ধরষণের":6793,"##বছরের":6794,"পরদানের":6795,"##শিলপী":6796,"ইনিং":6797,"জাকির":6798,"ভিটাম":6799,"আমলে":6800,"এসএম":6801,"##ওযাত":6802,"এমনি":6803,"##নেল":6804,"##িযাস":6805,"টায":6806,"##যারের":6807,"সোনা":6808,"পরেমের":6809,"বাদী":6810,"##রিটি":6811,"##শাখ":6812,"৪১":6813,"##if":6814,"যৌনসঙগ":6815,"কারযালযের":6816,"সিংহ":6817,"মৌলিক":6818,"##টিন":6819,"পরবা":6820,"মরি":6821,"##সিড":6822,"বাডা":6823,"##যেনটিফোর":6824,"কষমতার":6825,"সেসব":6826,"##করের":6827,"ইনি":6828,"পারছেন":6829,"পালটা":6830,"কোড":6831,"##কেনদর":6832,"সমমখ":6833,"তবও":6834,"পণযের":6835,"##জাদ":6836,"মেযেরা":6837,"চারজ":6838,"ডাল":6839,"দেখলাম":6840,"পাডা":6841,"শিরো":6842,"বরাবর":6843,"শটিং":6844,"পরতিযোগিতায":6845,"সরবস":6846,"দেশকে":6847,"##টেলে":6848,"টিউ":6849,"লাইসেনস":6850,"পরযালো":6851,"আসছেন":6852,"পাসপোরট":6853,"চিক":6854,"লাগা":6855,"সিদধান":6856,"বিশলেষণ":6857,"হাদীস":6858,"##াড":6859,"পরতিনিধ":6860,"টেকনাফ":6861,"##ীবন":6862,"আগরহী":6863,"এযা":6864,"পাচার":6865,"##টেক":6866,"হিজ":6867,"৪৪":6868,"সমভবত":6869,"ফিলিসত":6870,"ফাইল":6871,"তফসিল":6872,"##দাযিক":6873,"দরিদর":6874,"টের":6875,"পযারামি":6876,"নোট":6877,"ال":6878,"একথা":6879,"গরি":6880,"দবীপ":6881,"অবসথার":6882,"সথানীযরা":6883,"আবারো":6884,"টিকি":6885,"রাসেল":6886,"পযারামিটার":6887,"আমিও":6888,"রাজযে":6889,"পরিমি":6890,"গঠনের":6891,"সংঘরষে":6892,"অনযদের":6893,"পরিদরশক":6894,"বিসত":6895,"##বাসে":6896,"পরষদের":6897,"##পনে":6898,"সদয":6899,"ভবিষযতে":6900,"কিনতে":6901,"সংখযক":6902,"##ps":6903,"করমচারী":6904,"আগেও":6905,"বাংলাদেশী":6906,"জিমবাব":6907,"##যারা":6908,"মিলন":6909,"##ানায":6910,"un":6911,"ভাবনা":6912,"ওযারডের":6913,"আগামীকাল":6914,"কোরট":6915,"বানদর":6916,"অভিষ":6917,"পেন":6918,"ইট":6919,"কপি":6920,"অভিনন":6921,"##নিযার":6922,"##ামম":6923,"##বাধীন":6924,"সমপরকের":6925,"দঢ":6926,"বযারিসটার":6927,"##ভের":6928,"আকার":6929,"সমগর":6930,"অসটরেলিযা":6931,"##হিদ":6932,"ইনচারজ":6933,"##ইং":6934,"tits":6935,"বিনিমযে":6936,"##পরেস":6937,"মহাপরি":6938,"পাযের":6939,"অতঃপর":6940,"৫২":6941,"পরযকতির":6942,"যবলীগের":6943,"বহি":6944,"মঞচ":6945,"সেমি":6946,"##লেম":6947,"লকষমী":6948,"##মবে":6949,"##টিফ":6950,"সনত":6951,"গৌর":6952,"ভিটামিন":6953,"মতবিনিময":6954,"কারখান":6955,"##চছেদ":6956,"অযাক":6957,"রাহ":6958,"গেলাম":6959,"মারাতমক":6960,"পডাশো":6961,"কমপকষে":6962,"##িকো":6963,"মেহে":6964,"##জাহান":6965,"তততবাবধ":6966,"##ort":6967,"সপারিশ":6968,"##পরাধ":6969,"মেজর":6970,"ইলিশ":6971,"সংসার":6972,"##ভেট":6973,"অধিদপতরের":6974,"মতামত":6975,"##টেডের":6976,"গলায":6977,"রিজ":6978,"সিরি":6979,"রিযাল":6980,"মনা":6981,"##াকারী":6982,"##ারস":6983,"নিত":6984,"রাজনীতিতে":6985,"সের":6986,"কায":6987,"থে":6988,"সভয":6989,"বাংলায":6990,"ডো":6991,"মিশর":6992,"19":6993,"পিক":6994,"পিছনে":6995,"আরা":6996,"##ঞচি":6997,"পির":6998,"যৌনসঙগম":6999,"মিনার":7000,"##থান":7001,"মযাজিসট":7002,"##গতিক":7003,"কমিযে":7004,"নাক":7005,"বিদেশী":7006,"শাক":7007,"দতা":7008,"ইচছ":7009,"সবই":7010,"বাঘ":7011,"মসজিদের":7012,"পরতিষঠানে":7013,"##বরতন":7014,"কমেছে":7015,"ভিততিক":7016,"পরেসকলাবের":7017,"হাইকোরট":7018,"মেল":7019,"করতো":7020,"পতরিকার":7021,"চাকমা":7022,"মাদার":7023,"ইভ":7024,"৪৬":7025,"গোস":7026,"পরতযাশা":7027,"উনার":7028,"##টল":7029,"সমভাবয":7030,"বিনিময":7031,"ধাককা":7032,"শযাম":7033,"htt":7034,"বিলি":7035,"সিনেমার":7036,"সভার":7037,"পরিবরতনের":7038,"##ডিত":7039,"বউ":7040,"সমাপ":7041,"আযের":7042,"উপসথিতি":7043,"খাগডা":7044,"##সিসি":7045,"সবজি":7046,"হলদ":7047,"করমসচির":7048,"বিদযমান":7049,"সাঈ":7050,"মাননীয":7051,"জযন":7052,"ভেসে":7053,"মসজিদে":7054,"সতরের":7055,"##টিও":7056,"সষটির":7057,"বরাজিল":7058,"অপারেশন":7059,"##ভিল":7060,"##শিং":7061,"ঢক":7062,"বঞচিত":7063,"##বহার":7064,"##োরে":7065,"অনভব":7066,"##ঝো":7067,"সোশ":7068,"sy":7069,"জাতীযতা":7070,"##তপর":7071,"শরি":7072,"##তানা":7073,"পরাযই":7074,"দিযেছি":7075,"মেযাদ":7076,"##যাযের":7077,"ভইযা":7078,"##াইজ":7079,"বিপলব":7080,"##লিতে":7081,"বাচা":7082,"ওপরে":7083,"কাশ":7084,"আনিস":7085,"##যানের":7086,"##টনে":7087,"ভবনে":7088,"বিপদ":7089,"সোশযাল":7090,"জানালেন":7091,"বিএস":7092,"লিটন":7093,"be":7094,"উপাচারয":7095,"pro":7096,"লিখতে":7097,"সেট":7098,"পঞচম":7099,"দলটির":7100,"উপযকত":7101,"বকস":7102,"দরনীতির":7103,"বডো":7104,"##িসির":7105,"বযকতিকে":7106,"পডেছেন":7107,"কডি":7108,"অশলীল":7109,"নেতাকরমীরা":7110,"করতেই":7111,"কমিউনিটি":7112,"বাডাতে":7113,"জনক":7114,"সবারথে":7115,"পরতিষঠার":7116,"সমাপত":7117,"##যানা":7118,"দরযোগ":7119,"শপথ":7120,"পাচটি":7121,"ফরান":7122,"পারথকয":7123,"মালযেশিযা":7124,"লোকের":7125,"সিম":7126,"নিযেও":7127,"ভাবতে":7128,"##বাগত":7129,"জানার":7130,"মদর":7131,"৫১":7132,"ইউটি":7133,"ঊর":7134,"##াজের":7135,"সকর":7136,"গরহন":7137,"##দেরকে":7138,"টেসটে":7139,"ডিভি":7140,"সভাপতিতব":7141,"সোস":7142,"অবসর":7143,"রণ":7144,"নেতরী":7145,"ইমে":7146,"##জাল":7147,"জজ":7148,"দোকানে":7149,"বলছি":7150,"ইরানের":7151,"##মহ":7152,"পরকতি":7153,"বিধি":7154,"দকষতা":7155,"##টনের":7156,"মারকে":7157,"##ome":7158,"নিবনধন":7159,"মেন":7160,"আপন":7161,"বইযের":7162,"পরিবেশন":7163,"কাচা":7164,"বিকরয":7165,"দলটি":7166,"আইনশঙখলা":7167,"##যালি":7168,"ওঠা":7169,"পরিসথ":7170,"ফসল":7171,"থাম":7172,"হাওযা":7173,"দাযে":7174,"##বিযা":7175,"রেখেছেন":7176,"খাবারের":7177,"জনতা":7178,"আইডি":7179,"তিনজন":7180,"ঢাক":7181,"৫৭":7182,"##মমদ":7183,"##কাম":7184,"পারছে":7185,"##বাজ":7186,"রোগের":7187,"নাযক":7188,"আজিজ":7189,"পারক":7190,"গবেষণায":7191,"দের":7192,"কাজেই":7193,"টরানস":7194,"কানে":7195,"হোসাইন":7196,"নাজমল":7197,"নিশচযই":7198,"খাই":7199,"তীর":7200,"মসতি":7201,"মনোনীত":7202,"সিই":7203,"##াতায":7204,"সেকরে":7205,"ফাইনাল":7206,"##ik":7207,"##ভবনে":7208,"##যেম":7209,"সেটাই":7210,"টরামপের":7211,"ডোনালড":7212,"নিউই":7213,"সমপকত":7214,"en":7215,"মাছের":7216,"ডাই":7217,"##পতরে":7218,"দরশন":7219,"মারকেট":7220,"কামর":7221,"বিচারের":7222,"##িকযাল":7223,"##জিৎ":7224,"পরাঙগ":7225,"##হাই":7226,"উলটো":7227,"চাপা":7228,"ভিড":7229,"চাওযা":7230,"জামাযাতের":7231,"করমসং":7232,"চাদা":7233,"বাগান":7234,"নেতত":7235,"কাহিনী":7236,"আলোর":7237,"দীপ":7238,"tr":7239,"লট":7240,"কোরিযার":7241,"পাঠক":7242,"সাদ":7243,"অদভত":7244,"কলম":7245,"##ick":7246,"ইসরা":7247,"নেতার":7248,"আজও":7249,"রোধ":7250,"কষোভ":7251,"রেজিসটর":7252,"পরকাশযে":7253,"বাসের":7254,"##বলিউ":7255,"##ছার":7256,"ঝড":7257,"পাকিসতানি":7258,"যোগযতা":7259,"পজিবাজারে":7260,"রাঙ":7261,"পরাইভেট":7262,"দপতর":7263,"দেশীয":7264,"##গড":7265,"পাকা":7266,"##ধী":7267,"বনদযো":7268,"দাডায":7269,"ইলেকটরনিক":7270,"সতন":7271,"পরতিশরতি":7272,"ind":7273,"তন":7274,"##orn":7275,"আযাত":7276,"কিছকষণ":7277,"পললী":7278,"##সনের":7279,"দাশ":7280,"মোললা":7281,"হারা":7282,"বাডতে":7283,"পরিসং":7284,"বিপরয":7285,"উততেজনা":7286,"একাত":7287,"দইটি":7288,"লযা":7289,"ফেলতে":7290,"পারফরম":7291,"করিকেটে":7292,"##যেনস":7293,"টরাসট":7294,"##পষট":7295,"গরাহক":7296,"##টারের":7297,"##ষী":7298,"গণমাধযম":7299,"##রফ":7300,"একসময":7301,"দেখবেন":7302,"গবেষ":7303,"৪৯":7304,"তোলে":7305,"##িরো":7306,"##উললাহ":7307,"মাথার":7308,"##হাব":7309,"তারাই":7310,"সংরকষিত":7311,"নিউইযর":7312,"কাতার":7313,"বৈশাখ":7314,"অনষ":7315,"মজিব":7316,"পেরিযে":7317,"মাইকরো":7318,"##জীব":7319,"নই":7320,"##লোক":7321,"মহাকা":7322,"ডাঃ":7323,"##যাযন":7324,"অনসনধান":7325,"উততরে":7326,"পডলে":7327,"আইপি":7328,"##av":7329,"চটটগরামে":7330,"করিস":7331,"সমঝো":7332,"খামার":7333,"কাক":7334,"গদ":7335,"সমী":7336,"সতযতা":7337,"ককষ":7338,"ar":7339,"জযো":7340,"পরসঙগত":7341,"মোটা":7342,"অটো":7343,"কাসট":7344,"তবকের":7345,"চিনি":7346,"উচচার":7347,"##চনদর":7348,"পরিসংখযান":7349,"কযাল":7350,"##art":7351,"পরবনধ":7352,"##ly":7353,"পরকৌশল":7354,"ডিজাইন":7355,"ভারী":7356,"ap":7357,"সেঞচ":7358,"##পারে":7359,"একদম":7360,"##ভিউ":7361,"ফটে":7362,"বাতাস":7363,"জিযাউর":7364,"##বারষিক":7365,"উদদীন":7366,"পশচিমা":7367,"লিমিটেডের":7368,"##বারেই":7369,"##qu":7370,"ঝাল":7371,"যাওযায":7372,"নীর":7373,"##টিত":7374,"বিহার":7375,"দাও":7376,"##পরাণ":7377,"সেনট":7378,"সেমিনার":7379,"যাচছি":7380,"সেখানেই":7381,"হানি":7382,"কামরল":7383,"হোটেলে":7384,"অসটরেলিযার":7385,"##রকম":7386,"##বিজঞান":7387,"দেবী":7388,"##বনদি":7389,"আতমহতযা":7390,"গিযেছিলেন":7391,"##গরা":7392,"মঠ":7393,"##ডিযাম":7394,"ঐকযবদধ":7395,"সাহস":7396,"চিকিৎসাধীন":7397,"##িদের":7398,"##og":7399,"৬৪":7400,"সযাটে":7401,"কযেকদিন":7402,"##ণাঙগ":7403,"বাণিজযিক":7404,"পাচছেন":7405,"আমেরিকান":7406,"আবেদনের":7407,"দিবে":7408,"নেততবাধীন":7409,"ডট":7410,"উদযোকতা":7411,"আঙ":7412,"আরবের":7413,"or":7414,"##বিস":7415,"বনযা":7416,"পালা":7417,"ইঞজিনিযার":7418,"তরাণ":7419,"মেসি":7420,"রোনাল":7421,"blog":7422,"পরযবেকষণ":7423,"##যানডে":7424,"ডেভেল":7425,"হলেই":7426,"বনধদের":7427,"আরে":7428,"##বাংলা":7429,"##রাও":7430,"ঝাম":7431,"সবচছ":7432,"গরী":7433,"অনযের":7434,"জররী":7435,"রপত":7436,"##োসিযেশন":7437,"অভিযোগের":7438,"তলা":7439,"দাযিতবে":7440,"টাইগার":7441,"মযাজিসটরেট":7442,"মফ":7443,"করছিল":7444,"##যোজিত":7445,"জহির":7446,"লাইফ":7447,"বিজঞাপন":7448,"রোমান":7449,"মেযেকে":7450,"##ah":7451,"যো":7452,"পদতযাগ":7453,"ধারায":7454,"##টাইল":7455,"হজর":7456,"ভরাময":7457,"ভাগয":7458,"তারপরও":7459,"চেপে":7460,"আনসার":7461,"##তাহ":7462,"##নদে":7463,"বরে":7464,"টরাফিক":7465,"নিরবি":7466,"আসথা":7467,"সিঙগা":7468,"মজমদ":7469,"মমিন":7470,"নযন":7471,"সরদার":7472,"সংবরধ":7473,"লক":7474,"জনপর":7475,"অনির":7476,"বিকরে":7477,"##কষণের":7478,"এলাকাবাসী":7479,"সিকিউ":7480,"##দেশিক":7481,"এমনই":7482,"রফ":7483,"সংবাদের":7484,"শোভা":7485,"##টিভি":7486,"চিৎকার":7487,"খবরে":7488,"##oc":7489,"##তরীণ":7490,"পৌরসভা":7491,"পরোট":7492,"আবিষকার":7493,"##মনির":7494,"##জিযা":7495,"অম":7496,"সেবার":7497,"অগন":7498,"উইকেটে":7499,"le":7500,"শযে":7501,"রাষটরদত":7502,"ইউএন":7503,"পরিত":7504,"জমে":7505,"বযাগ":7506,"বদল":7507,"ইতিবাচক":7508,"নিযকত":7509,"বিরাজ":7510,"পেযেছি":7511,"মহমমদ":7512,"হসতানতর":7513,"##বিহীন":7514,"##দীপ":7515,"যানবাহন":7516,"টক":7517,"রমজান":7518,"একেবারেই":7519,"মাহফ":7520,"অবসথানে":7521,"##সাললাম":7522,"##গেট":7523,"ad":7524,"উনমকত":7525,"বেদ":7526,"লবণ":7527,"পরেমিক":7528,"যানজ":7529,"আগনে":7530,"পরশাসনিক":7531,"সপরশ":7532,"বিমানবনদর":7533,"##ওর":7534,"কারাগার":7535,"৫৪":7536,"##টেল":7537,"শকতির":7538,"হইতে":7539,"অবি":7540,"জনমগরহণ":7541,"sp":7542,"মশফিক":7543,"লকষণ":7544,"শিরোপা":7545,"##পাতর":7546,"##ost":7547,"##রাত":7548,"অপরদিকে":7549,"অরথে":7550,"নিচ":7551,"হাকিম":7552,"ভিসা":7553,"লিগ":7554,"বযবসাযীদের":7555,"২টি":7556,"##াইযা":7557,"ইসি":7558,"বযাংকিং":7559,"টিকে":7560,"ঘণটার":7561,"পরবণ":7562,"উঠছে":7563,"ককসবাজারের":7564,"##বাদে":7565,"দারিদর":7566,"এশিযার":7567,"মেডিকযাল":7568,"সংশোধন":7569,"সেজনয":7570,"জলা":7571,"##গাজ":7572,"সাহাযযে":7573,"পতরিকায":7574,"রয":7575,"##থন":7576,"করমকরতার":7577,"সংলা":7578,"খানিক":7579,"##তাব":7580,"ওযাসাললাম":7581,"আবাসিক":7582,"ভোরে":7583,"মাইল":7584,"##ex":7585,"ph":7586,"৫৬":7587,"পরযায":7588,"ঠিকানা":7589,"মোটরসাইকেল":7590,"চপ":7591,"ঈদল":7592,"##দণড":7593,"বোলিং":7594,"##সবর":7595,"ছাতরদলের":7596,"চাকরির":7597,"পরমাণিত":7598,"তাপমাতরা":7599,"বযকতিদের":7600,"বযবসাযীরা":7601,"ওযারলড":7602,"অভিষেক":7603,"কাদ":7604,"আনতরিক":7605,"পছনদের":7606,"রাজজ":7607,"ইউনিভারসিটি":7608,"পরিসথিতির":7609,"যদধা":7610,"##ভির":7611,"##সটিক":7612,"কচ":7613,"বলিউড":7614,"##লিপি":7615,"৭২":7616,"চট":7617,"##ণডা":7618,"নামিযে":7619,"চাইতে":7620,"খযা":7621,"অসতিতব":7622,"ছাডিযে":7623,"নিরমাতা":7624,"কাজটি":7625,"বকতারা":7626,"মাননান":7627,"আকারে":7628,"জাপান":7629,"হস":7630,"##ity":7631,"##রাট":7632,"মিতর":7633,"শট":7634,"হেলা":7635,"বিবিসি":7636,"পেটর":7637,"তম":7638,"করমকান":7639,"##বিদধ":7640,"ধরেন":7641,"রেজাউল":7642,"বললে":7643,"##সকের":7644,"ভরে":7645,"লজ":7646,"ফাউনডেশন":7647,"বিষযের":7648,"রপানতর":7649,"অতিকরম":7650,"সাউ":7651,"##বিশবাস":7652,"##সটার":7653,"অফার":7654,"##ষয":7655,"বলক":7656,"উপকার":7657,"আমনতরণ":7658,"অনভতি":7659,"সমারক":7660,"ধানের":7661,"মিনিটের":7662,"মাকে":7663,"বযবসথার":7664,"##ডেট":7665,"কোমপানিটির":7666,"যোগদান":7667,"করছিলেন":7668,"##যালী":7669,"##হরণ":7670,"হতাশ":7671,"##বারতা":7672,"এডি":7673,"##িতিতে":7674,"নরেনদর":7675,"টিকিট":7676,"তললা":7677,"বেড":7678,"নৈতিক":7679,"২০০৭":7680,"তাস":7681,"##ঞচলের":7682,"##ঙগিত":7683,"নানান":7684,"দতত":7685,"##কী":7686,"বষটির":7687,"মহাসডকের":7688,"পেট":7689,"জগন":7690,"রাখবেন":7691,"অসমভব":7692,"ফিচার":7693,"ওভারে":7694,"শান":7695,"পরম":7696,"দাডা":7697,"ডবে":7698,"##ie":7699,"এইসব":7700,"বগ":7701,"ইংলযানডের":7702,"fr":7703,"বাইরের":7704,"পরিসথিতিতে":7705,"ছাযা":7706,"ধা":7707,"বাসে":7708,"ভবিষযৎ":7709,"##ীপর":7710,"৫৩":7711,"পরিমাণে":7712,"২য":7713,"আমাদেরকে":7714,"অধিদপতর":7715,"আশরা":7716,"হেটে":7717,"আমল":7718,"##িযাম":7719,"দফায":7720,"পরিবেশে":7721,"কারাদণড":7722,"থাকন":7723,"পরাণী":7724,"পলিশকে":7725,"##ষার":7726,"ভদর":7727,"পরযাপত":7728,"মজার":7729,"##নতি":7730,"##তরিত":7731,"রবেল":7732,"উইনড":7733,"কখনোই":7734,"রফিক":7735,"ঘনিষঠ":7736,"ইপিএস":7737,"জবদ":7738,"শাসক":7739,"ভিতর":7740,"লযাপ":7741,"হেফাজ":7742,"##ib":7743,"##ফির":7744,"মহিলাদের":7745,"অযানডর":7746,"নাশ":7747,"তবক":7748,"নাযিকা":7749,"কেনা":7750,"সারচ":7751,"বাসতবাযনের":7752,"দেখলে":7753,"জনি":7754,"উপকরণ":7755,"গরহণযোগয":7756,"##বনদরে":7757,"নেইমার":7758,"২০০৬":7759,"পাঠানোর":7760,"বাডবে":7761,"ভমিকমপ":7762,"দাগ":7763,"##বলে":7764,"আসাদজজামান":7765,"##কটর":7766,"ভাতা":7767,"অংশগরহ":7768,"শাহজা":7769,"ইউটিউ":7770,"you":7771,"##ud":7772,"০০":7773,"বাডানো":7774,"আবেগ":7775,"এভাবেই":7776,"বডি":7777,"অনিযম":7778,"ইউরোপীয":7779,"পরিযা":7780,"টাঙগাইল":7781,"মোশাররফ":7782,"##চিং":7783,"##পনথী":7784,"জযী":7785,"সমযই":7786,"পাপ":7787,"সবেচছাসেবক":7788,"বিভ":7789,"অপারেটর":7790,"##লাদ":7791,"অনধকার":7792,"##টপ":7793,"কালি":7794,"পেস":7795,"সিকিউরিটি":7796,"সহযোগিতায":7797,"অননয":7798,"পরজনমের":7799,"শাহজাহান":7800,"ভীষণ":7801,"ইনিংস":7802,"মেলায":7803,"যদধাপরাধ":7804,"##িযান":7805,"বাডার":7806,"চলন":7807,"নাটয":7808,"করেছিলাম":7809,"সৌর":7810,"গনধ":7811,"বিবেচনায":7812,"গভর":7813,"জাস":7814,"কতি":7815,"গাডিতে":7816,"গরর":7817,"২০০১":7818,"কলকাতায":7819,"১১টায":7820,"লাগল":7821,"নৈ":7822,"এশিযান":7823,"রকষার":7824,"by":7825,"যবদ":7826,"পরারথীদের":7827,"সচনা":7828,"##কসহ":7829,"টযেনটিফোর":7830,"যকতরাষটরে":7831,"ex":7832,"সিরিজে":7833,"পিতার":7834,"##কাতে":7835,"জৈ":7836,"সারাদেশে":7837,"ডিবি":7838,"নেবেন":7839,"পরতিনিযত":7840,"বযসের":7841,"টযাব":7842,"সোহরা":7843,"পরকতির":7844,"করলেই":7845,"বসতর":7846,"পালনের":7847,"##ঘরে":7848,"##াসত":7849,"মখপাতর":7850,"12":7851,"দরগ":7852,"রোগী":7853,"আরিফ":7854,"চেষ":7855,"যাতা":7856,"পযেনটে":7857,"মরহ":7858,"খরিস":7859,"থেমে":7860,"ওঠার":7861,"পরেও":7862,"কালের":7863,"অরথবছরের":7864,"ছিনতাই":7865,"##বছরে":7866,"বললো":7867,"পদক":7868,"জগননাথ":7869,"দাত":7870,"পৌছা":7871,"সাকষাৎ":7872,"বাডানোর":7873,"সৎ":7874,"আফগানিস":7875,"গরা":7876,"সাংসদ":7877,"কিউ":7878,"অভাবে":7879,"মণ":7880,"শীরষে":7881,"##যাতর":7882,"মানষদের":7883,"বাডী":7884,"##যোগে":7885,"##ছাতরী":7886,"এডিযে":7887,"##যানে":7888,"বিকরির":7889,"সংঘরষ":7890,"উৎসবের":7891,"কবিতার":7892,"জবালানি":7893,"অনমোদ":7894,"##টিই":7895,"##igh":7896,"পরানত":7897,"কলপনা":7898,"হইযা":7899,"পাঠা":7900,"বলেছি":7901,"কেনার":7902,"ফস":7903,"চেহারা":7904,"##ামনতরী":7905,"লনডন":7906,"করমে":7907,"11":7908,"অরজনের":7909,"ঘোষিত":7910,"কমল":7911,"অং":7912,"##ানার":7913,"রাব":7914,"উততোলন":7915,"one":7916,"বাগের":7917,"##ডাঙগা":7918,"পরিচি":7919,"বাশ":7920,"এসএসসি":7921,"##পকষে":7922,"আদা":7923,"রপতানি":7924,"১টি":7925,"জনপরিযতা":7926,"শহিদল":7927,"চলার":7928,"ফটবলার":7929,"ধোন":7930,"মহেশ":7931,"##যেদ":7932,"ইনিংসে":7933,"কস":7934,"ফোনের":7935,"দেখাতে":7936,"##নিবেশ":7937,"ঘটনাসথল":7938,"আধা":7939,"##কষিপত":7940,"পরিমান":7941,"পরারথনা":7942,"##হাজার":7943,"১৯১":7944,"সাইকেল":7945,"মেজ":7946,"তদনতের":7947,"বেডা":7948,"ইউনাই":7949,"পারশব":7950,"অনেকটাই":7951,"পরাতন":7952,"অবকাঠ":7953,"##িপ":7954,"রমে":7955,"##uck":7956,"ঝাপ":7957,"মহাপরিচালক":7958,"ইনসটিটিউ":7959,"উখ":7960,"খাগডাছডি":7961,"কমিউন":7962,"##গলিতে":7963,"অপেকষায":7964,"সিপি":7965,"মনতরিস":7966,"নিম":7967,"##ধারী":7968,"একাডেমি":7969,"##লীর":7970,"সংলাপ":7971,"১ম":7972,"ইঙগিত":7973,"কলো":7974,"লাভের":7975,"##াকষ":7976,"পারস":7977,"তাহার":7978,"রোগে":7979,"পাহাডের":7980,"ঢা":7981,"রাখবে":7982,"চাপাইন":7983,"ইউএস":7984,"সিএনজি":7985,"হাজী":7986,"একসচেঞজ":7987,"ধরন":7988,"রোগীর":7989,"আগর":7990,"##াজনক":7991,"##eb":7992,"শাহজালাল":7993,"##োনো":7994,"##কলে":7995,"শিকষিত":7996,"সশসতর":7997,"শলক":7998,"হকের":7999,"পরতযে":8000,"পিত":8001,"হিন":8002,"১০টি":8003,"শিলপের":8004,"পরচেষটা":8005,"আশরাফ":8006,"হযেছি":8007,"ঠান":8008,"চাপাইনবাব":8009,"##ামাটি":8010,"তই":8011,"সমমিল":8012,"##শাসন":8013,"পরভাবশালী":8014,"নিযোজিত":8015,"রেড":8016,"সহাযক":8017,"কচি":8018,"রেডিও":8019,"##হাতে":8020,"চামডা":8021,"সিভিল":8022,"##খালীর":8023,"কোরটের":8024,"চালাতে":8025,"ডাযাবে":8026,"পরদিন":8027,"##হতি":8028,"##ies":8029,"৩টি":8030,"ধরার":8031,"পাঞজ":8032,"পরিচিতি":8033,"সবপনের":8034,"শবাস":8035,"নরম":8036,"wor":8037,"মেমবার":8038,"মরা":8039,"সমপততি":8040,"সোসাই":8041,"##ফন":8042,"খস":8043,"আনষঠানিকভাবে":8044,"সংকষিপত":8045,"রিমান":8046,"##নাহ":8047,"ঘরণ":8048,"বরধ":8049,"আকরষণীয":8050,"খরিসটা":8051,"পারছি":8052,"বকের":8053,"##রপ":8054,"নোবেল":8055,"##কষার":8056,"নিনদা":8057,"শাকিব":8058,"কথাও":8059,"##কষক":8060,"দশকে":8061,"বহততর":8062,"মাদরি":8063,"##২১":8064,"বিজঞপতিতে":8065,"ওমর":8066,"##ld":8067,"খতি":8068,"ঝামেলা":8069,"বাপ":8070,"এডভোকেট":8071,"আইনি":8072,"তলনা":8073,"লিও":8074,"মজা":8075,"আসর":8076,"চেতনা":8077,"চলচচিতরের":8078,"চালানোর":8079,"নেটওযারক":8080,"৫৯":8081,"ইউসফ":8082,"##ংকর":8083,"##বানী":8084,"##মপনন":8085,"কথাই":8086,"মিউ":8087,"কবে":8088,"নারীরা":8089,"##াকস":8090,"উপলকষ":8091,"চরচা":8092,"##ভাষা":8093,"কোরস":8094,"সংসকরণ":8095,"ইরান":8096,"কিড":8097,"তারাও":8098,"চলচচিতরে":8099,"রকমের":8100,"উপরের":8101,"সনামগঞজ":8102,"অকষ":8103,"ঘোর":8104,"পডাশোনা":8105,"শিক":8106,"লেখাপ":8107,"শাহাদ":8108,"জানাই":8109,"উঠল":8110,"তৌ":8111,"মজমদার":8112,"##বেলায":8113,"পরভতি":8114,"অমান":8115,"##oun":8116,"অগরগতি":8117,"পরিবারে":8118,"নেশ":8119,"পরচণড":8120,"আকবর":8121,"অতযাচার":8122,"##ard":8123,"কনফার":8124,"অসথাযী":8125,"১০টায":8126,"##দেহে":8127,"##ংকার":8128,"সাফ":8129,"##দধার":8130,"আপাতত":8131,"পডল":8132,"বারসেল":8133,"কোরআন":8134,"বানা":8135,"শফি":8136,"ডাটা":8137,"শাহর":8138,"##াযিত":8139,"##বৈ":8140,"রোজা":8141,"ভিক":8142,"ফরানসের":8143,"##ংকা":8144,"অপহরণ":8145,"চীনা":8146,"পাইল":8147,"##শিপ":8148,"##বলিত":8149,"গবেষক":8150,"সকলেই":8151,"অটোর":8152,"রেফার":8153,"##মেন":8154,"উঠবে":8155,"এখানকার":8156,"মাশরাফি":8157,"দশকের":8158,"##দধি":8159,"কষটিযা":8160,"শরেণী":8161,"ফজ":8162,"টপ":8163,"দিনবযাপী":8164,"##তোষ":8165,"লঙ":8166,"টেকন":8167,"নাচ":8168,"দরঘটনার":8169,"বজর":8170,"অনশীল":8171,"পরানতিক":8172,"সচিবাল":8173,"সামগরী":8174,"ঐকযফরনটের":8175,"শবদের":8176,"##িট":8177,"অরডার":8178,"চকরবরতী":8179,"পরন":8180,"বিভর":8181,"##job":8182,"একসাথে":8183,"সরবাধ":8184,"একদিকে":8185,"সিডি":8186,"##োলজি":8187,"গলপের":8188,"পররাষটরমনতরী":8189,"শরতেই":8190,"##সঙগে":8191,"খোকন":8192,"টেন":8193,"ইউনিটের":8194,"##েট":8195,"##কতরা":8196,"##িনাকে":8197,"ওযাশিং":8198,"অভযনতরীণ":8199,"গাইবান":8200,"আফরিকার":8201,"সামপরদাযিক":8202,"এসেছি":8203,"আহমে":8204,"সংসকতির":8205,"শানতিপরণ":8206,"কালে":8207,"কোরিযা":8208,"রযাবের":8209,"পরিমিযার":8210,"বিলিযন":8211,"সযাম":8212,"জমিদার":8213,"হরাস":8214,"টরি":8215,"জেগে":8216,"মেলে":8217,"##ীনগর":8218,"অষট":8219,"ঘটিযে":8220,"##টারস":8221,"ভটটা":8222,"নিলে":8223,"##ook":8224,"বযকতিতব":8225,"যেই":8226,"বলব":8227,"অযাকাউনট":8228,"##ive":8229,"দশম":8230,"০২":8231,"কষেতর":8232,"রাশি":8233,"চেযেও":8234,"অজঞাত":8235,"মাযা":8236,"পীর":8237,"পতন":8238,"##েনসের":8239,"জনে":8240,"মরতি":8241,"লকিযে":8242,"##ha":8243,"##োড":8244,"সবতনতর":8245,"আতা":8246,"তরসকের":8247,"টাইম":8248,"ফটো":8249,"তির":8250,"তিনিই":8251,"বযাপারটা":8252,"ইনডিযা":8253,"ডিভাইস":8254,"অপরাধের":8255,"পযানেল":8256,"ধযে":8257,"৯৯":8258,"সাভার":8259,"ছড":8260,"##াসটরি":8261,"সবরাষটরমনতরী":8262,"ভাত":8263,"##যাংশ":8264,"আতঙক":8265,"##বিজঞ":8266,"##কষট":8267,"সরঞজ":8268,"বিমানবনদরে":8269,"মেসে":8270,"সাজানো":8271,"##যাযে":8272,"লঞচ":8273,"জনযও":8274,"সকলকে":8275,"বহততম":8276,"##ue":8277,"##গাছ":8278,"পটযা":8279,"##ঙকের":8280,"চলের":8281,"গণয":8282,"রাজজাক":8283,"##মাত":8284,"নড":8285,"বোলার":8286,"৮৫":8287,"খরিসট":8288,"উদবেগ":8289,"৫৮":8290,"আগষট":8291,"কতজঞ":8292,"কাচ":8293,"নমবরে":8294,"##ামটি":8295,"নেপ":8296,"মঞজর":8297,"মঞচে":8298,"পরেকষিতে":8299,"রিজভী":8300,"বযবসার":8301,"মগধ":8302,"হরত":8303,"##দশ":8304,"##োত":8305,"নামবার":8306,"বেকার":8307,"গরাহকদের":8308,"অযাম":8309,"##াকরমে":8310,"##কিল":8311,"সারটিফ":8312,"৬২":8313,"অভিভাবক":8314,"সথল":8315,"কাবয":8316,"##ঘাতে":8317,"##োনা":8318,"নিপী":8319,"##সাগর":8320,"সহয":8321,"বৈষ":8322,"দেই":8323,"হেলাল":8324,"##শরে":8325,"মিরপর":8326,"টয":8327,"বাঙগ":8328,"আপততি":8329,"##ামমাদ":8330,"সনতানদের":8331,"ইঞচি":8332,"দদক":8333,"##দরা":8334,"যাতর":8335,"##বিষযক":8336,"পরজাতির":8337,"হাযদার":8338,"নীতিমালা":8339,"৫টি":8340,"সনে":8341,"আখতার":8342,"পরণাঙগ":8343,"হারন":8344,"পাবনা":8345,"রাগ":8346,"##বাহিনী":8347,"বসিযে":8348,"তালে":8349,"##করে":8350,"উপে":8351,"##ice":8352,"সারাদ":8353,"৯৫":8354,"অচ":8355,"রচিত":8356,"ঐতিহযবাহী":8357,"মেগা":8358,"cont":8359,"অরধেক":8360,"মহিলার":8361,"##দেব":8362,"ঈমান":8363,"ওযেবসাইটে":8364,"৪টি":8365,"সামযিক":8366,"##মলের":8367,"অবন":8368,"ডলারের":8369,"পরতিবেশী":8370,"বিরত":8371,"নাগাদ":8372,"মাহফিল":8373,"দিযা":8374,"নাও":8375,"পরতিযোগিতার":8376,"দাদা":8377,"বটে":8378,"অরথবছরে":8379,"সমসযায":8380,"সৈনয":8381,"ইবরাহিম":8382,"পরজে":8383,"চকরিযা":8384,"আইযব":8385,"চেতন":8386,"দিনটি":8387,"##লোযার":8388,"##ith":8389,"পরারথীর":8390,"সযাটেলাইট":8391,"সঞজ":8392,"আলোকে":8393,"##জঞা":8394,"ফিলম":8395,"##লাভ":8396,"৬৩":8397,"ধো":8398,"মছে":8399,"পারিনি":8400,"ঠা":8401,"কারযকরী":8402,"পাডি":8403,"##িকষে":8404,"##aj":8405,"##ণার":8406,"যাচছিল":8407,"জলপ":8408,"##কটি":8409,"মসতা":8410,"দেশি":8411,"সীমানতে":8412,"কডা":8413,"##ামপর":8414,"coxsbazarnews":8415,"এতদিন":8416,"ঘষ":8417,"##coxsbazarnews":8418,"সিবিএনcoxsbazarnews":8419,"ঠিকই":8420,"সংবরধনা":8421,"বলগার":8422,"যাবতীয":8423,"৮৮":8424,"মেলার":8425,"ইংলিশ":8426,"##বসথায":8427,"দরদানত":8428,"সেঞচরি":8429,"##কাঠি":8430,"দিবাগত":8431,"অবহিত":8432,"ওযাই":8433,"সমমেলনের":8434,"সদরের":8435,"ডির":8436,"সলতানা":8437,"##ac":8438,"কযলা":8439,"কাই":8440,"##ain":8441,"##ant":8442,"যগের":8443,"##ংযের":8444,"##বাড":8445,"##চরয":8446,"টোযেনটি":8447,"সংখযাল":8448,"অভযাস":8449,"কষতিকর":8450,"##সথানে":8451,"টিক":8452,"নবীগঞজ":8453,"মায":8454,"পরদরশ":8455,"৬৬":8456,"এজ":8457,"সিদদিকী":8458,"মেধাবী":8459,"লাগছে":8460,"পাযনি":8461,"শিগ":8462,"বিজেপির":8463,"ওপেন":8464,"কোমপান":8465,"##যেজ":8466,"am":8467,"জামাত":8468,"আদাযের":8469,"নাটোর":8470,"বলবে":8471,"##পকষের":8472,"গণতনতরের":8473,"বট":8474,"তথযপরয":8475,"wh":8476,"কলি":8477,"দেবার":8478,"দরগা":8479,"দদ":8480,"##সিন":8481,"নিরদেশে":8482,"##se":8483,"দরতব":8484,"##ide":8485,"##থিত":8486,"সনাতক":8487,"ইনডাসটরি":8488,"হযানড":8489,"পরিচালনার":8490,"##োতে":8491,"সংসদীয":8492,"আছ":8493,"লাগানো":8494,"ভালোবাসার":8495,"৬১":8496,"কথার":8497,"দবনদ":8498,"মিউজ":8499,"মারধর":8500,"##িতিশীল":8501,"কমাতে":8502,"সেকষেতরে":8503,"##পলে":8504,"##ঝি":8505,"বযবসথাপ":8506,"##েও":8507,"নেতর":8508,"##বকের":8509,"বিবরণ":8510,"##োলডার":8511,"মাহম":8512,"সীমাবদধ":8513,"##কষাপ":8514,"মেহেদী":8515,"##পিকে":8516,"সমনবযে":8517,"ঠানডা":8518,"##পাট":8519,"যাতরীদের":8520,"মাঠের":8521,"আশরাফল":8522,"অযানটি":8523,"জনসংখযা":8524,"##াযনিক":8525,"ঘাটতি":8526,"মণড":8527,"গারড":8528,"একানত":8529,"চাদপর":8530,"সিলেটে":8531,"বনদযোপাধযায":8532,"##বতত":8533,"আশে":8534,"ডেপটি":8535,"করোযে":8536,"মানবতা":8537,"##ষণের":8538,"আবর":8539,"সাতকষীরা":8540,"উনমো":8541,"কমপলেকস":8542,"অটোরিক":8543,"টেল":8544,"##ঘয":8545,"চালান":8546,"বাঙালির":8547,"বযাল":8548,"দণড":8549,"ফানড":8550,"এজেনট":8551,"##টেবল":8552,"মাসিক":8553,"##বরষ":8554,"ছাতরদের":8555,"শিগগির":8556,"অসথির":8557,"কনস":8558,"এখানেই":8559,"পরযালোচনা":8560,"বিসতত":8561,"##লাতে":8562,"শহী":8563,"মিডিযায":8564,"এসি":8565,"গলিতে":8566,"মনস":8567,"##ধবতন":8568,"বানানো":8569,"##নেতরী":8570,"off":8571,"শিশকে":8572,"অসবি":8573,"##িলমবে":8574,"##পরধান":8575,"##সথল":8576,"##জীবন":8577,"হাদিস":8578,"আফরিকা":8579,"##লাক":8580,"##চাত":8581,"##লয":8582,"##শেম":8583,"পেশাদার":8584,"ইউরোপের":8585,"শরেণি":8586,"অলিমপ":8587,"রেলওযে":8588,"##হাত":8589,"##লাদার":8590,"১১টার":8591,"দেযাল":8592,"চকতির":8593,"শিকষারথীর":8594,"##শিত":8595,"নগন":8596,"সাঈদ":8597,"##ভাগয":8598,"নারীকে":8599,"দনিযা":8600,"রই":8601,"মভি":8602,"সহাযতায":8603,"##াইনের":8604,"হাবিবর":8605,"লিংক":8606,"ইনসট":8607,"সেনটারে":8608,"হদা":8609,"পাহাডি":8610,"##উদ":8611,"##টরিক":8612,"ভৌ":8613,"##পাক":8614,"18":8615,"৬৮":8616,"চলাচ":8617,"নিরবাচনকে":8618,"ছডে":8619,"রতন":8620,"পরেকষাপ":8621,"সিরাজল":8622,"দশক":8623,"ইঞজিনিযারিং":8624,"ইংরেজ":8625,"সোজা":8626,"শনেছি":8627,"সংখযালঘ":8628,"##ডিট":8629,"উপকল":8630,"কতর":8631,"##ফামার":8632,"মালিকানা":8633,"##তরি":8634,"রহমানকে":8635,"বিভকত":8636,"গরভ":8637,"৪০০":8638,"রাসাযনিক":8639,"উপযোগী":8640,"পরবণতা":8641,"ওখানে":8642,"অবিলমবে":8643,"রকতের":8644,"শেষের":8645,"##উদদীন":8646,"যকতরাজয":8647,"আশবাস":8648,"##ডস":8649,"##wjob":8650,"মযানেজ":8651,"ডায":8652,"##বযবসথা":8653,"নাগরিকদের":8654,"পষটি":8655,"নিউজিল":8656,"পরতিবনধী":8657,"জগতে":8658,"##তাডি":8659,"শফিকল":8660,"আকাশে":8661,"তেজ":8662,"সচক":8663,"ইবাদ":8664,"##ast":8665,"আসরে":8666,"##াতক":8667,"কোযার":8668,"200":8669,"##বহল":8670,"ঝিনাইদহ":8671,"মহিত":8672,"পরিপরে":8673,"##ষটার":8674,"##দানে":8675,"চমক":8676,"বিপরীত":8677,"অজানা":8678,"অপসার":8679,"সমমানিত":8680,"করিকেটের":8681,"বোনের":8682,"##িমা":8683,"সমমাননা":8684,"সোযা":8685,"৬৭":8686,"##up":8687,"২০০০":8688,"আঃ":8689,"জোরে":8690,"নীলফামার":8691,"জোডা":8692,"সারটিফিকেট":8693,"পলাতক":8694,"বনধর":8695,"পরদেশের":8696,"পরতিষঠানটি":8697,"এসেছিল":8698,"টিপ":8699,"গরত":8700,"##one":8701,"এবারও":8702,"চন":8703,"ডিফ":8704,"নিঃশ":8705,"ফলাইট":8706,"ফরাসি":8707,"অরথায":8708,"বাহা":8709,"পরতযকষদরশ":8710,"##end":8711,"পরচারণা":8712,"ফেলেছে":8713,"হাইকোরটের":8714,"অভিননদন":8715,"আইসি":8716,"নিতয":8717,"কষয":8718,"১৫০":8719,"মোদী":8720,"০৫":8721,"##বনার":8722,"রোডের":8723,"পকর":8724,"পডিযে":8725,"##হয":8726,"জনগণকে":8727,"আমিনল":8728,"সাহিতযের":8729,"মোজ":8730,"সমমিলিত":8731,"##শনার":8732,"অধীন":8733,"##বারক":8734,"পেলেন":8735,"##বিড":8736,"যাদ":8737,"সাউথ":8738,"##মানিক":8739,"আববাস":8740,"যনতরণ":8741,"লোকে":8742,"ফলাই":8743,"ইউনাইটেড":8744,"পেযাজ":8745,"সবাগতিক":8746,"তাডাতাডি":8747,"##যোগাযোগ":8748,"কংগরেসের":8749,"##মতে":8750,"##ওযাজ":8751,"তহবিল":8752,"সবাকষরিত":8753,"##সভায":8754,"করমশা":8755,"##জঞানিক":8756,"তততব":8757,"সরবনি":8758,"টরাইব":8759,"হতেই":8760,"এএস":8761,"##উনডার":8762,"দেরি":8763,"অসবা":8764,"te":8765,"##হতযার":8766,"অভিযানের":8767,"ভোটে":8768,"কনটর":8769,"গোলাপ":8770,"##রাতে":8771,"পরতিবছর":8772,"ইযাস":8773,"বাসস":8774,"এমনটা":8775,"##াজে":8776,"##গরন":8777,"কাছেই":8778,"রাজার":8779,"বলবেন":8780,"তাহের":8781,"##গাহ":8782,"##তীত":8783,"ভারস":8784,"এখনই":8785,"আহতদের":8786,"সটেট":8787,"মনোযোগ":8788,"home":8789,"জোন":8790,"ঋণের":8791,"পেলাম":8792,"২০১৯":8793,"দেযনি":8794,"পরযাত":8795,"শাহীন":8796,"ফেই":8797,"নজ":8798,"##ভিযে":8799,"০৩":8800,"বহৎ":8801,"জলবায":8802,"দরশকদের":8803,"কাঠামো":8804,"##খের":8805,"০৮":8806,"##োনেশ":8807,"কেউই":8808,"নেতি":8809,"লেগেছে":8810,"মেম":8811,"তাৎকষণ":8812,"ককর":8813,"যোগাযোগের":8814,"অধিকারী":8815,"##মভ":8816,"অংশের":8817,"শবদটি":8818,"রাজনীতিবিদ":8819,"বইটি":8820,"##দারি":8821,"নিযোগের":8822,"গবেষণার":8823,"পরসার":8824,"শফিক":8825,"বিনিযোগকারীদের":8826,"অনপসথ":8827,"বযানড":8828,"আযে":8829,"নওগা":8830,"মযাক":8831,"##ঈন":8832,"সমপরদায":8833,"দেখায":8834,"##শিযাল":8835,"সোহা":8836,"বরিজ":8837,"হিং":8838,"##বোরড":8839,"বালিকা":8840,"##লেকসে":8841,"পাঠান":8842,"##ীকার":8843,"বারের":8844,"বাসতবাযনে":8845,"করিতে":8846,"বেঞচ":8847,"##পারট":8848,"##ong":8849,"একজনের":8850,"জাপানের":8851,"ঢে":8852,"মনডল":8853,"যবকের":8854,"৭৩":8855,"মানেই":8856,"সনির":8857,"বাসার":8858,"অরথের":8859,"ছডা":8860,"##বাণ":8861,"সেখানকার":8862,"বঝি":8863,"হোম":8864,"নীচে":8865,"ওযারডে":8866,"চেমবার":8867,"পরতিরকষা":8868,"নকশা":8869,"##ারথীদের":8870,"##ীবী":8871,"ইশ":8872,"দেওযান":8873,"নিচছেন":8874,"##ণঠ":8875,"ফিট":8876,"ইঞজিন":8877,"আবির":8878,"নরসিং":8879,"জাগ":8880,"আহমেদের":8881,"##পনন":8882,"সতযিকার":8883,"করানো":8884,"পরতিদবনদবিত":8885,"কারিগরি":8886,"দইজন":8887,"##ফোনের":8888,"দিলেও":8889,"টকরো":8890,"কডিগরাম":8891,"বদধিজ":8892,"##যকর":8893,"##টেও":8894,"##ধারা":8895,"সিআই":8896,"উৎসবে":8897,"বৈদেশিক":8898,"##চারী":8899,"মোডে":8900,"মনোনযনপতর":8901,"ঈদে":8902,"যথাকরমে":8903,"থাইল":8904,"##তিনি":8905,"##মিং":8906,"জাতীযতাবাদী":8907,"আরজেনটিনা":8908,"ডেভেলপ":8909,"##het":8910,"##চিৎ":8911,"শহীদল":8912,"তরটি":8913,"##own":8914,"মিঠ":8915,"এনামল":8916,"দরভোগ":8917,"##শরম":8918,"পরশনে":8919,"পরিচছ":8920,"##পালে":8921,"গোলের":8922,"বালি":8923,"##বাহিনীর":8924,"রাজাকার":8925,"ফকির":8926,"দেশগলোর":8927,"##গলের":8928,"এসেছিলেন":8929,"একসপরেস":8930,"গপত":8931,"বখার":8932,"বৈদয":8933,"##ডিযার":8934,"বলন":8935,"জাহিদ":8936,"নিরমম":8937,"##সমহের":8938,"বলিউডের":8939,"দজনের":8940,"কথিত":8941,"বরাহমণবাডিযা":8942,"রবিউল":8943,"সপিকার":8944,"পরিবারকে":8945,"ঘটছে":8946,"০৬":8947,"ঔষধ":8948,"টরাইবযন":8949,"শিকষকের":8950,"হাউজ":8951,"##ালার":8952,"##ঞচলে":8953,"উপলকষযে":8954,"হযেছিলো":8955,"##sh":8956,"বাসতবতা":8957,"চেন":8958,"হাফে":8959,"উডিযে":8960,"ভিকষ":8961,"নথি":8962,"করমসচী":8963,"বনদি":8964,"ইনদোনেশ":8965,"করমসংসথান":8966,"দিবেন":8967,"##দিবস":8968,"গী":8969,"বিদযতের":8970,"দিললি":8971,"বসা":8972,"শযামা":8973,"নিযেছিলেন":8974,"আমীর":8975,"বিতরকিত":8976,"আলমের":8977,"সমভাবন":8978,"##পরিষ":8979,"আযা":8980,"লতি":8981,"বকততা":8982,"সেতর":8983,"করমচারীদের":8984,"##সময":8985,"##ian":8986,"##এব":8987,"পলাশ":8988,"ইতিমধযেই":8989,"কষেতরেই":8990,"আমদান":8991,"সবিধার":8992,"১৯২":8993,"##সেবা":8994,"দেখেছেন":8995,"দরবত":8996,"##কমার":8997,"২০০৪":8998,"নাজিম":8999,"বাচাতে":9000,"##কামী":9001,"কিছর":9002,"##িকল":9003,"সমর":9004,"শরীয":9005,"##খানি":9006,"##তবরে":9007,"সমপদের":9008,"আজকাল":9009,"টাওযার":9010,"##বলমবন":9011,"রওনা":9012,"গহীত":9013,"একপর":9014,"##তানে":9015,"blowjob":9016,"বোতল":9017,"সমাধ":9018,"কোহ":9019,"##ish":9020,"রাহল":9021,"মামলাটি":9022,"##টরের":9023,"##ঙগী":9024,"হাড":9025,"০৯":9026,"অবাধ":9027,"লিঙগের":9028,"যতন":9029,"অপরাধে":9030,"সাফলযের":9031,"পরিশরম":9032,"বযাংকে":9033,"ইযর":9034,"পনঃ":9035,"অযাপলিক":9036,"##ডিপি":9037,"ফেলার":9038,"বহির":9039,"##বাজি":9040,"##যপ":9041,"খেলাধ":9042,"ছাতরীদের":9043,"শরীলঙকা":9044,"শল":9045,"মলযাযন":9046,"আনে":9047,"উদদিনের":9048,"২০০৫":9049,"সপেশ":9050,"মোটামটি":9051,"মমবাই":9052,"পরণযন":9053,"সচেতনতা":9054,"কযাটা":9055,"পাথ":9056,"সমপরসারণ":9057,"মতযতে":9058,"ইভি":9059,"সরবনিমন":9060,"##েরও":9061,"##ফাযেল":9062,"জাননা":9063,"বকষ":9064,"চলেছেন":9065,"মধযপরা":9066,"অমর":9067,"ধারয":9068,"ফাউনডেশনের":9069,"ভালোভাবে":9070,"নযাপ":9071,"জবর":9072,"নিলেন":9073,"বরযানড":9074,"বৈঠকের":9075,"বকতবযের":9076,"হানিফ":9077,"জলে":9078,"০৭":9079,"বসন":9080,"##load":9081,"আবে":9082,"টরেড":9083,"লিঙগ":9084,"হাওলাদার":9085,"সথির":9086,"##ঢয":9087,"শানতির":9088,"দরবয":9089,"দেহের":9090,"##খো":9091,"অতএব":9092,"ডেসকঃ":9093,"সমবনধ":9094,"পারবো":9095,"নিলাম":9096,"১৯০":9097,"কিংবদ":9098,"আরাম":9099,"নোযাখালী":9100,"বেলায":9101,"##ফিন":9102,"##ill":9103,"দাদ":9104,"##নামলক":9105,"##লিযাম":9106,"জামে":9107,"কযামপে":9108,"রাশেদ":9109,"ইসট":9110,"##নেতা":9111,"##দলীয":9112,"##যাসে":9113,"সঙ":9114,"সামরাজয":9115,"বাবর":9116,"সমরথক":9117,"হট":9118,"রনি":9119,"নবাব":9120,"হাফিজ":9121,"ভিজি":9122,"##ভেদ":9123,"জেরে":9124,"অযানডরযেড":9125,"আতমসম":9126,"৬৯":9127,"তলায":9128,"আদর":9129,"চাচা":9130,"০৪":9131,"সতরীকে":9132,"অসবাভাবিক":9133,"দলিল":9134,"##যেস":9135,"##িললাহ":9136,"পৌনে":9137,"লাগলো":9138,"বিটি":9139,"ফেরদৌ":9140,"পাড":9141,"##শিকষা":9142,"মহিউদদিন":9143,"এদেশের":9144,"চতবরে":9145,"##পরকাশ":9146,"জালাল":9147,"ভমিকায":9148,"রাউনড":9149,"##বারষিকী":9150,"গণপর":9151,"ডরাইভার":9152,"আরবি":9153,"মহাসডকে":9154,"বিসিএস":9155,"সাইফ":9156,"হোযাইট":9157,"ডিগরী":9158,"##তামলক":9159,"খাস":9160,"##দরবয":9161,"মদরা":9162,"##ফোনে":9163,"নেতিবাচক":9164,"জোরদার":9165,"সমঝোতা":9166,"##india":9167,"নেতরকো":9168,"সৈনিক":9169,"সমমখীন":9170,"syl":9171,"লাঠি":9172,"পরদরশনী":9173,"##বলি":9174,"##িনির":9175,"পরবী":9176,"পরকাশনা":9177,"বহাল":9178,"##পাস":9179,"অংশী":9180,"##খিত":9181,"##মপদ":9182,"নেপাল":9183,"সনদরী":9184,"মেকস":9185,"মাইকর":9186,"বৈজঞানিক":9187,"কিস":9188,"##ামরিক":9189,"##পাড":9190,"অরথনীতির":9191,"বাণী":9192,"জনসা":9193,"সথানানতর":9194,"##যালা":9195,"বেডাতে":9196,"শরণারথী":9197,"##age":9198,"ধারার":9199,"রকষায":9200,"##কমি":9201,"গডার":9202,"লিপত":9203,"বাত":9204,"নিষঠ":9205,"ষষঠ":9206,"বিগ":9207,"ফোরাম":9208,"একজনকে":9209,"অধিদফ":9210,"ইফ":9211,"সরল":9212,"পরপরই":9213,"অবলমবন":9214,"ফেসবকের":9215,"##েদ":9216,"##ডিসি":9217,"ছেলেমে":9218,"মোহন":9219,"কষকদের":9220,"আননদের":9221,"করাতে":9222,"##ial":9223,"চারজন":9224,"রেসটর":9225,"##মহা":9226,"বরাত":9227,"পাকিসতানে":9228,"সমরাট":9229,"বরিট":9230,"আধি":9231,"##line":9232,"বাডে":9233,"লিভার":9234,"ফিরতে":9235,"ঝর":9236,"##নাই":9237,"সাইটে":9238,"মধযেও":9239,"কমপলেকসে":9240,"থিযে":9241,"##বধি":9242,"আদিবাসী":9243,"বিশববযাপী":9244,"চাপে":9245,"মোসতাফিজর":9246,"##আরসি":9247,"নাসিম":9248,"শিকষামনতরী":9249,"##জনিত":9250,"কির":9251,"লৎ":9252,"রফতানি":9253,"পষ":9254,"সিসি":9255,"##মেলা":9256,"পজ":9257,"##এমপি":9258,"সফি":9259,"সথাপিত":9260,"জামাযাতে":9261,"##পাতে":9262,"করতব":9263,"##োসিযেশনের":9264,"##তলী":9265,"##ust":9266,"৭৮":9267,"সাববির":9268,"৭৬":9269,"দাপ":9270,"##পয":9271,"ছেলেকে":9272,"লোকেরা":9273,"লডাইযে":9274,"মনদ":9275,"কাটার":9276,"বাসতবে":9277,"অধিবেশ":9278,"##এর":9279,"সৈকত":9280,"করনেল":9281,"শাডি":9282,"oneindia":9283,"জানযারী":9284,"নামায":9285,"হারাম":9286,"আরোপ":9287,"পযাকে":9288,"দিবসের":9289,"ফজলল":9290,"আমান":9291,"গানটি":9292,"বঝিযে":9293,"পরিপরেকষিতে":9294,"আরিফল":9295,"কনট":9296,"ধারাবাহিকতায":9297,"সনিরদিষট":9298,"নিরমল":9299,"সবভাব":9300,"পশচিমবঙগের":9301,"##ীহ":9302,"সথাপনের":9303,"আসেনি":9304,"পিসি":9305,"তততবাবধাযক":9306,"ভাবেই":9307,"শীতের":9308,"কপিযে":9309,"সরবাধিক":9310,"##all":9311,"নোটিশ":9312,"গোষঠী":9313,"##তিকে":9314,"বাকয":9315,"একশে":9316,"কতরিম":9317,"সফলতা":9318,"কৈ":9319,"উপেকষা":9320,"কেডে":9321,"সপেস":9322,"পরথা":9323,"##কষন":9324,"কযাডার":9325,"sylhet":9326,"comment":9327,"##ততির":9328,"মানস":9329,"৭৭":9330,"নিজেও":9331,"মহরত":9332,"তথযপরযকতি":9333,"সারভিসের":9334,"##বিযান":9335,"সঞচালনায":9336,"কিছতেই":9337,"পরথমেই":9338,"কমলা":9339,"মযাগাজ":9340,"ধাপে":9341,"জযেল":9342,"খনের":9343,"পষঠা":9344,"বিরোধিতা":9345,"##চযত":9346,"সবযং":9347,"কারযকরমের":9348,"৭৪":9349,"ভাং":9350,"##খযার":9351,"সেকরেটারি":9352,"আযোজনের":9353,"##সাদ":9354,"সরবতর":9355,"মেহ":9356,"##কেলের":9357,"জসিম":9358,"বিজনেস":9359,"##মিট":9360,"ডিসি":9361,"##পাতের":9362,"বহল":9363,"এখ":9364,"এনজিও":9365,"সাহিতযিক":9366,"দালাল":9367,"উচচারণ":9368,"লনডনে":9369,"রশীদ":9370,"ইতালি":9371,"##ight":9372,"বিসময":9373,"জারমানি":9374,"যেটি":9375,"ইউনিভারসি":9376,"উদভি":9377,"যতই":9378,"গযাল":9379,"##শরী":9380,"তদনতে":9381,"##ঙগিক":9382,"লিঙক":9383,"সংবিধানের":9384,"আরাফ":9385,"শোন":9386,"##উস":9387,"খযাতি":9388,"হাবিব":9389,"রপে":9390,"উচছ":9391,"বিজঞানী":9392,"১০টার":9393,"পরতিনিধিঃ":9394,"গণিত":9395,"পিন":9396,"লোকদের":9397,"সাকষয":9398,"##গোল":9399,"তারপরে":9400,"কোরবান":9401,"মনোভাব":9402,"ঘোষনা":9403,"with":9404,"##রাগ":9405,"ছক":9406,"ফিলিপ":9407,"সোনালী":9408,"জারমানির":9409,"##ওযের":9410,"##াইলের":9411,"থাকত":9412,"পরকরিযায":9413,"##ect":9414,"ভযাট":9415,"রাজধানীতে":9416,"মিউজিক":9417,"পরজঞ":9418,"শনাকত":9419,"শাল":9420,"মসা":9421,"আইসিটি":9422,"সাইন":9423,"জিল":9424,"2017":9425,"শামসল":9426,"##ঙগন":9427,"আইনগত":9428,"##ষটান":9429,"দিলো":9430,"মালটি":9431,"##মণড":9432,"সমবায":9433,"লেক":9434,"অনপর":9435,"কাপর":9436,"ধানমন":9437,"##ber":9438,"তথযের":9439,"পারট":9440,"ভেন":9441,"##লিযাস":9442,"##হো":9443,"কমন":9444,"শও":9445,"সফরের":9446,"সংঘটিত":9447,"মগ":9448,"করতাম":9449,"লই":9450,"রোগীদের":9451,"ইসযতে":9452,"সঙগেই":9453,"খযাত":9454,"সলোগান":9455,"লালন":9456,"ছট":9457,"বিদরোহ":9458,"সটরি":9459,"ইসলামি":9460,"গাজা":9461,"পরজনম":9462,"পরভাবিত":9463,"কবীর":9464,"##বিডি":9465,"আগমন":9466,"১০টা":9467,"মেইল":9468,"দরের":9469,"বেঙগল":9470,"তোলেন":9471,"উননীত":9472,"যানজট":9473,"থরি":9474,"আশপাশের":9475,"সেতমনতরী":9476,"সীমিত":9477,"##সথানের":9478,"বনধের":9479,"##দাস":9480,"আশায":9481,"দেখছি":9482,"##পাডায":9483,"সিদধানতের":9484,"##ভবন":9485,"উততীরণ":9486,"me":9487,"##কাশন":9488,"অনমান":9489,"বরাজিলের":9490,"ঐক":9491,"পরিপরণ":9492,"মাদকের":9493,"##যরত":9494,"মিশন":9495,"বনধরা":9496,"##ামমেল":9497,"নকল":9498,"উচিৎ":9499,"##ততবিক":9500,"পাইলট":9501,"গণমাধযমে":9502,"সমরথকদের":9503,"পদের":9504,"##উডা":9505,"বিষযগলো":9506,"৬টি":9507,"ভরতির":9508,"রানী":9509,"মাতা":9510,"শিখে":9511,"##গরসথ":9512,"অনেকগলো":9513,"সিনড":9514,"উইনডোজ":9515,"00":9516,"জীবিত":9517,"হাটতে":9518,"বকর":9519,"হলের":9520,"15":9521,"##gr":9522,"মালা":9523,"ফরিদপর":9524,"রিজার":9525,"রোহিঙগ":9526,"জলের":9527,"##বততি":9528,"বযসক":9529,"সিনেমায":9530,"গাজীপরের":9531,"গজব":9532,"মলযের":9533,"রাঙগ":9534,"ভাসকর":9535,"বরহ":9536,"পালটে":9537,"মঠো":9538,"কফি":9539,"ডেই":9540,"আহমমেদ":9541,"পাতায":9542,"কমারস":9543,"সংবাদমাধযম":9544,"অবকাঠামো":9545,"পাডার":9546,"down":9547,"মোতাযেন":9548,"চারা":9549,"পাওযায":9550,"পেশার":9551,"কথাটা":9552,"##যাণ":9553,"শাসতির":9554,"মতদেহ":9555,"সংসকারের":9556,"ছযটি":9557,"##দবী":9558,"পেশায":9559,"বেনাপ":9560,"সমনবিত":9561,"কযারিযার":9562,"বিষণ":9563,"বনধতব":9564,"জামান":9565,"সপরি":9566,"##সযর":9567,"##পরদ":9568,"##পাডার":9569,"সোহরাওযার":9570,"##তিকা":9571,"পেটে":9572,"লযাপটপ":9573,"##ওযালা":9574,"মালেক":9575,"দিচছি":9576,"উপসথিতিতে":9577,"রাখাইন":9578,"##বরগ":9579,"ছাতরছাতরী":9580,"রাউজ":9581,"সালাহ":9582,"ধারনা":9583,"শাখ":9584,"পাননি":9585,"লাইভ":9586,"লযাব":9587,"আধার":9588,"সেরে":9589,"ঘরোযা":9590,"কাগজপতর":9591,"সারাদিন":9592,"করআ":9593,"বৈষময":9594,"ফিন":9595,"আশচরয":9596,"##ষম":9597,"করমা":9598,"এটাকে":9599,"দৈর":9600,"উপার":9601,"ডিরেকটর":9602,"নিকষে":9603,"এহ":9604,"ইল":9605,"তাকা":9606,"উদভাবন":9607,"মাইন":9608,"মলযবান":9609,"##েজ":9610,"নীরব":9611,"ঘমিযে":9612,"##াজযে":9613,"আনমানিক":9614,"তরণী":9615,"##সেন":9616,"##োপলি":9617,"অযালব":9618,"##বাসথয":9619,"ফারম":9620,"হজরত":9621,"পরিচছনন":9622,"গাধা":9623,"১২টার":9624,"৮১":9625,"চালাচছে":9626,"পরাস":9627,"চত":9628,"ac":9629,"দবাই":9630,"খানিকটা":9631,"ইসরাই":9632,"বযানার":9633,"মিলিত":9634,"জগতের":9635,"হারট":9636,"দরবততরা":9637,"বিরল":9638,"বিশেষজঞরা":9639,"কমিললার":9640,"সটযাট":9641,"মলযে":9642,"খালেদ":9643,"টেলিযোগাযোগ":9644,"সথাপনা":9645,"আডা":9646,"তললাশি":9647,"চিত":9648,"বযাটারি":9649,"এবি":9650,"এমনটাই":9651,"নবম":9652,"দখলে":9653,"##লামে":9654,"##টারন":9655,"হযরানি":9656,"৯৬":9657,"ফযাশন":9658,"##াকী":9659,"দৌল":9660,"গরেনে":9661,"সাইবার":9662,"কিতা":9663,"মালাম":9664,"৯১":9665,"মিডিযার":9666,"শরীলঙকার":9667,"পরতগ":9668,"সপেন":9669,"আশর":9670,"ফেরা":9671,"শেরপর":9672,"টরেনিং":9673,"##নাতদন":9674,"পরাজয":9675,"কতটক":9676,"পরসতাবিত":9677,"24":9678,"##ওন":9679,"বিবি":9680,"##রেস":9681,"গেট":9682,"পরাথমিকভাবে":9683,"##পাতি":9684,"পরিষে":9685,"জযেষঠ":9686,"##টারী":9687,"it":9688,"পরিকলপিত":9689,"ডেন":9690,"হেসে":9691,"জনিযর":9692,"সঠিকভাবে":9693,"মযনাতদন":9694,"চলছিল":9695,"সভাপতির":9696,"ছটির":9697,"বযবহারকারী":9698,"বিজঞানীরা":9699,"নাটকের":9700,"##যাযিত":9701,"পরবীণ":9702,"সায":9703,"সবগলো":9704,"##বাহিত":9705,"রেশ":9706,"বিবর":9707,"ঠে":9708,"ছেলেদের":9709,"গোসল":9710,"ভঙগ":9711,"##বিলে":9712,"বিমানের":9713,"লস":9714,"##ালা":9715,"বিলপ":9716,"অষটম":9717,"মিশে":9718,"পরিবহনের":9719,"তাহা":9720,"##ওযাল":9721,"বিচ":9722,"লিগের":9723,"ধনী":9724,"পরোনো":9725,"বলযাক":9726,"##োকত":9727,"টারগেট":9728,"##দেক":9729,"কাস":9730,"সবয":9731,"ঠাকরগাও":9732,"সমাপনী":9733,"ফিরোজ":9734,"বালয":9735,"বহিষ":9736,"আগস":9737,"উপাযে":9738,"ভান":9739,"বেই":9740,"##ছো":9741,"১৯৯৬":9742,"লং":9743,"সাহেবের":9744,"পরচেষ":9745,"শওকত":9746,"ফেলন":9747,"চাইছে":9748,"উপমহা":9749,"একইভাবে":9750,"চাকরী":9751,"সাজিযে":9752,"যাতাযাত":9753,"অবৈধভাবে":9754,"##নাকে":9755,"মকতিযোদধাদের":9756,"জাপানি":9757,"##ছির":9758,"মরগে":9759,"উস":9760,"বিষযটা":9761,"##বরষের":9762,"যতটা":9763,"ঘরতে":9764,"##সীমা":9765,"##যারির":9766,"জালিযা":9767,"নজির":9768,"রাখি":9769,"বেসামরিক":9770,"গতিতে":9771,"ডিপ":9772,"শিগগিরই":9773,"কও":9774,"সাকষী":9775,"বানদরবান":9776,"##ধরনের":9777,"নামকরণ":9778,"সাপতাহ":9779,"উপলবধি":9780,"খি":9781,"এযারলাইন":9782,"বযতীত":9783,"পরদতত":9784,"##িযেল":9785,"জেন":9786,"পরাধান":9787,"মসতিষ":9788,"##জজিত":9789,"হালিম":9790,"কিশোরগঞজ":9791,"কযামপের":9792,"##যাতরী":9793,"মনাফা":9794,"টরেনের":9795,"বিআর":9796,"মাঝারি":9797,"এটাও":9798,"তখনও":9799,"বযাকতি":9800,"মকল":9801,"পরতিফল":9802,"##মিনি":9803,"৮৪":9804,"পরভ":9805,"উডে":9806,"##যানো":9807,"আসলেই":9808,"চযামপিযনস":9809,"হিউ":9810,"হিল":9811,"দৌডে":9812,"শতাবদীর":9813,"রেজি":9814,"sc":9815,"টরনামেনট":9816,"দাডাতে":9817,"পরদায":9818,"শতভাগ":9819,"হাসিনাকে":9820,"রট":9821,"তলেছেন":9822,"সজনশীল":9823,"porn":9824,"পরযোজয":9825,"বৈচিতর":9826,"##ver":9827,"বগডার":9828,"pre":9829,"উগর":9830,"রন":9831,"মেযেটি":9832,"কারখানার":9833,"রজ":9834,"মোতাবেক":9835,"##ানট":9836,"##ভয":9837,"কমিউনিসট":9838,"তৎপরতা":9839,"##নতর":9840,"বিনদ":9841,"আপডেট":9842,"ইসলামকে":9843,"চেযেছেন":9844,"ইনসযর":9845,"ফাকে":9846,"##উটি":9847,"##ঙগিনী":9848,"ফেনী":9849,"সীমানা":9850,"হতযাকাণডের":9851,"মেটরোপলি":9852,"সকোর":9853,"##খাসত":9854,"রাযে":9855,"ফাকা":9856,"লাইনে":9857,"কযামপাসে":9858,"বিধবসত":9859,"http":9860,"##কেত":9861,"##তেমা":9862,"গির":9863,"২৫০":9864,"##সাহ":9865,"জাকার":9866,"lat":9867,"##বদের":9868,"অনরপ":9869,"##যাসের":9870,"মরত":9871,"এযাড":9872,"সনি":9873,"রিভিউ":9874,"##ism":9875,"##েশবর":9876,"পিরোজ":9877,"##সবরপ":9878,"গলিবিদধ":9879,"ফারসট":9880,"পরদা":9881,"আসছিল":9882,"কষেতরেও":9883,"আওযাজ":9884,"বাকী":9885,"দেশটিতে":9886,"আইটি":9887,"ঝকিপরণ":9888,"##ans":9889,"সটোর":9890,"##কীয":9891,"মকতিযদধে":9892,"ভাইরাস":9893,"৮৩":9894,"চটটো":9895,"টযাবলেট":9896,"ভযাল":9897,"পরারথীরা":9898,"সিকদার":9899,"ঘরণি":9900,"লর":9901,"জিবি":9902,"চিনতার":9903,"একশ":9904,"বযতিকরম":9905,"##ভিড":9906,"রাযহান":9907,"##ভাবিকভাবে":9908,"চলাকালে":9909,"বাতিলের":9910,"বততি":9911,"সরকষা":9912,"সরঞজাম":9913,"হাফেজ":9914,"আলাম":9915,"বিশেষভাবে":9916,"##জানের":9917,"চালের":9918,"সমাধানের":9919,"সংঘরষের":9920,"তিনিও":9921,"অপরের":9922,"কাশেম":9923,"সাকষাৎকারে":9924,"শতকের":9925,"জঙগিবাদ":9926,"ওব":9927,"হাউস":9928,"জবল":9929,"আডডা":9930,"ঢো":9931,"##vi":9932,"করতবযরত":9933,"জনপরতিনি":9934,"একেক":9935,"চালিযেছে":9936,"বেহ":9937,"##নাট":9938,"কলার":9939,"এলি":9940,"গরেনেড":9941,"##ামনি":9942,"ইনডিযান":9943,"করমকাণড":9944,"ভিযে":9945,"সাপতাহিক":9946,"##পরবক":9947,"মালযেশিযার":9948,"অনরধব":9949,"পাঞজা":9950,"গলশান":9951,"শবশর":9952,"##মারী":9953,"অসবিধা":9954,"##পিড":9955,"সাকষর":9956,"পজো":9957,"শরা":9958,"অনপরবেশ":9959,"পথের":9960,"ডেভেলপমেনট":9961,"##রপে":9962,"হসতকষেপ":9963,"##করি":9964,"সপযান":9965,"বডযা":9966,"##হাম":9967,"শরমিকরা":9968,"সরযের":9969,"অংশীদার":9970,"যাও":9971,"##ভেজ":9972,"কতব":9973,"একমত":9974,"এলেন":9975,"##থযের":9976,"at":9977,"অতর":9978,"সমপরচার":9979,"আদম":9980,"বযবহারে":9981,"##হাটের":9982,"পাঠাতে":9983,"উচচতা":9984,"##বানি":9985,"সেকেনড":9986,"৮৬":9987,"কষতির":9988,"বাদে":9989,"##edia":9990,"মোবাইলে":9991,"নশ":9992,"মিড":9993,"নতয":9994,"দেখছেন":9995,"##গতির":9996,"ইভিএম":9997,"বরষের":9998,"বিশববযা":9999,"লোকজনের":10000,"অভিনযের":10001,"গানে":10002,"করমশ":10003,"আরজেনটিনার":10004,"গালি":10005,"আজম":10006,"ab":10007,"সপতম":10008,"##ষন":10009,"তোফাযেল":10010,"আধিপতয":10011,"দিতেন":10012,"ঠিকাদার":10013,"হরতাল":10014,"মইন":10015,"পশর":10016,"গানধী":10017,"রিট":10018,"##জিযাম":10019,"শিকষাপরতি":10020,"ঠাণডা":10021,"জনসাধারণ":10022,"পরদেশ":10023,"ফেলেন":10024,"আনতঃ":10025,"তের":10026,"বোল":10027,"জনমের":10028,"বযরো":10029,"গযাসের":10030,"বিজঞানের":10031,"সাকষাত":10032,"উতথা":10033,"চিকিৎসকের":10034,"কাজল":10035,"কমবে":10036,"গারমেনট":10037,"##গোষঠ":10038,"সমবনধে":10039,"মালামাল":10040,"মারকেটিং":10041,"শরীম":10042,"##নিযায":10043,"দনিযার":10044,"##বাসীরা":10045,"লেখেন":10046,"পরোডাক":10047,"সেটাও":10048,"##ষঠানিক":10049,"##ack":10050,"##কিট":10051,"bo":10052,"অধযায":10053,"শামস":10054,"তরিপরা":10055,"সিরিযার":10056,"##জিন":10057,"১২০":10058,"কোমপানিটি":10059,"তলেছে":10060,"শিশরা":10061,"ফটবলের":10062,"পরাধানয":10063,"সাথেই":10064,"##সথলে":10065,"লিগে":10066,"পাগল":10067,"মোরগ":10068,"সমহ":10069,"দামে":10070,"পরতিনিধিতব":10071,"কোচিং":10072,"জিমবাবযে":10073,"দফতর":10074,"ভালবাসা":10075,"অতীত":10076,"##ওযেল":10077,"বিদযা":10078,"মোন":10079,"সচি":10080,"নিযেছি":10081,"ঐকযফরনট":10082,"উঠেছিল":10083,"সনতানকে":10084,"download":10085,"##ংগ":10086,"৯৮":10087,"##াকাল":10088,"##বনির":10089,"##ংখ":10090,"যেগলো":10091,"ঢেকে":10092,"তিত":10093,"গলোবাল":10094,"সিগারে":10095,"চরির":10096,"মোকাবেলা":10097,"করমাগত":10098,"পরবাহিত":10099,"বেলাল":10100,"খজতে":10101,"পরবদধি":10102,"কসম":10103,"##টিযার":10104,"##সথানীয":10105,"সহীহ":10106,"##ঙকে":10107,"ঘটতে":10108,"বিদরোহী":10109,"জযপর":10110,"ডাকে":10111,"16":10112,"##াজি":10113,"চেযেছিলেন":10114,"##ug":10115,"অগরসর":10116,"করক":10117,"মতই":10118,"##বানের":10119,"পরবর":10120,"পশচিমবঙগ":10121,"মযানেজমেনট":10122,"##তোর":10123,"সোহাগ":10124,"রোনালদো":10125,"ভাইরাল":10126,"শযামাঙগিনী":10127,"##বাদি":10128,"##পরবে":10129,"অবসান":10130,"ডার":10131,"আঙগ":10132,"নযনতম":10133,"##ঞজি":10134,"সহিংসতা":10135,"tim":10136,"জাতের":10137,"পেপার":10138,"ভোলা":10139,"লজজা":10140,"##ata":10141,"ফরহাদ":10142,"মামা":10143,"বাবাকে":10144,"এইচএসসি":10145,"মোজামমেল":10146,"মাঝখানে":10147,"বাহার":10148,"রযালি":10149,"গলাস":10150,"পরাণের":10151,"দেলোযার":10152,"পিপি":10153,"##খিক":10154,"ধারে":10155,"টিন":10156,"মনসীগঞজ":10157,"৭৯":10158,"##ণায":10159,"পরানতে":10160,"এটিকে":10161,"##পাঠ":10162,"কযাপটেন":10163,"##মারি":10164,"আগাম":10165,"বযব":10166,"নারাযণগঞজের":10167,"সোহরাওযারদী":10168,"সমি":10169,"সাতটি":10170,"বণ":10171,"অগনি":10172,"রণবীর":10173,"বসতে":10174,"আইসিসি":10175,"মাইকরোস":10176,"পরবেশের":10177,"ঢেলে":10178,"একটাই":10179,"টরফি":10180,"চিকিৎসকরা":10181,"জনগোষঠীর":10182,"আললামা":10183,"পাখির":10184,"আননদে":10185,"ওঠেন":10186,"##িনিউজ":10187,"দৌড":10188,"##মযের":10189,"কালী":10190,"ইউএনও":10191,"তলনামলক":10192,"পশচিমে":10193,"হেকটর":10194,"না৷":10195,"##নাশ":10196,"শরো":10197,"মরে":10198,"##ৈরয":10199,"রিপন":10200,"##কষী":10201,"নাহিদ":10202,"পাতার":10203,"সাবধান":10204,"রাতেই":10205,"দিনাজপর২৪":10206,"লাগাতে":10207,"he":10208,"দজনে":10209,"ভটটাচারয":10210,"মেটরোপলিটন":10211,"পোল":10212,"কথাগলো":10213,"ঠেলে":10214,"শিশন":10215,"জযনাল":10216,"৮২":10217,"কটনৈতিক":10218,"হলাম":10219,"কীর":10220,"লেখায":10221,"রকতে":10222,"##পাধযাযের":10223,"দষটিভ":10224,"হযনা":10225,"আসিফ":10226,"দত":10227,"দলাল":10228,"##কেলে":10229,"সরবা":10230,"জনতার":10231,"মযদানে":10232,"##10":10233,"রহমত":10234,"তেমনই":10235,"সাযেনস":10236,"ফান":10237,"মেঘনা":10238,"##দিনে":10239,"##ঞজার":10240,"ইসম":10241,"কাশমীর":10242,"লেখাপডা":10243,"অযাপলিকেশন":10244,"গভরনর":10245,"##মলয":10246,"gr":10247,"##তেজ":10248,"২০০৩":10249,"পরকলপে":10250,"শিরোনামে":10251,"##aper":10252,"গলশ":10253,"গরেফতারের":10254,"##ীপ":10255,"ওপেনার":10256,"বারো":10257,"যবককে":10258,"বাচচার":10259,"কৌত":10260,"কোযারটার":10261,"##ংরা":10262,"##নোর":10263,"সটেশনে":10264,"##দরোগ":10265,"সামগরিক":10266,"লিপি":10267,"আনিসল":10268,"ভারসাময":10269,"বিপলবী":10270,"জিজঞাসাবাদ":10271,"উৎসাহিত":10272,"ডাযাবেটিস":10273,"us":10274,"কযে":10275,"পিপ":10276,"রাজশাহীর":10277,"কক":10278,"জানাচছি":10279,"চেযারপারসনের":10280,"##যাযী":10281,"খসডা":10282,"##সরা":10283,"রোল":10284,"পাতর":10285,"বিবেক":10286,"ছাতরদল":10287,"মঈন":10288,"##ure":10289,"ভাবা":10290,"সপেশাল":10291,"শতকরা":10292,"ধমপ":10293,"উখিযা":10294,"মযমনসিংহের":10295,"##কলযাণ":10296,"৯২":10297,"জোগ":10298,"নেপালের":10299,"##গলা":10300,"##ary":10301,"বরডার":10302,"দোকানের":10303,"ঝা":10304,"##াযনের":10305,"##াইর":10306,"##োজা":10307,"সলি":10308,"##তবা":10309,"মসত":10310,"##ামানয":10311,"সনতষট":10312,"##যেনট":10313,"জেস":10314,"মতযদণড":10315,"বলতেন":10316,"আসবেন":10317,"উৎপাদনের":10318,"মাধযমেই":10319,"তীরে":10320,"করিনি":10321,"অপমান":10322,"১৯৭৫":10323,"বযাটালি":10324,"ইনসটল":10325,"##পরব":10326,"মনতব":10327,"হারিযেছে":10328,"##ফলে":10329,"ভাগে":10330,"টেকসই":10331,"im":10332,"কযামপাস":10333,"দেশটি":10334,"শরমা":10335,"শিরোনাম":10336,"অভিহিত":10337,"খোর":10338,"হদরোগ":10339,"বরণা":10340,"নামা":10341,"পরকরিযার":10342,"##চী":10343,"বারষিকী":10344,"আলেম":10345,"সিরাজগঞজ":10346,"বিলডিং":10347,"জানানোর":10348,"যাতরীবাহী":10349,"ইদর":10350,"চৈ":10351,"বিশবাসের":10352,"হযেই":10353,"হতাশা":10354,"সটি":10355,"মনসর":10356,"সবাভাবিকভাবে":10357,"##ous":10358,"সমালোচনার":10359,"##কসের":10360,"লাইট":10361,"##বিতত":10362,"লেখকের":10363,"##মেনটের":10364,"##শবিক":10365,"জরিপ":10366,"ভরসা":10367,"##পরিষদ":10368,"হিসেবেই":10369,"কযেকবার":10370,"চিং":10371,"সহিংস":10372,"চকরের":10373,"নৌকার":10374,"##বলমব":10375,"হোসেনকে":10376,"মসলিমদের":10377,"পরিবেশের":10378,"পারশববরতী":10379,"দষটানত":10380,"হয৷":10381,"তেলের":10382,"গণহতযা":10383,"##গলিকে":10384,"ইসরাযে":10385,"বঙগোপ":10386,"জাগর":10387,"online":10388,"বরেক":10389,"বসতি":10390,"কতো":10391,"পানীয":10392,"যকতরাজযের":10393,"##মরতি":10394,"যমনা":10395,"##ory":10396,"অভয":10397,"কাউনসিলের":10398,"ফাহ":10399,"নিস":10400,"কিডনি":10401,"##যদধের":10402,"##শালের":10403,"মরিচ":10404,"ওযাশিংটন":10405,"##বিলা":10406,"আগত":10407,"সরি":10408,"##মিযা":10409,"কলযাণে":10410,"অপারেটিং":10411,"বসানো":10412,"qu":10413,"দাওযা":10414,"বেসরকারী":10415,"পডেছিল":10416,"এএফ":10417,"অনেকদিন":10418,"অনিশ":10419,"##ite":10420,"##াদি":10421,"এমপিও":10422,"বেনাপোল":10423,"সবিধ":10424,"আকাশের":10425,"অহ":10426,"লগ":10427,"##কাটা":10428,"পিএস":10429,"তণমলের":10430,"##তিকার":10431,"হাফ":10432,"ডেম":10433,"##সভাপতি":10434,"হিট":10435,"হিনদি":10436,"পদধতির":10437,"ঘটনাসথলেই":10438,"কাধে":10439,"মনতরি":10440,"বিবতি":10441,"সঞচয":10442,"##শিলপ":10443,"বরবর":10444,"অবহেলা":10445,"বযাবহার":10446,"##ঞছ":10447,"গণসং":10448,"বাগেরহাট":10449,"পাউ":10450,"জট":10451,"সনতরাসীদের":10452,"জডি":10453,"সয":10454,"খেলনা":10455,"পরযটকদের":10456,"সংকরম":10457,"ঘরণিঝ":10458,"বিরকত":10459,"##ডেনট":10460,"আবেদীন":10461,"পরেমে":10462,"নিহতদের":10463,"##লেখা":10464,"পরষদ":10465,"জনসংখযার":10466,"##শায":10467,"বিশেষত":10468,"অমিত":10469,"নজরে":10470,"মেতে":10471,"পেযেছিলেন":10472,"মাঝামা":10473,"বাচচাদের":10474,"ঋত":10475,"লঙঘন":10476,"লালমনির":10477,"পরমান":10478,"সারি":10479,"দষটিতে":10480,"কোলে":10481,"##গণের":10482,"ডাকতারের":10483,"মহাকাশ":10484,"অনশীলন":10485,"গরপে":10486,"বনদী":10487,"অভিনীত":10488,"##ফাত":10489,"ইমি":10490,"from":10491,"##ction":10492,"বাজেটে":10493,"পিটিযে":10494,"কমানোর":10495,"লনডনের":10496,"ফোরামের":10497,"ইনভ":10498,"লকষযমাতরা":10499,"মহামমাদ":10500,"চরিতরের":10501,"সমরথিত":10502,"খোদ":10503,"গহবধ":10504,"অনমোদিত":10505,"বরজন":10506,"অঙগীকার":10507,"অধিবেশনে":10508,"##বই":10509,"দেননি":10510,"ভাঙা":10511,"vi":10512,"কিশোরী":10513,"অনযানযের":10514,"##লিমা":10515,"##াসতর":10516,"new":10517,"##লেশন":10518,"নামতে":10519,"ফেরি":10520,"মাদকদরবয":10521,"মনদিরের":10522,"ভরামযমাণ":10523,"রাষটরপতির":10524,"গডো":10525,"উৎপাদিত":10526,"অবনতি":10527,"ভযঙকর":10528,"বাটা":10529,"ধাওযা":10530,"ঊরধবতন":10531,"##নীতিতে":10532,"পেই":10533,"ফড":10534,"করেতা":10535,"জিপিএ":10536,"ইহদি":10537,"##ছডা":10538,"গিযেছেন":10539,"রিসার":10540,"হিসেব":10541,"সহসভাপতি":10542,"শেযারের":10543,"বারান":10544,"অনতরগত":10545,"সহকারি":10546,"মারফ":10547,"##are":10548,"##যালের":10549,"##৭১":10550,"অনদান":10551,"দতাবাস":10552,"বিসিবি":10553,"জাজ":10554,"##৩০":10555,"পারা":10556,"ধীর":10557,"কাঠের":10558,"উনমোচন":10559,"##বনধনে":10560,"সহযোগিতার":10561,"সাহসী":10562,"##সমমত":10563,"কোল":10564,"ফাক":10565,"পাহাডে":10566,"সদসযকে":10567,"সরবপর":10568,"17":10569,"রেখেই":10570,"##যেদের":10571,"পরতযাখযান":10572,"নিউইযরক":10573,"সংকল":10574,"##ঞচার":10575,"দেখছে":10576,"টইট":10577,"পটযাখালী":10578,"হব":10579,"জিমবাবযের":10580,"##সেট":10581,"পরশাসকের":10582,"তরণদের":10583,"তিস":10584,"শাহরিযার":10585,"##কষমতা":10586,"ইযার":10587,"লাউ":10588,"মলযবোধ":10589,"পরিমা":10590,"থাকতেন":10591,"ছাপা":10592,"##বাজারের":10593,"শাহরখ":10594,"ইলিযাস":10595,"অরজিত":10596,"সংলাপে":10597,"পরোগর":10598,"বনযার":10599,"পরতিরোধে":10600,"অঙক":10601,"রসন":10602,"পরতিদবনদবী":10603,"india":10604,"বরণাঢয":10605,"##দাযক":10606,"মযলা":10607,"গাডী":10608,"##ভিং":10609,"জানিযেছিলেন":10610,"মরহম":10611,"আরটি":10612,"দদকের":10613,"##ace":10614,"হাইওযে":10615,"হইবে":10616,"ফলযা":10617,"পিঠ":10618,"##বিধি":10619,"জিও":10620,"মিটিং":10621,"পরীকষারথী":10622,"##বিসতার":10623,"পডি":10624,"পরতী":10625,"25":10626,"একইসঙগে":10627,"কলাবে":10628,"##ধযকষ":10629,"এদেশে":10630,"ঢকিযে":10631,"গাছে":10632,"বযবধান":10633,"রিজারভ":10634,"নিকষেপ":10635,"##মাণবিক":10636,"##বানধব":10637,"লোহা":10638,"##মেট":10639,"চাকরিতে":10640,"সবীকত":10641,"দলগলোর":10642,"সেদিকে":10643,"টাইপ":10644,"বিবেচিত":10645,"মনিরল":10646,"এডাতে":10647,"আরবে":10648,"নামাজের":10649,"ধৈরয":10650,"পারত":10651,"হরম":10652,"দাফন":10653,"রিকশা":10654,"দেশপরে":10655,"শারমিন":10656,"অবিশবাস":10657,"ঘেরা":10658,"বখারী":10659,"৬০০":10660,"পোষট":10661,"##থেকে":10662,"পাচছি":10663,"শপিং":10664,"সযামসা":10665,"সকষমতা":10666,"দিললির":10667,"ঈদগাহ":10668,"সচিবালযে":10669,"গেযে":10670,"৮৯":10671,"রিযাদ":10672,"কাননা":10673,"##pt":10674,"পেসার":10675,"ছোযা":10676,"ডেভিড":10677,"ইযাহ":10678,"নিদরশন":10679,"চারপাশে":10680,"মযাচটি":10681,"##সাম":10682,"বিছানায":10683,"হতযাকান":10684,"##হারে":10685,"##করমীদের":10686,"দিবসে":10687,"ছযে":10688,"ওটা":10689,"##টেজ":10690,"বিশদধ":10691,"উইলিযাম":10692,"##উনডে":10693,"উষণ":10694,"শিলপকলা":10695,"৮৭":10696,"খতিযে":10697,"পরিবরতিত":10698,"হেলিক":10699,"বিএম":10700,"##ছল":10701,"পরগতি":10702,"খেলোযাডদের":10703,"রসলললাহ":10704,"মাখ":10705,"সবরপ":10706,"##িসং":10707,"পারমাণবিক":10708,"টরাস":10709,"নিঃসন":10710,"১২টি":10711,"সনধযার":10712,"##ree":10713,"ধোযা":10714,"##বীন":10715,"আকস":10716,"sex":10717,"ছাগল":10718,"গরীব":10719,"জডো":10720,"অবয":10721,"খবরের":10722,"গাইবানধা":10723,"ঝাড":10724,"##বরষে":10725,"শরমিকের":10726,"পরথমবার":10727,"মতিউর":10728,"##ডিএফ":10729,"##কষিণ":10730,"চলাচলের":10731,"বানধ":10732,"পরচারিত":10733,"জটিলতা":10734,"##বরা":10735,"অরণ":10736,"##পাশ":10737,"সংযোজন":10738,"রকষাকারী":10739,"all":10740,"আসলাম":10741,"##াহান":10742,"মতের":10743,"mar":10744,"##ভৌ":10745,"পরীতি":10746,"বৈদযতিক":10747,"পারভেজ":10748,"14":10749,"খলনার":10750,"মী":10751,"কেক":10752,"কোমপানী":10753,"চাপাইনবাবগঞজ":10754,"##েইন":10755,"##চায":10756,"##der":10757,"বযবসাযিক":10758,"বলছিলেন":10759,"br":10760,"লিন":10761,"মতযবরণ":10762,"বাইক":10763,"আজিজল":10764,"নিযনতরিত":10765,"১৮৯":10766,"কযেকটা":10767,"বনদকযদধে":10768,"পারতেন":10769,"সসপষট":10770,"তরসক":10771,"ডাকাতি":10772,"সমমানের":10773,"নশংস":10774,"করপোরেট":10775,"##মেযা":10776,"বিএনপিকে":10777,"রইল":10778,"উইকি":10779,"লেখালেখ":10780,"কোমল":10781,"কমিটিতে":10782,"বোধহয":10783,"গোপনে":10784,"শাহিন":10785,"পরতিশ":10786,"লকষমীপর":10787,"মতিন":10788,"কিম":10789,"##িসটরি":10790,"আচার":10791,"আমরাও":10792,"থাকক":10793,"মফতি":10794,"সটেডিযাম":10795,"##ঘাতী":10796,"রযালী":10797,"৩টায":10798,"মেযাদে":10799,"মাধব":10800,"মিলাদ":10801,"পঞচাযেত":10802,"পরভাবে":10803,"অযাসোসিযেশন":10804,"পষঠপো":10805,"বিনিযোগের":10806,"ফেরদৌস":10807,"শীতল":10808,"ঘমের":10809,"যবদলের":10810,"fuck":10811,"আইফোন":10812,"ঠেক":10813,"13":10814,"সটযান":10815,"অপরাজিত":10816,"যাপন":10817,"কানাডার":10818,"tag":10819,"কাপের":10820,"বসার":10821,"##ok":10822,"নাসতিক":10823,"এজেন":10824,"বাডীতে":10825,"করতবয":10826,"##কাজ":10827,"##ালয":10828,"অকস":10829,"01":10830,"কেযার":10831,"রাজীব":10832,"জামালপর":10833,"##লাত":10834,"##বনদের":10835,"একপরযাযে":10836,"যৌকতিক":10837,"যাবো":10838,"টযাগ":10839,"কযার":10840,"ঝালকাঠি":10841,"সাতার":10842,"গোলড":10843,"নিরব":10844,"পরতিপকষের":10845,"##উই":10846,"##ধারার":10847,"লতিফ":10848,"২০০২":10849,"নিযেছিল":10850,"হেফাজতে":10851,"মৌসম":10852,"পেলেও":10853,"মনড":10854,"দষ":10855,"বেতার":10856,"সথিতিশীল":10857,"দপরের":10858,"নিযনতরক":10859,"she":10860,"কোষ":10861,"অযাট":10862,"সিরিযা":10863,"শফিউল":10864,"৯৩":10865,"বরজয":10866,"বনে":10867,"৩য":10868,"গেছি":10869,"ওনার":10870,"##ণডিত":10871,"তরফে":10872,"মনতরীর":10873,"মোদি":10874,"##ৎসর":10875,"##গাছা":10876,"শাখায":10877,"হেলিকপ":10878,"কানাডা":10879,"আওতা":10880,"পরিনস":10881,"##জমিনে":10882,"টেসটের":10883,"শিবিরের":10884,"ভালোই":10885,"সেলস":10886,"আবদধ":10887,"নডাইল":10888,"ফেবরযারী":10889,"রিপা":10890,"##ere":10891,"মিযানমারে":10892,"##োরিযাল":10893,"##ধের":10894,"ওযেল":10895,"চাযের":10896,"বলেছিল":10897,"##ভাগে":10898,"পলযাট":10899,"আডালে":10900,"আচর":10901,"৯৭":10902,"ইসমাইল":10903,"##তিযার":10904,"পরতিদিনের":10905,"করমসচিতে":10906,"##খম":10907,"যনতরপাতি":10908,"টরেনে":10909,"রটে":10910,"শবে":10911,"##শিম":10912,"ফলন":10913,"পরতিষঠানটির":10914,"পরচনড":10915,"ঠোট":10916,"উপকারী":10917,"৮টি":10918,"বিশবাসী":10919,"মেসির":10920,"চলাকালীন":10921,"##িযেছে":10922,"https":10923,"হলিউ":10924,"পরহ":10925,"কোহলি":10926,"##চেস":10927,"##েশাদার":10928,"##কিন":10929,"##কষেপে":10930,"বরাউ":10931,"বযবহারকারীদের":10932,"কারখানায":10933,"বযবসথাপক":10934,"নমনা":10935,"সেভাবে":10936,"রীতিমতো":10937,"টরনামেনটের":10938,"up":10939,"করমকানড":10940,"আমায":10941,"চিঠিতে":10942,"১৯৯০":10943,"ভিজ":10944,"আহমদের":10945,"খরিসটাবদে":10946,"শিকষকরা":10947,"বললেই":10948,"##েনসি":10949,"পাম":10950,"সারক":10951,"লড":10952,"লোভ":10953,"মলক":10954,"জহর":10955,"বরাহমণবাডি":10956,"গডিযে":10957,"বলগে":10958,"জেমস":10959,"লেনদেনের":10960,"শাহাদাত":10961,"পোষণ":10962,"সমাধানে":10963,"ভকতদের":10964,"লী":10965,"##থীদের":10966,"সীমানতের":10967,"##পঞজ":10968,"চারি":10969,"গৌরব":10970,"নিরমান":10971,"##যেট":10972,"বনধন":10973,"মৌখিক":10974,"আলোকিত":10975,"এতি":10976,"##ফেল":10977,"##কযা":10978,"##ংশে":10979,"নাটকে":10980,"মনতরণালযে":10981,"##পরিক":10982,"পোষ":10983,"মনদিরে":10984,"##ms":10985,"কখনই":10986,"উদধারের":10987,"##বনদী":10988,"জিহাদ":10989,"কানতি":10990,"ফেইসব":10991,"post":10992,"সোভিযে":10993,"নবীন":10994,"অগরা":10995,"আকারের":10996,"একদিনের":10997,"খরী":10998,"টেকনিক":10999,"মারকেটে":11000,"##লিখিত":11001,"পরিকলপনার":11002,"আরেকটা":11003,"##ীগণ":11004,"পরিষেবা":11005,"দিকের":11006,"রোডে":11007,"শধই":11008,"##ee":11009,"অবধি":11010,"জারসি":11011,"##ছিলে":11012,"পেটের":11013,"নেশা":11014,"দাযিতবশীল":11015,"মেটরো":11016,"দিনাজপরের":11017,"শকিযে":11018,"##জমা":11019,"দাবীতে":11020,"বরো":11021,"পদোন":11022,"আপলোড":11023,"পরাঙগণে":11024,"বিসফোরণ":11025,"টেকনোলজি":11026,"পরজেকট":11027,"অনত":11028,"কারযদিবস":11029,"ছাডতে":11030,"কাটাতে":11031,"##জাতি":11032,"##সংকরানত":11033,"সংখযাগরি":11034,"মাতরায":11035,"শনানির":11036,"নিবেদন":11037,"উদবদধ":11038,"মধযকার":11039,"যৌথভাবে":11040,"অসবস":11041,"পেজ":11042,"কষকের":11043,"goo":11044,"জহিরল":11045,"মাং":11046,"উদার":11047,"কতজঞতা":11048,"##াসী":11049,"মওদদ":11050,"অনধকারে":11051,"##পিযা":11052,"অডিও":11053,"আসরের":11054,"##nal":11055,"হাজারো":11056,"একাডেমির":11057,"মদিন":11058,"বযবসথায":11059,"চিল":11060,"ইউনস":11061,"আইস":11062,"সেনটারের":11063,"রোযা":11064,"##বযসত":11065,"##ভন":11066,"বিজঞাপ":11067,"গণভবনে":11068,"গাইড":11069,"পলিশে":11070,"উতপাদ":11071,"অপশন":11072,"বযাযাম":11073,"ভকতভোগ":11074,"হিরো":11075,"##পিট":11076,"মযনা":11077,"মারচের":11078,"লভ":11079,"##বাসহ":11080,"##দাহ":11081,"সাপে":11082,"টহল":11083,"মোটেও":11084,"লকষে":11085,"##টরাল":11086,"##মিল":11087,"কষবধ":11088,"##বাসীকে":11089,"সাইটের":11090,"মহাজ":11091,"আদৌ":11092,"পাডে":11093,"মহাসডক":11094,"হারানো":11095,"থাকতো":11096,"সিএসই":11097,"##দিযে":11098,"##বিধানিক":11099,"ওসমানী":11100,"ঘনটার":11101,"মানি":11102,"##াকান":11103,"বাচতে":11104,"মহার":11105,"##ইযে":11106,"মিশরণ":11107,"পরখযাত":11108,"পাশেই":11109,"সাধন":11110,"গডতে":11111,"চডা":11112,"##যনির":11113,"##oy":11114,"##খী":11115,"ঘোডা":11116,"লেস":11117,"##বরাজ":11118,"অবসথানের":11119,"গাযের":11120,"##ঙা":11121,"কাসে":11122,"নিজেরা":11123,"মালি":11124,"হাজারের":11125,"সংগরামের":11126,"##গরনথ":11127,"কোট":11128,"আবশয":11129,"##ঘরের":11130,"##ঙগো":11131,"নিরভরশীল":11132,"বরিগে":11133,"##ষটিত":11134,"দশযমান":11135,"মেক":11136,"পরিসকার":11137,"পেরেছে":11138,"সালাত":11139,"co":11140,"বাধযতামলক":11141,"উদদী":11142,"##বতী":11143,"রাঙামাটি":11144,"বোঝার":11145,"চমকে":11146,"পরাতি":11147,"মাঝামাঝি":11148,"অতীতে":11149,"অগরাধিকার":11150,"কযালি":11151,"##গডি":11152,"##man":11153,"সসতা":11154,"##িযেছেন":11155,"পরিনট":11156,"কযাটাগরি":11157,"##টরনি":11158,"করণীয":11159,"পরেকষাপটে":11160,"সমযেই":11161,"##াইড":11162,"শোভাযাতরা":11163,"ফাসির":11164,"বযযে":11165,"##গরামে":11166,"##ভৌম":11167,"দেশবযাপী":11168,"আহমাদ":11169,"সেলফি":11170,"অযাকাউন":11171,"app":11172,"##কষায":11173,"##ননদিন":11174,"পেরেছি":11175,"কাত":11176,"সংগঠিত":11177,"##কানদি":11178,"ঠেকাতে":11179,"সানি":11180,"বাবদ":11181,"গোপালগঞজ":11182,"res":11183,"গরিন":11184,"##মৈ":11185,"জযোতি":11186,"টরলার":11187,"man":11188,"কলানত":11189,"এটিই":11190,"##ft":11191,"সনতরাসীরা":11192,"##ge":11193,"ইউটিউব":11194,"##ভাজন":11195,"অভিজঞতার":11196,"##াইনে":11197,"অযাওযারড":11198,"এমনভাবে":11199,"জীবনযাপ":11200,"পলযান":11201,"কোরবানির":11202,"তাআ":11203,"##নিতে":11204,"মাদরিদ":11205,"মতন":11206,"ধাককায":11207,"পাইপ":11208,"৯৪":11209,"গোবিনদ":11210,"শকনো":11211,"হারায":11212,"শিখতে":11213,"সততা":11214,"মধযম":11215,"##মখে":11216,"চেনা":11217,"কানন":11218,"পরার":11219,"পরভাষক":11220,"##লর":11221,"ডেটা":11222,"##ধরমী":11223,"ডেলি":11224,"##জরি":11225,"অরফ":11226,"ডাবল":11227,"পরোযানা":11228,"কষকরা":11229,"ঠো":11230,"মজরি":11231,"লিটার":11232,"##উক":11233,"##খি":11234,"বযাপী":11235,"ঘটবে":11236,"এটির":11237,"উদভিদ":11238,"সাহিতযে":11239,"নগরী":11240,"সারজন":11241,"##মদাদ":11242,"বিপি":11243,"##গলোও":11244,"এগলোর":11245,"ঐকযের":11246,"নিজাম":11247,"মমব":11248,"দকষিণে":11249,"টমে":11250,"উলটে":11251,"##ঞচলীয":11252,"চনদ":11253,"সকালের":11254,"দাবির":11255,"মললিক":11256,"শায":11257,"পরবরতীকালে":11258,"ভোল":11259,"তারও":11260,"মাযান":11261,"অতীতের":11262,"আচছা":11263,"বরিশালের":11264,"বিকর":11265,"টারমিন":11266,"##যতা":11267,"ননদ":11268,"১৯৯৮":11269,"নল":11270,"অসটরেলি":11271,"এতটাই":11272,"সখী":11273,"সপিনার":11274,"ছাদ":11275,"এরমধযে":11276,"আতমসমর":11277,"##শল":11278,"জববার":11279,"##াজাহান":11280,"অকসি":11281,"সবাসথযের":11282,"কাজটা":11283,"আলাউদদিন":11284,"বিজযের":11285,"পোরট":11286,"এনেছে":11287,"৭টি":11288,"##একস":11289,"গঞজন":11290,"সরবপরথম":11291,"সংকেত":11292,"আকরমণের":11293,"খেজর":11294,"সংশলিষটরা":11295,"যতকষণ":11296,"সজীব":11297,"গেই":11298,"##ai":11299,"are":11300,"থিম":11301,"সিঙগাপর":11302,"##পরক":11303,"সংখযাগরিষঠ":11304,"##পাকে":11305,"রেজিসটরেশন":11306,"হাইকমি":11307,"##att":11308,"কষেপণ":11309,"vide":11310,"##ানেজ":11311,"##বাডির":11312,"নেততবের":11313,"অপেশাদার":11314,"বযাপকভাবে":11315,"শরট":11316,"ফেডারেশন":11317,"গণমাধযমের":11318,"##ss":11319,"দশচিন":11320,"ভোটারদের":11321,"লার":11322,"করান":11323,"নাইট":11324,"##রেড":11325,"##াজাত":11326,"ভত":11327,"বনয":11328,"ইউনিভারসিটির":11329,"দৈননদিন":11330,"অবদানের":11331,"সথানীযদের":11332,"এমপ":11333,"##ach":11334,"দিই":11335,"তরফ":11336,"তথাক":11337,"খালেক":11338,"পরযোজনা":11339,"শিকষিকা":11340,"অংশগরহণের":11341,"পোডা":11342,"রপি":11343,"দবনদব":11344,"##রাইল":11345,"আটটি":11346,"গোষঠীর":11347,"বরখাসত":11348,"ধরমা":11349,"রিমানড":11350,"ঘডি":11351,"ডিসেমবরে":11352,"পরতিযোগী":11353,"চটটোপাধযায":11354,"##পযা":11355,"৯টা":11356,"পরকাশক":11357,"মমত":11358,"মানতে":11359,"১৯৭২":11360,"##মলে":11361,"পরেসকলাব":11362,"লভযাংশ":11363,"ডিএন":11364,"আমেরিকায":11365,"2016":11366,"##পরী":11367,"একাংশ":11368,"দমপতি":11369,"ফেডারেশনের":11370,"পাঠায":11371,"আঘাতে":11372,"সংকটের":11373,"চাইছেন":11374,"সিদধানতে":11375,"বছরই":11376,"চিফ":11377,"ছবিটির":11378,"##ঝে":11379,"চাট":11380,"শম":11381,"##ical":11382,"রবীনদরনাথের":11383,"জালে":11384,"হননি":11385,"নীলফামারী":11386,"##০টি":11387,"পরববরতী":11388,"হমকির":11389,"ছাতরীর":11390,"মেসেজ":11391,"##বারট":11392,"অননত":11393,"ভাঙচর":11394,"আকতি":11395,"ওযালটন":11396,"বযাকটের":11397,"বদধিজীবী":11398,"নামার":11399,"৮০০":11400,"বিচারে":11401,"নৌকায":11402,"অরফানেজ":11403,"বেপর":11404,"টরযা":11405,"নদ":11406,"মকতা":11407,"মহরতের":11408,"তথাকথিত":11409,"১৯৯১":11410,"সাকি":11411,"পেযেছিল":11412,"পরদকষিণ":11413,"##ry":11414,"খলিল":11415,"হযেও":11416,"##টান":11417,"মং":11418,"ছর":11419,"টাঙগাইলের":11420,"কবিতায":11421,"ভিযেতন":11422,"latest":11423,"this":11424,"পরতিমা":11425,"বাদশা":11426,"##চযাল":11427,"রকতচাপ":11428,"পারল":11429,"ডিসপলে":11430,"বরষা":11431,"বিশবনাথ":11432,"রিসারচ":11433,"dis":11434,"গলোর":11435,"##ডাম":11436,"চডে":11437,"ছাডার":11438,"ছোটো":11439,"১২টা":11440,"১৮৮":11441,"বেশকিছ":11442,"হেন":11443,"ভাজ":11444,"গবেষকরা":11445,"সারবভৌম":11446,"পিএইচ":11447,"##বিদযা":11448,"চাষের":11449,"১১টা":11450,"দেখেই":11451,"মডেলের":11452,"বিপলবের":11453,"ঢকতে":11454,"##িটি":11455,"হইল":11456,"রও":11457,"##ile":11458,"নকষ":11459,"বলবো":11460,"##াকালে":11461,"কৌশলে":11462,"##ফোরড":11463,"কোরটে":11464,"সাপোরট":11465,"দিনই":11466,"##ডিস":11467,"ডব":11468,"পোসটার":11469,"এমবি":11470,"হোল":11471,"##ash":11472,"১০০০":11473,"সোসাইটি":11474,"কদদ":11475,"##ভাষ":11476,"world":11477,"##ণডার":11478,"কযানসারের":11479,"পেছন":11480,"রপতান":11481,"ডিআই":11482,"not":11483,"খাওযান":11484,"##কেটের":11485,"##মনত":11486,"সাজে":11487,"মহেশখালী":11488,"পরধানমনতরীকে":11489,"সঞজয":11490,"ঢেউ":11491,"সভযতার":11492,"##যেই":11493,"ফোরস":11494,"গরনথে":11495,"web":11496,"মৈ":11497,"গিযাস":11498,"সোভিযেত":11499,"কলাম":11500,"##রগ":11501,"শরেন":11502,"দারন":11503,"গোর":11504,"##চারে":11505,"সইজার":11506,"নীতির":11507,"যেদিন":11508,"লাফ":11509,"##বিসতারিত":11510,"##যাহ":11511,"একাডেমী":11512,"সপন":11513,"৯টার":11514,"সংসকত":11515,"##কষণে":11516,"পরিযাঙকা":11517,"জবান":11518,"অযাকশন":11519,"অনন":11520,"শারট":11521,"চালিত":11522,"বিডিনিউজ":11523,"tw":11524,"কদর":11525,"##চছিলেন":11526,"করেনা":11527,"##ave":11528,"##যয":11529,"##ংশন":11530,"পলাস":11531,"পারটনার":11532,"##ফেক":11533,"নাঈ":11534,"অনেকেরই":11535,"##৫০":11536,"ছেল":11537,"হোন":11538,"আলে":11539,"রেহ":11540,"সেটার":11541,"##কারা":11542,"##এসএস":11543,"কেস":11544,"চাঞচল":11545,"দৈরঘয":11546,"মাযানমার":11547,"পরতযেকটি":11548,"নেতাকে":11549,"যশোরের":11550,"পহ":11551,"বাদশাহ":11552,"উচছেদ":11553,"ঝগডা":11554,"সনাতন":11555,"অলিমপিক":11556,"ঘাম":11557,"##াসন":11558,"যখনই":11559,"টযাকস":11560,"হের":11561,"অয":11562,"নাছির":11563,"মানা":11564,"##ঞা":11565,"রপক":11566,"লৎফর":11567,"দেযায":11568,"বানাতে":11569,"কবল":11570,"তডি":11571,"মারকস":11572,"লেভেল":11573,"শরিক":11574,"ইযেম":11575,"বিচিতর":11576,"মাগ":11577,"##যেব":11578,"বযবসথাপনায":11579,"সও":11580,"##ংকরিয":11581,"বিদবে":11582,"মাহববর":11583,"ইনডিজ":11584,"কাগজে":11585,"##তাল":11586,"নরসিংদী":11587,"##াননদ":11588,"পরদীপ":11589,"খরিসটান":11590,"দবিগণ":11591,"জাতিকে":11592,"cl":11593,"আযার":11594,"##জজীবন":11595,"পরযোজক":11596,"রিসোর":11597,"ফিলিসতিনি":11598,"##বিতে":11599,"ভরামযমান":11600,"এসবের":11601,"হাননান":11602,"বেগমের":11603,"আমানত":11604,"##যাতরার":11605,"##যমের":11606,"জখম":11607,"বারতায":11608,"ডিএমপি":11609,"আতমার":11610,"পজার":11611,"##ানতে":11612,"পাতলা":11613,"বরী":11614,"jour":11615,"টরনামেনটে":11616,"জোরালো":11617,"অা":11618,"##মানে":11619,"এমএ":11620,"##20":11621,"মাগরা":11622,"##রিন":11623,"##ংযে":11624,"হাসানের":11625,"আগামীতে":11626,"##বাক":11627,"টল":11628,"##ধরা":11629,"ইনতে":11630,"মোরশেদ":11631,"##জনীন":11632,"অপরাধী":11633,"মেগাওযা":11634,"সমতল":11635,"পরশিকষণের":11636,"জঞানের":11637,"রাউজান":11638,"দেশী":11639,"নাগরিকতব":11640,"কেশ":11641,"30":11642,"বারসেলোনা":11643,"##কেন":11644,"এনএ":11645,"##াইতে":11646,"খোকামনি":11647,"ঘটনাকে":11648,"ছাতরীকে":11649,"দরদশা":11650,"##পড":11651,"বযকতিরা":11652,"পাচজন":11653,"উঠলো":11654,"সেকসি":11655,"##ঘাটে":11656,"পী":11657,"ফযান":11658,"পারসপরিক":11659,"নাইজের":11660,"হাযদরা":11661,"রপানতরিত":11662,"নিরমাণে":11663,"ডরে":11664,"সেনটরাল":11665,"তামিল":11666,"গলির":11667,"মধযপরাচ":11668,"বিলপত":11669,"নেমেছে":11670,"##news24":11671,"বাগানের":11672,"ঠাক":11673,"##ভাল":11674,"সবদেশ":11675,"শেরে":11676,"পরিতযকত":11677,"cit":11678,"টেবিলে":11679,"ধরিযে":11680,"##মনে":11681,"রোহিঙগারা":11682,"কোষা":11683,"পরশনপতর":11684,"তালাক":11685,"সিইসি":11686,"ইবাদত":11687,"গরিব":11688,"বাশার":11689,"আঙল":11690,"ভোক":11691,"৯টি":11692,"আসত":11693,"ভিস":11694,"পরতিদবনদবিতা":11695,"সবাদে":11696,"অণ":11697,"##পরন":11698,"কনটেনট":11699,"পরকাশন":11700,"এগার":11701,"ওযাজে":11702,"##োততর":11703,"কযাশ":11704,"মনিরজজামান":11705,"পরচারের":11706,"রোদ":11707,"বিকরেতা":11708,"ভাংচর":11709,"আগনের":11710,"টেলিভিশনের":11711,"দেখানোর":11712,"১১টি":11713,"বিএসএফ":11714,"জনপরতিনিধি":11715,"বিলাস":11716,"পাথরের":11717,"হোটেলের":11718,"কনটরোল":11719,"কাপে":11720,"চারদিকে":11721,"##du":11722,"পরণে":11723,"নিরবাচনকালীন":11724,"টরাকের":11725,"ইসরাইল":11726,"##মনড":11727,"এরপরই":11728,"মানবতার":11729,"চেযারমযানের":11730,"সপেনের":11731,"বালক":11732,"কতিপয":11733,"##বারগ":11734,"বারন":11735,"মালিকের":11736,"একাউনট":11737,"জরজ":11738,"গিযেছিলাম":11739,"kh":11740,"আংশ":11741,"জনসভায":11742,"মাইকেল":11743,"##ell":11744,"ফিক":11745,"এসএমএস":11746,"বিআরটি":11747,"সমাবেশের":11748,"সেমিফাই":11749,"আশার":11750,"ছিটকে":11751,"শরিফ":11752,"তরকি":11753,"পরতিদিনই":11754,"তাৎপরয":11755,"বেপরোযা":11756,"##ডোর":11757,"কিংবদনতি":11758,"দিব":11759,"##নীতিক":11760,"টইটার":11761,"দপতরের":11762,"সজা":11763,"একাধিকবার":11764,"নিঃসনদেহে":11765,"হির":11766,"পাডায":11767,"আফগানিসতান":11768,"হিসেবেও":11769,"##ext":11770,"পরাতিষঠানিক":11771,"অনপরের":11772,"এপ":11773,"ফাসি":11774,"সরবসতরের":11775,"আতাউর":11776,"মযাগাজিন":11777,"করাইম":11778,"বযবসাযীকে":11779,"টরাইবযনাল":11780,"পরচছ":11781,"##েননি":11782,"টিভির":11783,"১২টায":11784,"##কারয":11785,"##রিচ":11786,"একসচেঞজে":11787,"আশাবাদী":11788,"মজিদ":11789,"অসতরের":11790,"ইযাবাসহ":11791,"অনযরকম":11792,"মালিকদের":11793,"কযামেরার":11794,"##বলমবী":11795,"বিনোদ":11796,"বনদরে":11797,"বিপরযয":11798,"##জেট":11799,"বকতা":11800,"ছিনিযে":11801,"সঙগেও":11802,"খণড":11803,"বাতাসে":11804,"##per":11805,"তৈরিতে":11806,"##দরশক":11807,"##োসা":11808,"পিঠে":11809,"নরথ":11810,"রহঃ":11811,"জীবনকে":11812,"অবশিষট":11813,"কণঠে":11814,"দষণ":11815,"রকি":11816,"##াদের":11817,"বৈশবিক":11818,"ভবিষযত":11819,"গঠনে":11820,"আযকর":11821,"কেনো":11822,"সহকরমী":11823,"কলাসে":11824,"##ানতরের":11825,"সটেশনের":11826,"উললেখিত":11827,"সটরাই":11828,"মইনল":11829,"হারের":11830,"রাক":11831,"চযাডাঙগা":11832,"inter":11833,"উপকলীয":11834,"##তততব":11835,"পাইনি":11836,"মিরাজ":11837,"সাপেকষে":11838,"হারানোর":11839,"জতা":11840,"##ভান":11841,"##irl":11842,"এনা":11843,"কমেনট":11844,"সবযংকরিয":11845,"খলি":11846,"এজি":11847,"##াজী":11848,"সাঃ":11849,"##াইট":11850,"পেছনের":11851,"##মৈথন":11852,"ভারতকে":11853,"মানববনধনে":11854,"মখর":11855,"##লাব":11856,"##ংকের":11857,"দেওযায":11858,"দাযরা":11859,"পডাশ":11860,"সকরিন":11861,"ইনসযরেনস":11862,"ঘাটে":11863,"হযরানির":11864,"##ঘরই":11865,"কথাটি":11866,"একেএম":11867,"একাডেমিক":11868,"গোলর":11869,"media":11870,"এইচডি":11871,"##ানতির":11872,"##লাও":11873,"##কারীকে":11874,"কাঠাল":11875,"মাসম":11876,"এমনিতেই":11877,"আটককত":11878,"রিপোরটে":11879,"পলাসটিক":11880,"পাঠিযেছে":11881,"##২৫":11882,"ভাঙগ":11883,"সমযটা":11884,"বশ":11885,"কষযকষ":11886,"বিকাশের":11887,"এনটার":11888,"সজ":11889,"ছতর":11890,"##port":11891,"৮টার":11892,"রোকে":11893,"কেনাকা":11894,"ফেলেছেন":11895,"উসক":11896,"কথাবারতা":11897,"ফজলে":11898,"সেকটর":11899,"মোটেই":11900,"আফগানিসতানের":11901,"মেযেটির":11902,"##ank":11903,"নিরীহ":11904,"বরধিত":11905,"মাক":11906,"##টেম":11907,"##োগয":11908,"মহাসা":11909,"হাটা":11910,"সেমিফাইনালে":11911,"পাঠকের":11912,"পালনে":11913,"পোসটে":11914,"যাবজজীবন":11915,"##ence":11916,"পরতিভা":11917,"##বিযার":11918,"সমাজতানতরিক":11919,"এনবি":11920,"হতযাকাণড":11921,"##ওভার":11922,"রাজনীতিক":11923,"বিএসই":11924,"দেহে":11925,"বিশবস":11926,"জেএম":11927,"##পডা":11928,"মনতরিপরিষদ":11929,"ছাই":11930,"সেনসর":11931,"নোংরা":11932,"ছেলেরা":11933,"ঘণা":11934,"দীরঘদিনের":11935,"৯টায":11936,"সিটির":11937,"বিপদে":11938,"পনের":11939,"##গারের":11940,"রঙিন":11941,"গায":11942,"ফেনসিড":11943,"##দেশীয":11944,"জনগনের":11945,"##বদল":11946,"বাকস":11947,"ভারি":11948,"লেগ":11949,"ফযসাল":11950,"সযামসাং":11951,"journal":11952,"হাবী":11953,"পরতে":11954,"ভাইকে":11955,"ডেইলি":11956,"##বযবহার":11957,"##চছেদের":11958,"##সতক":11959,"সোম":11960,"##জিব":11961,"ফিফা":11962,"বদলি":11963,"মশফিকর":11964,"মাহমদর":11965,"শহিদ":11966,"বসতা":11967,"পরোগরামিং":11968,"লিযা":11969,"সপযানিশ":11970,"যনতরণা":11971,"##ens":11972,"অসীম":11973,"নিজেরাই":11974,"আরাফাত":11975,"দগধ":11976,"এসোসিযেশন":11977,"কষতিগরসথ":11978,"বিট":11979,"পারকে":11980,"##পান":11981,"একতর":11982,"টেকসটাইল":11983,"##চরা":11984,"লাগলাম":11985,"এরপ":11986,"সারকিট":11987,"##ীকরণ":11988,"ভেতরের":11989,"বাগানে":11990,"##কারস":11991,"##েনটাল":11992,"সামরথয":11993,"একাততরের":11994,"সংলাপের":11995,"পাওনা":11996,"শিশটির":11997,"সবজনদের":11998,"জিরো":11999,"পহেলা":12000,"শিকষারথীকে":12001,"পরতযেকের":12002,"##আউট":12003,"এরপরে":12004,"e0":12005,"বলবল":12006,"খনিজ":12007,"অভিবাসন":12008,"এলজি":12009,"ইমেইল":12010,"রকতাকত":12011,"বরিটেনের":12012,"##লযানডে":12013,"পরশংস":12014,"লোকসান":12015,"কাছের":12016,"বেদনা":12017,"জিততে":12018,"##মনের":12019,"##সথাযী":12020,"অলরা":12021,"চিকিত":12022,"##ডেনড":12023,"##ভাগের":12024,"সেলি":12025,"বিশরাম":12026,"##চো":12027,"শাশ":12028,"##lay":12029,"দমপ":12030,"##গপত":12031,"নিরযাতিত":12032,"ডেমোক":12033,"##তলায":12034,"বানধব":12035,"টিপস":12036,"করমকরতাকে":12037,"ফৌ":12038,"কেলে":12039,"অযাটরনি":12040,"দারিদরয":12041,"দিবসটি":12042,"তাগ":12043,"লেবর":12044,"খোজে":12045,"নিরাপতত":12046,"বীমা":12047,"জানালা":12048,"পরতারণা":12049,"শাজাহান":12050,"জননেতরী":12051,"##কমা":12052,"##বিগন":12053,"কোনোভাবেই":12054,"ভাষণে":12055,"রেসি":12056,"ঝাপিযে":12057,"লাইনের":12058,"আউযাল":12059,"জিডি":12060,"এএসআই":12061,"##াহার":12062,"##oti":12063,"##eer":12064,"সমরণে":12065,"শবদে":12066,"মাদরাসায":12067,"সাগরে":12068,"##গরের":12069,"নিরাপদে":12070,"হেলথ":12071,"রোধে":12072,"অধযযন":12073,"মযানেজিং":12074,"##কশন":12075,"সখের":12076,"করমশালা":12077,"##গতভাবে":12078,"##বপর":12079,"নিই":12080,"উততরাধিকার":12081,"বাডায":12082,"##ীযার":12083,"##টোরিযা":12084,"মনসি":12085,"##াপতি":12086,"নিরীকষা":12087,"সরেজমিনে":12088,"পরদেশে":12089,"পরসপর":12090,"বিদেশের":12091,"মতা":12092,"##bd":12093,"নাহ":12094,"ইমেজ":12095,"ঘাতক":12096,"ডাযের":12097,"বরজ":12098,"টইটারে":12099,"ধরষ":12100,"হিউমযান":12101,"নযাপল":12102,"পরিণতি":12103,"কষত":12104,"যতটক":12105,"##মোহন":12106,"মিলবে":12107,"হজম":12108,"অনিচছ":12109,"##চযযাল":12110,"বিদাযী":12111,"একতরিত":12112,"সমদরের":12113,"কারাগারের":12114,"আযোজক":12115,"খেলবে":12116,"দরশকের":12117,"হাইকোরটে":12118,"বসেছে":12119,"ফরনট":12120,"শযামল":12121,"##মোট":12122,"জনবল":12123,"কষতিপরণ":12124,"ফাসট":12125,"মিত":12126,"মেস":12127,"বিকত":12128,"অরথাযনে":12129,"মেরামত":12130,"বনযায":12131,"অনশন":12132,"১৯৯৯":12133,"##ধনিক":12134,"শযতান":12135,"##জিল":12136,"ভাবছেন":12137,"ইমিগর":12138,"যগান":12139,"##ফলের":12140,"গরাহকের":12141,"বনদরের":12142,"একাই":12143,"অধিবেশন":12144,"আকষট":12145,"ইংরেজিতে":12146,"পেনাল":12147,"সংবাদপতর":12148,"citiz":12149,"gov":12150,"গেমস":12151,"পেরেছেন":12152,"##াতো":12153,"##জারের":12154,"##লতা":12155,"##োসট":12156,"তদার":12157,"রকষণ":12158,"পাসওযারড":12159,"টিকেট":12160,"##ve":12161,"নবনির":12162,"গোডা":12163,"পরকাশে":12164,"##ath":12165,"par":12166,"##ানীর":12167,"যাতরীরা":12168,"##ডিযান":12169,"রিযাজ":12170,"##দারের":12171,"শরেণিতে":12172,"##ডম":12173,"সামাদ":12174,"বিচারপতির":12175,"৪রথ":12176,"ইনসটিটিউটের":12177,"আরট":12178,"খেলেছেন":12179,"তষার":12180,"দীরঘমেযা":12181,"বাদল":12182,"ইনটারনেটে":12183,"##হাস":12184,"উদবিগন":12185,"দেখবে":12186,"সেগলোর":12187,"তরক":12188,"##মেল":12189,"সশীল":12190,"ককসবাজারে":12191,"১৯৪৭":12192,"মাদারীপর":12193,"##df":12194,"সালেহ":12195,"সংশোধনী":12196,"##ঙকায":12197,"রেঞজ":12198,"দারশন":12199,"জাসট":12200,"পরতিহত":12201,"মমবই":12202,"সংসারে":12203,"মরাদ":12204,"ডকম":12205,"বোরডে":12206,"##ond":12207,"ভযংকর":12208,"আখযাযিত":12209,"অপসারণ":12210,"কটনীতিক":12211,"##ডান":12212,"##xx":12213,"সমকামী":12214,"##করমের":12215,"রাজপথে":12216,"গৌতম":12217,"মযনাতদনতের":12218,"##ঙকষিত":12219,"বানানোর":12220,"আসামিদের":12221,"২০২১":12222,"কলিনিক":12223,"##পিযান":12224,"চযানেলে":12225,"ফরা":12226,"অবমান":12227,"তততবাবধানে":12228,"##বাডিতে":12229,"##বাদীদের":12230,"বেলজিযাম":12231,"৮টা":12232,"গলপে":12233,"যাবৎ":12234,"##ততা":12235,"ধারালো":12236,"##হানি":12237,"সারভার":12238,"রেখা":12239,"##মহল":12240,"বসনত":12241,"##দদের":12242,"হাটে":12243,"নানাভাবে":12244,"আতমহতযার":12245,"bdnews24":12246,"আযর":12247,"সনদরবন":12248,"চাদের":12249,"মানষই":12250,"অনভ":12251,"দেখান":12252,"মাঝেই":12253,"নগরের":12254,"নিষপ":12255,"হাওর":12256,"অডি":12257,"##িলেন":12258,"শিমল":12259,"মাজার":12260,"বযাঙক":12261,"কমানো":12262,"খাযরল":12263,"ভিন":12264,"লামা":12265,"অনারস":12266,"কামার":12267,"##িরেই":12268,"##শিযারি":12269,"নস":12270,"সভানে":12271,"দরগাপ":12272,"পাশচাত":12273,"##ult":12274,"জামাই":12275,"21":12276,"মালদবী":12277,"কমতে":12278,"ফলযাট":12279,"বরাবরই":12280,"তলিযে":12281,"দকষিণা":12282,"৮টায":12283,"ওযাজেদ":12284,"মিনট":12285,"টম":12286,"মানবতাবিরোধী":12287,"অনযরা":12288,"চাপের":12289,"৪টায":12290,"পরবাসীদের":12291,"পরথমার":12292,"পরতযাহারের":12293,"##চির":12294,"সাংবাদিকরা":12295,"citizen":12296,"সযান":12297,"সমমত":12298,"৭০০":12299,"##gy":12300,"ঘণটায":12301,"খনন":12302,"তেলা":12303,"কাসটম":12304,"তাৎকষণিক":12305,"মাহমদল":12306,"সরবরাহকারী":12307,"অপপর":12308,"উপারজন":12309,"##সিস":12310,"খালা":12311,"এগো":12312,"ভিসি":12313,"##রন":12314,"ঈশবরের":12315,"গাড":12316,"ওযারক":12317,"দরবলতা":12318,"রোবট":12319,"##বললাহ":12320,"এটার":12321,"##কষেপের":12322,"কারযনির":12323,"দেশেই":12324,"সনাত":12325,"##সরগ":12326,"ধারাবাহিকতা":12327,"বরষণ":12328,"##সরাই":12329,"জঙগিদের":12330,"গরাহকরা":12331,"##িসন":12332,"পরবত":12333,"গরব":12334,"ডরি":12335,"তমল":12336,"রাখলে":12337,"শতাংশের":12338,"শোনার":12339,"যেনো":12340,"সাংবাদিকতা":12341,"জগৎ":12342,"##খবর":12343,"পৌছেছে":12344,"পরতিপাদ":12345,"##ানতরে":12346,"ধাত":12347,"করবার":12348,"##সকল":12349,"ফাকি":12350,"করস":12351,"##যানী":12352,"সটযাটাস":12353,"অনষদের":12354,"##ৈরা":12355,"দেশগলো":12356,"অসতরোপ":12357,"নিবেদ":12358,"ফেটে":12359,"নিষপততি":12360,"##ছান":12361,"আলোয":12362,"ডযা":12363,"সনতোষ":12364,"অবকাশ":12365,"শাহবাগ":12366,"সেকেন":12367,"##রোর":12368,"##দিল":12369,"ফরেনড":12370,"দধের":12371,"ভরমণের":12372,"কমপিউটারের":12373,"বললেনঃ":12374,"১৯৯৭":12375,"একযোগে":12376,"100":12377,"পরানো":12378,"জঙগী":12379,"সমরথকরা":12380,"মোবারক":12381,"ফেনসিডিল":12382,"পরধানত":12383,"হসতমৈথন":12384,"দোষী":12385,"ভাবি":12386,"খেলেন":12387,"##ফান":12388,"ভবিষযতের":12389,"সিইও":12390,"বাঙালী":12391,"লাইবরের":12392,"পেমেনট":12393,"ফলো":12394,"১৯৭০":12395,"মসতিষকের":12396,"হদযে":12397,"বিষাকত":12398,"সাজজাদ":12399,"##লিন":12400,"শাসনের":12401,"নেতরকোনা":12402,"তেলে":12403,"বিতরকের":12404,"কপালে":12405,"লিওনেল":12406,"মলধন":12407,"ডিভিডেনড":12408,"ফাট":12409,"ওইদিন":12410,"##২২":12411,"মককা":12412,"চোরা":12413,"নগরীতে":12414,"পকরে":12415,"অনযানযদের":12416,"অলরাউনডার":12417,"##৪০":12418,"বলিউডে":12419,"লাভবান":12420,"ইনডিজের":12421,"##লাইনের":12422,"কষেপণাসতর":12423,"মধর":12424,"সপট":12425,"সতরপাত":12426,"মাতার":12427,"##ণাবে":12428,"ইতযাদির":12429,"মধযবরতী":12430,"সেমিনারে":12431,"২০১৭ইং":12432,"আজহার":12433,"মনোর":12434,"করোযেশিযা":12435,"আযেশা":12436,"অপরিহার":12437,"সবৈরা":12438,"##ডক":12439,"কারযকরমে":12440,"তিনবার":12441,"মৌসমী":12442,"তরল":12443,"পডযা":12444,"বইযে":12445,"সংগঠক":12446,"##শকতির":12447,"##িসিআই":12448,"##ৈল":12449,"##মাকে":12450,"ছল":12451,"জলিল":12452,"রাখছে":12453,"পেশাগত":12454,"টমেটো":12455,"দলগলো":12456,"চিতরনায":12457,"জারনাল":12458,"খেলাধলা":12459,"দবীন":12460,"চালকের":12461,"বোনাস":12462,"org":12463,"আকসমিক":12464,"##সারে":12465,"##out":12466,"বাজেটের":12467,"##পরায":12468,"সাংবিধানিক":12469,"ভষিত":12470,"ফরিল":12471,"দতাবাসের":12472,"পরোটিন":12473,"সতরকতা":12474,"অযোগয":12475,"শাপ":12476,"আযতন":12477,"দাউদ":12478,"এলাম":12479,"মচ":12480,"বালা":12481,"লোকাল":12482,"আতমসমরপণ":12483,"সনীল":12484,"##pur":12485,"ফসলের":12486,"দবিধা":12487,"ডেলিভার":12488,"আজীবন":12489,"কীট":12490,"##েখা":12491,"উৎপাদনে":12492,"পরাপতি":12493,"বিআই":12494,"##বড":12495,"গরভব":12496,"##াহিদ":12497,"সেবন":12498,"ইযরক":12499,"কাউনটার":12500,"মজদ":12501,"ধরমঘট":12502,"চললিশ":12503,"সিগারেট":12504,"##পেকটর":12505,"পৌছাতে":12506,"##for":12507,"খারিজ":12508,"মশি":12509,"ইসলামীর":12510,"শিলপীর":12511,"খলতে":12512,"অভযনতরে":12513,"দিযেও":12514,"##শনয":12515,"comments":12516,"অরথনীতিতে":12517,"তৈর":12518,"গরাফিক":12519,"কাকে":12520,"সবারই":12521,"পযানট":12522,"##ীযা":12523,"পরদরশিত":12524,"আতমঘাতী":12525,"খসর":12526,"মরণ":12527,"ইতালির":12528,"##ফিলে":12529,"##পরিবহ":12530,"খিল":12531,"মানসিকতা":12532,"##ডনের":12533,"সাশর":12534,"##ঘাটা":12535,"সনামগঞজের":12536,"পরযাযকরমে":12537,"##ঙগাল":12538,"ফটোগ":12539,"##io":12540,"নিরণয":12541,"মরমে":12542,"ছরি":12543,"পাইকারি":12544,"মিছিলে":12545,"সংশয":12546,"##pr":12547,"কোযালি":12548,"মাতভাষা":12549,"বরাহমণবাডিযার":12550,"সিড":12551,"সবসতি":12552,"##ইডি":12553,"অবগত":12554,"cr":12555,"কমানড":12556,"নিখত":12557,"বনধে":12558,"উততেজিত":12559,"লাসট":12560,"কাচাম":12561,"মাধ":12562,"উপতয":12563,"মারতে":12564,"চাষা":12565,"তখনো":12566,"##উড":12567,"বরফ":12568,"মিউচযযাল":12569,"শিলপীদের":12570,"##চচার":12571,"গরযানড":12572,"অরজনে":12573,"কারযনিরবাহী":12574,"রসাযন":12575,"##াযতত":12576,"##চডা":12577,"সাতকষীর":12578,"কষটের":12579,"পরিষদে":12580,"দারশনিক":12581,"সাগরের":12582,"##ধানে":12583,"পরতযনত":12584,"পোদ":12585,"দরশনার":12586,"##জারি":12587,"পরকলপটি":12588,"বলগের":12589,"অকষর":12590,"করেডিট":12591,"সিনহা":12592,"টারমিনাল":12593,"লোড":12594,"সটোরে":12595,"উননতির":12596,"##সংস":12597,"ভিডিওতে":12598,"শদধ":12599,"নেদার":12600,"কনঠ":12601,"দিকেই":12602,"দেখেছে":12603,"রকষণাবে":12604,"অনষঠানটি":12605,"কেবলমাতর":12606,"রিম":12607,"আশঙক":12608,"খনড":12609,"দীপিকা":12610,"অগনিকা":12611,"hd":12612,"##মেই":12613,"গতির":12614,"##শাদের":12615,"পোশাকের":12616,"##ালট":12617,"এনএভি":12618,"##কষাধিক":12619,"নযাযয":12620,"ভাবন":12621,"কযারিযারের":12622,"ইতোমধযেই":12623,"তারিখের":12624,"নিশচযতা":12625,"ঘেষ":12626,"মমতাজ":12627,"পরথমত":12628,"পরেসিডেনটের":12629,"আধযা":12630,"চরবি":12631,"কানাই":12632,"কনভেন":12633,"সফলতার":12634,"পরেমিকা":12635,"অভিশ":12636,"ঝরে":12637,"কোরআ":12638,"নিষঠর":12639,"মোকাবেলায":12640,"উৎপততি":12641,"শিবগঞজ":12642,"ঘরণিঝড":12643,"টাক":12644,"হোযাটস":12645,"কযালিফোর":12646,"জযাম":12647,"##ালিশ":12648,"উপপরি":12649,"জীবাণ":12650,"সবামীকে":12651,"অযাপল":12652,"হাতিযে":12653,"নিউজিলযানড":12654,"ইকোন":12655,"উভযের":12656,"বাঙগালী":12657,"আঙগল":12658,"##তাপ":12659,"রঞজন":12660,"ইবরাহীম":12661,"পারলেও":12662,"##ঘল":12663,"নিযা":12664,"col":12665,"##শবে":12666,"তালিকার":12667,"অপহর":12668,"নওযাজ":12669,"ফটিযে":12670,"টানে":12671,"##খল":12672,"তথযমনতরী":12673,"পরণের":12674,"পারতাম":12675,"চেহার":12676,"ফাল":12677,"ইনটারনেটের":12678,"##বাচিত":12679,"জবাবদি":12680,"সাকষরতার":12681,"আনি":12682,"ঘটায":12683,"সেখানেও":12684,"২০টি":12685,"ভাঙগা":12686,"##বদধতা":12687,"আনডার":12688,"পিরোজপর":12689,"কারযত":12690,"শঙখ":12691,"চিকিৎসায":12692,"পরচলন":12693,"##yle":12694,"দীন":12695,"যবদল":12696,"অপরব":12697,"কবলে":12698,"আইনজীবীরা":12699,"উসমান":12700,"চকতিতে":12701,"সরবদা":12702,"##ff":12703,"শিকষায":12704,"pion":12705,"সংখযার":12706,"তস":12707,"রেসিপি":12708,"##শনাল":12709,"পরযোজনীযতা":12710,"করেতাদের":12711,"##াকালীন":12712,"বাঙাল":12713,"পরিশর":12714,"##ঘি":12715,"##গঠিত":12716,"জিতেছে":12717,"মেগাওযাট":12718,"##তিহীন":12719,"##িনিউ":12720,"দখলের":12721,"##হোক":12722,"##দসয":12723,"##ঝা":12724,"করআনের":12725,"pioneer":12726,"পাকিসতানী":12727,"সংকটে":12728,"##ফাক":12729,"##সংখযক":12730,"##চিযে":12731,"##ear":12732,"journalism":12733,"ছিনন":12734,"##sc":12735,"##ারী":12736,"জাহাননাম":12737,"##নাটয":12738,"my":12739,"বাডীর":12740,"la":12741,"মেট":12742,"এবারে":12743,"##েনসে":12744,"হাসতে":12745,"উননযনশীল":12746,"গতিশীল":12747,"যাচছিলেন":12748,"হশিযারি":12749,"কাহিনি":12750,"শীঘরই":12751,"ঘি":12752,"তবকে":12753,"অভিনব":12754,"নবজাত":12755,"এনার":12756,"##arg":12757,"তানভীর":12758,"লটপাট":12759,"যবরাজ":12760,"সাও":12761,"জাননাত":12762,"আবততি":12763,"খানে":12764,"থা":12765,"রদ":12766,"পিসতল":12767,"##ণি":12768,"সেরকম":12769,"এমডি":12770,"রিল":12771,"হাতির":12772,"##বিহার":12773,"##এনএস":12774,"মেটরিক":12775,"সিযাম":12776,"অযালবাম":12777,"##লান":12778,"পরতিশোধ":12779,"##খণড":12780,"##ember":12781,"ভাসকরয":12782,"মরমান":12783,"পঞচাশ":12784,"চাহিদার":12785,"##ৈক":12786,"চিকিৎসকদের":12787,"বদধা":12788,"শোষণ":12789,"পাসের":12790,"##গনধ":12791,"পরজ":12792,"ছিডে":12793,"আটকা":12794,"##গাত":12795,"যথারথ":12796,"ডিক":12797,"টোক":12798,"##সচিব":12799,"এনটি":12800,"##োনার":12801,"##জীবীদের":12802,"পরজনন":12803,"উপদেশ":12804,"##িয":12805,"পরযাস":12806,"##ধরম":12807,"সমমতি":12808,"ধমপান":12809,"ইনসটা":12810,"জং":12811,"পরকতপকষে":12812,"সংঘাত":12813,"গাল":12814,"##সনে":12815,"দেখিযেছেন":12816,"ইউরোপে":12817,"বিমানে":12818,"##িযেন":12819,"সনাকত":12820,"ডিপলো":12821,"##পরষ":12822,"চনদন":12823,"##ph":12824,"হবেনা":12825,"নমবরের":12826,"গারমেনটস":12827,"অপরিহারয":12828,"চেষটার":12829,"লেব":12830,"হিনদদের":12831,"উপনযাসের":12832,"ইসরাইলের":12833,"মাহফিলে":12834,"মধযবিতত":12835,"সকযার":12836,"ঘরিযে":12837,"বলো":12838,"##ংখলা":12839,"রোকেযা":12840,"নোমান":12841,"দিতেই":12842,"##কিক":12843,"থাই":12844,"মাফ":12845,"কামরজজামান":12846,"আমীন":12847,"নাগরিকের":12848,"রোক":12849,"মহলের":12850,"বাহাদর":12851,"পাছা":12852,"খানকে":12853,"সঙক":12854,"পরকাশয":12855,"##ঠাক":12856,"বিএ":12857,"ঘটা":12858,"সিরিযাল":12859,"সেচ":12860,"গরভবতী":12861,"অতযাধনিক":12862,"কোরবানি":12863,"বিশেষজঞদের":12864,"মাইকরোসফট":12865,"পদোননতি":12866,"##সায":12867,"বহিষকার":12868,"পিটি":12869,"বাযো":12870,"##ওযাব":12871,"তামাক":12872,"গরেফতারকত":12873,"##সাজ":12874,"মেগ":12875,"##ভারত":12876,"উতথান":12877,"অধিকাংশই":12878,"হানাদার":12879,"আইজি":12880,"পৌছায":12881,"সথানের":12882,"##ককে":12883,"##শরেষঠ":12884,"পরাপতির":12885,"দরবারে":12886,"pl":12887,"খোলার":12888,"জবাই":12889,"নিবিড":12890,"##খোলা":12891,"কতিতব":12892,"রিটার":12893,"উৎকষেপ":12894,"সালাউদদিন":12895,"ছরিকা":12896,"সংখযায":12897,"##যিং":12898,"রেজিসটরার":12899,"মরমানতিক":12900,"চেযেছিল":12901,"বষটিতে":12902,"পাবার":12903,"গণনা":12904,"##ওডা":12905,"ঘটেনি":12906,"অযাপস":12907,"##ডবলিউ":12908,"ষট":12909,"সঙকট":12910,"আংশিক":12911,"১৮৬":12912,"জঙগল":12913,"সৌময":12914,"গৌরী":12915,"অনযতর":12916,"অভিভাবকদের":12917,"গরীষম":12918,"##বনদরের":12919,"##ire":12920,"টেলিফোন":12921,"পরষকার":12922,"##খানেক":12923,"মটর":12924,"comp":12925,"dh":12926,"আলিযা":12927,"ইউজার":12928,"দিগন":12929,"থিযেটার":12930,"বোঝাতে":12931,"পরজঞাপন":12932,"শিষয":12933,"ঝক":12934,"##ীভত":12935,"মধযদিযে":12936,"অনিযমের":12937,"রাজী":12938,"পরিজন":12939,"মৌলভীবাজারের":12940,"মালযেশিযায":12941,"ভাগা":12942,"অভযসত":12943,"সটাইল":12944,"মখোপাধযায":12945,"শিবিরে":12946,"খরিষটা":12947,"চিংডি":12948,"অধিনায":12949,"সসং":12950,"কাও":12951,"##যামত":12952,"গোলডেন":12953,"দবীপের":12954,"খাতা":12955,"ওজনের":12956,"জানাজা":12957,"ইমরল":12958,"চাপিযে":12959,"##বনত":12960,"##ঙগেল":12961,"আনগত":12962,"উদযান":12963,"so":12964,"##পালা":12965,"পরোফ":12966,"খাম":12967,"##ild":12968,"বিলে":12969,"বাসতবাযিত":12970,"##ass":12971,"টেলিক":12972,"ধসে":12973,"রাশির":12974,"কাটতে":12975,"রংপরের":12976,"জগননাথপর":12977,"ভালকা":12978,"পলিশি":12979,"আরমভ":12980,"মারমা":12981,"দাওযাত":12982,"##দহ":12983,"মাসেই":12984,"শোধ":12985,"##ীতির":12986,"অমিতা":12987,"ষডযনতরের":12988,"মহসিন":12989,"শষক":12990,"##টিকযাল":12991,"রৌ":12992,"উঠা":12993,"ইমন":12994,"##বসথার":12995,"করানোর":12996,"কোনদিন":12997,"পরতযাশী":12998,"জেএসসি":12999,"হরিণ":13000,"এও":13001,"##ফেরা":13002,"উমর":13003,"বিশলেষ":13004,"নিরবিশেষে":13005,"সংসথাটি":13006,"বিশবজডে":13007,"সমপাদনা":13008,"নারস":13009,"আকরাম":13010,"বসেন":13011,"বটিশ":13012,"চীনে":13013,"লকষাধিক":13014,"চাকা":13015,"সনান":13016,"আসছি":13017,"##চীন":13018,"জযোতির":13019,"মাতরার":13020,"##ame":13021,"ডিমের":13022,"পেসট":13023,"বিষযবসত":13024,"rs":13025,"রটি":13026,"সসম":13027,"অবিশবাসয":13028,"লজজ":13029,"ভাবেন":13030,"গেলেই":13031,"মনতবযের":13032,"করমসচীর":13033,"হানা":13034,"ফেলবে":13035,"যথা":13036,"মাসটারস":13037,"বানধবী":13038,"রিং":13039,"বসবাসরত":13040,"ছাদে":13041,"পারতো":13042,"বানদা":13043,"নানার":13044,"##জমিন":13045,"##বেদনা":13046,"কনফারেনস":13047,"বারে":13048,"নানাবিধ":13049,"উসকানি":13050,"সটাডি":13051,"##রমে":13052,"##িরি":13053,"অভযত":13054,"##ফিকেশন":13055,"দনিযায":13056,"রেন":13057,"কমপিউটারে":13058,"সতম":13059,"বযানারে":13060,"##ফত":13061,"বইটির":13062,"কোতো":13063,"করতপকষকে":13064,"যাকাত":13065,"##দোর":13066,"রমি":13067,"বাদাম":13068,"free":13069,"ঘটাতে":13070,"##ics":13071,"পাউডার":13072,"চেযেছে":13073,"মেকসিকো":13074,"পপ":13075,"চকষ":13076,"গোলরকষক":13077,"আটকের":13078,"অধিদফতরের":13079,"উদযানে":13080,"বকততায":13081,"অবত":13082,"আজিম":13083,"##ীকষিত":13084,"পজিবাজার":13085,"রিচার":13086,"অফিসারের":13087,"তদনতকারী":13088,"গণসংযোগ":13089,"চেষটায":13090,"##জযী":13091,"পরতিষঠানকে":13092,"মণি":13093,"ser":13094,"সমরথনে":13095,"পতরের":13096,"ইনফরম":13097,"ওযাটার":13098,"পলেযার":13099,"কদ":13100,"##োলো":13101,"আমজাদ":13102,"বনাম":13103,"হসে":13104,"উদয":13105,"সিকিউরিটিজ":13106,"##দরশী":13107,"সকা":13108,"পেলেই":13109,"##quo":13110,"##পিটাল":13111,"সথাপতয":13112,"জবলে":13113,"হাতিযার":13114,"রাশে":13115,"##ঞজসয":13116,"ইংরেজী":13117,"ভাগের":13118,"সাদিক":13119,"##এসপি":13120,"হারাতে":13121,"হবিগঞজের":13122,"ঝলিযে":13123,"পারায":13124,"একতরে":13125,"রেমিট":13126,"শহীদদের":13127,"choti":13128,"চিনতে":13129,"পলক":13130,"চেতনার":13131,"পেকযা":13132,"##দাবাদ":13133,"##গরামের":13134,"বঙগবনধকে":13135,"##বাশ":13136,"কেদে":13137,"##day":13138,"বিবাহিত":13139,"big":13140,"পদম":13141,"##ound":13142,"পডায":13143,"যতদিন":13144,"ফিলড":13145,"জৈন":13146,"অযেল":13147,"কনসার":13148,"নিবনধিত":13149,"জবালিযে":13150,"সকোযা":13151,"এমনটি":13152,"পযারা":13153,"নাহার":13154,"ইনতেকাল":13155,"করতা":13156,"রোজার":13157,"আমলের":13158,"##এমই":13159,"পরানতিকের":13160,"কোচের":13161,"জনসম":13162,"রাজবাডী":13163,"অনিরীকষিত":13164,"##তাততবিক":13165,"খরচে":13166,"ধম":13167,"ডিসেমবরের":13168,"টেকনিকযাল":13169,"চেতনায":13170,"সনন":13171,"মহানগরীর":13172,"সোসাইটির":13173,"পষঠপোষ":13174,"নীত":13175,"বাহিনীকে":13176,"দেবো":13177,"উপরোকত":13178,"সোবহ":13179,"দফতরের":13180,"লালমনিরহাট":13181,"##িকেশন":13182,"অভিজাত":13183,"no":13184,"খাদে":13185,"##াহিত":13186,"পলাট":13187,"সংগরামে":13188,"##৫টি":13189,"pol":13190,"অবসথানরত":13191,"##চেসটার":13192,"কোম":13193,"পরিচর":13194,"নেযনি":13195,"সংশলিষটদের":13196,"সৌরভ":13197,"em":13198,"আধযাতম":13199,"##টিম":13200,"শাকিল":13201,"বাউ":13202,"##চছনন":13203,"বিসফোরক":13204,"পরিনসি":13205,"##তনী":13206,"মারকেটের":13207,"সাততার":13208,"ইলেকটরনিকস":13209,"খোল":13210,"##থানের":13211,"নত":13212,"ফোক":13213,"##নকে":13214,"##ডেসক":13215,"শতক":13216,"নিরভরযোগয":13217,"করতেও":13218,"এরশাদের":13219,"করমেই":13220,"ককরের":13221,"ভৈর":13222,"আরোহী":13223,"গাযক":13224,"সমাজকে":13225,"জোযার":13226,"##োযারা":13227,"দষটিভঙগি":13228,"বিভরানত":13229,"১৮৭":13230,"টিউন":13231,"এটিএম":13232,"জানযারির":13233,"বযবহারকারীর":13234,"উততেজন":13235,"খালাস":13236,"এতটা":13237,"নযাদিল":13238,"##gle":13239,"ফরোযার":13240,"##po":13241,"##াতি":13242,"ঘাটি":13243,"অভিবাসী":13244,"জযলাভ":13245,"পেটরো":13246,"আপনিও":13247,"##খানায":13248,"ভিডিওটি":13249,"দিদি":13250,"তোল":13251,"নামটি":13252,"তখনকার":13253,"চোট":13254,"দরবতত":13255,"সামনেই":13256,"##াপি":13257,"ধরেছেন":13258,"অরপণ":13259,"দিলেই":13260,"রিকসা":13261,"কাণড":13262,"বারী":13263,"hot":13264,"উপকত":13265,"খলনায":13266,"##সালাম":13267,"##যনতর":13268,"হেলিকপটার":13269,"চৌধরীকে":13270,"ওবামা":13271,"মাপ":13272,"পিচ":13273,"১৫টি":13274,"আকাঙ":13275,"##মারক":13276,"উতপাদন":13277,"৬টা":13278,"সহান":13279,"##হহ":13280,"##ষি":13281,"দিলীপ":13282,"জযাক":13283,"ফিতর":13284,"মানবস":13285,"##শীয":13286,"লেখাটি":13287,"##ভীন":13288,"##কটরে":13289,"লিখেছিলেন":13290,"উঠিযে":13291,"পরতিফলন":13292,"যেতেই":13293,"বিচারিক":13294,"আবহা":13295,"নেব":13296,"আরমি":13297,"দাডি":13298,"##কাপ":13299,"বৈশাখী":13300,"মাংসের":13301,"##শতা":13302,"একাকী":13303,"ইজি":13304,"নিষপাপ":13305,"do":13306,"সযোগে":13307,"রবিন":13308,"##obs":13309,"##বিদের":13310,"ইননা":13311,"ফযাক":13312,"মশকিল":13313,"টিমের":13314,"বোরো":13315,"বাধার":13316,"জানাজ":13317,"জাতিগত":13318,"করমকষেতরে":13319,"মশার":13320,"##চাদ":13321,"বরন":13322,"ফিটনেস":13323,"কারটন":13324,"শরীমঙগল":13325,"জোড":13326,"উইকিপি":13327,"##জজনক":13328,"চালর":13329,"বিবরত":13330,"কমলগঞজ":13331,"মজল":13332,"##ছডির":13333,"বরকত":13334,"##ছন":13335,"মনজর":13336,"##ফেযার":13337,"পরতিটা":13338,"অটোরিকশা":13339,"ঢাল":13340,"বরণের":13341,"##ফাজজল":13342,"##দধারা":13343,"ননদী":13344,"নজরদারি":13345,"##ase":13346,"শিকদার":13347,"গলার":13348,"পরচেষটায":13349,"শাযে":13350,"##ঙখিত":13351,"বানি":13352,"৭টায":13353,"এবছর":13354,"উততরের":13355,"বঝা":13356,"জাদঘর":13357,"বলেনঃ":13358,"সটিভ":13359,"পারলেন":13360,"যথাস":13361,"বযাহত":13362,"জাসদ":13363,"আলতা":13364,"ডঃ":13365,"##িসতান":13366,"##ogr":13367,"অবতীরণ":13368,"সৌভাগয":13369,"মানষেরা":13370,"টস":13371,"দেখিনি":13372,"ঐশবর":13373,"বিসর":13374,"হলি":13375,"বহিরা":13376,"সামরাজযের":13377,"ইউজ":13378,"মালিকানাধীন":13379,"পৈ":13380,"ইরাক":13381,"অংশগরহণে":13382,"ডাকাতির":13383,"sub":13384,"বোঝাই":13385,"পোশাকে":13386,"এইভাবে":13387,"সবীকারো":13388,"নিপীডন":13389,"ভঙগি":13390,"পরশানত":13391,"আবহাওযার":13392,"পরানতিকে":13393,"ইহা":13394,"ভোটগরহণ":13395,"সবজনরা":13396,"তবেই":13397,"১৯৮০":13398,"সারাদেশের":13399,"রমজানের":13400,"##বিশিষট":13401,"জডিতদের":13402,"অনগরহ":13403,"ফাডির":13404,"পরতিপাদয":13405,"বাচিযে":13406,"সরববহ":13407,"বিরপ":13408,"হসেইন":13409,"যগন":13410,"বেআই":13411,"##ঠির":13412,"করাটা":13413,"পডলো":13414,"অনপরাণ":13415,"নেতবনদের":13416,"##ঘাতের":13417,"তপন":13418,"থের":13419,"23":13420,"বাসভবনে":13421,"জযনল":13422,"অশর":13423,"আলিম":13424,"##টরাক":13425,"আননদিত":13426,"নিযনতরণের":13427,"রানার":13428,"22":13429,"শিম":13430,"বলাড":13431,"বযরথতা":13432,"অসত":13433,"অনতঃ":13434,"পকেট":13435,"সটযা":13436,"ওযেবসাইটের":13437,"মাহমদউললাহ":13438,"মরতজা":13439,"জিমমি":13440,"রমা":13441,"আশংকা":13442,"হতযায":13443,"জনসংযোগ":13444,"নওগার":13445,"উরদ":13446,"##ানবিত":13447,"##টেট":13448,"মারার":13449,"পাঠকদের":13450,"##জীবনে":13451,"এলাকাবাসীর":13452,"দকষিন":13453,"উৎসরগ":13454,"লাইক":13455,"পরগতিশীল":13456,"ডিপারট":13457,"আসামির":13458,"খোজা":13459,"নিহতরা":13460,"##জাই":13461,"রেখেছিলেন":13462,"তাআলা":13463,"ফৌজ":13464,"রাণী":13465,"জালা":13466,"ass":13467,"বদি":13468,"হযেছে৷":13469,"অনষটিত":13470,"ইউনিটে":13471,"##uk":13472,"উৎপনন":13473,"উতথাপন":13474,"শেখার":13475,"মহানবী":13476,"মাননা":13477,"খাশ":13478,"জীবনী":13479,"তিনদিন":13480,"আবাদ":13481,"শলোগান":13482,"কোনোদিন":13483,"পযারিস":13484,"আতিক":13485,"##োজাহ":13486,"##ঝিল":13487,"that":13488,"##ভমিতে":13489,"##book":13490,"তাতেই":13491,"রাজতব":13492,"খড":13493,"অভিমত":13494,"দঃখের":13495,"দেখলেন":13496,"##তেখার":13497,"আগা":13498,"##iss":13499,"##lam":13500,"বোঝায":13501,"বলেছিলাম":13502,"মহলে":13503,"সবকিছই":13504,"pdf":13505,"গাং":13506,"ফসফ":13507,"সারকেল":13508,"বানিযা":13509,"জযপরহাট":13510,"আদেশের":13511,"মেডিস":13512,"নাথ":13513,"দামি":13514,"বিসমযকর":13515,"দপতরে":13516,"১৯৯২":13517,"পযাকেট":13518,"জনসভা":13519,"বিপজজনক":13520,"আতমস":13521,"উদযোগের":13522,"নাশকতার":13523,"চিনতিত":13524,"অদশয":13525,"ডযান":13526,"রিভি":13527,"বরিফি":13528,"সেটাকে":13529,"##তমক":13530,"বমি":13531,"৫ম":13532,"মসলমানের":13533,"বংশোদ":13534,"এসিড":13535,"টিউট":13536,"দাডানো":13537,"খানম":13538,"গগলের":13539,"বাসিনদ":13540,"##হিদল":13541,"গরবিত":13542,"ঘটেছিল":13543,"##ীরথ":13544,"এখনকার":13545,"##মাতরার":13546,"লরড":13547,"বৈচিতরয":13548,"সরবমোট":13549,"লৌ":13550,"##চালিত":13551,"পযাকেজ":13552,"##ধনয":13553,"বযকতিবরগ":13554,"সিমেনট":13555,"ভেজা":13556,"নবয":13557,"##চরের":13558,"আকরমণে":13559,"তরিশ":13560,"##দানী":13561,"মদন":13562,"হকম":13563,"আফজাল":13564,"##ামতের":13565,"গরমে":13566,"শীরষসথানীয":13567,"ইপি":13568,"ডবলিউ":13569,"দঃখজনক":13570,"মনতরিসভার":13571,"##জজাম":13572,"বানান":13573,"সভানেতরী":13574,"আইপিও":13575,"আতি":13576,"অযার":13577,"এজাহ":13578,"ফাতেমা":13579,"সভযতা":13580,"ভোটা":13581,"বাজি":13582,"পারেনা":13583,"হজজ":13584,"ডিআইজি":13585,"05":13586,"শিলপে":13587,"বিকরম":13588,"তলার":13589,"ছোটবেলা":13590,"তিসতা":13591,"বাসসট":13592,"অনযথায":13593,"মৌসমের":13594,"a6":13595,"##কিতে":13596,"বহমখী":13597,"চাইবে":13598,"sheers":13599,"রল":13600,"##নিউজবিডি":13601,"মাহা":13602,"##অযাপ":13603,"##দেহের":13604,"লোহার":13605,"এপি":13606,"ততই":13607,"সোপরদ":13608,"##ational":13609,"অজান":13610,"বযরথতার":13611,"পণডিত":13612,"সালমা":13613,"খালিদ":13614,"টেবিলের":13615,"থার":13616,"আওতাধীন":13617,"##রাব":13618,"চশ":13619,"উডোজাহ":13620,"সিগন":13621,"বিষযটিকে":13622,"সনদেহে":13623,"কনসাল":13624,"গাম":13625,"ছটিতে":13626,"ছনদ":13627,"অমানয":13628,"আমলা":13629,"নিবার":13630,"port":13631,"##বিএন":13632,"##ern":13633,"মিট":13634,"##চরে":13635,"##পরারথী":13636,"ফিলিসতিন":13637,"আগসটের":13638,"সহাযতার":13639,"যতো":13640,"উপাস":13641,"ধরমান":13642,"নেক":13643,"##করতা":13644,"করমীর":13645,"##ডানো":13646,"পরতিসথা":13647,"বিতরন":13648,"##বনগর":13649,"উজ":13650,"পাও":13651,"ঠিকঠাক":13652,"times":13653,"অরগান":13654,"সীত":13655,"কোসট":13656,"পরদার":13657,"সমতা":13658,"অকটোবরে":13659,"বাশের":13660,"সটযানডার":13661,"##ঘো":13662,"পৌছানোর":13663,"আবাসন":13664,"we":13665,"জাযগার":13666,"sheersha":13667,"কারবার":13668,"লাশের":13669,"কষধা":13670,"কইন":13671,"নভেমবরে":13672,"##ধীর":13673,"পতিত":13674,"টরান":13675,"ভাষয":13676,"গোপনীয":13677,"অংশগরহন":13678,"জমান":13679,"মসতিষক":13680,"video":13681,"বরযাক":13682,"##াতির":13683,"##গঠন":13684,"##ich":13685,"সংগী":13686,"ইসলামে":13687,"বকেযা":13688,"ফোটা":13689,"ছাতররা":13690,"##ামমদের":13691,"##োম":13692,"বিপাকে":13693,"জমম":13694,"##৪১":13695,"অগরণী":13696,"ফিরেছেন":13697,"কালার":13698,"সবাভাবিকভাবেই":13699,"মখার":13700,"মণডল":13701,"000":13702,"ইযে":13703,"##ডারের":13704,"পরোকষ":13705,"ঝলনত":13706,"পারভীন":13707,"সহিংসতার":13708,"কাঞচ":13709,"##জনযে":13710,"বেযে":13711,"বংশোদভত":13712,"আঠ":13713,"কাযে":13714,"কিবর":13715,"##হানির":13716,"##বাণী":13717,"বিপনন":13718,"সনাতকো":13719,"ভাজা":13720,"##লভ":13721,"জানতেন":13722,"অনৈতিক":13723,"এরদ":13724,"টেকনাফের":13725,"গলোতে":13726,"অনপরাণিত":13727,"##বিকে":13728,"##হোলডার":13729,"সভাষ":13730,"আরেকজন":13731,"সমবেদনা":13732,"অতিবাহিত":13733,"পাউনড":13734,"আধিকার":13735,"কেমিক":13736,"চেননাই":13737,"##বেত":13738,"##মদাদল":13739,"শরটা":13740,"দরবার":13741,"মযাসে":13742,"তিল":13743,"মোজা":13744,"##কাই":13745,"ডিএসইতে":13746,"আচরণের":13747,"সচল":13748,"##করণে":13749,"অনপসথিত":13750,"##ts":13751,"আসবাব":13752,"ফেডারেল":13753,"##ube":13754,"আশঙকাজনক":13755,"ফাদে":13756,"হাসানল":13757,"রোমানটিক":13758,"দামের":13759,"বখ":13760,"##সিদধ":13761,"লিখন":13762,"শঙকা":13763,"##হিক":13764,"ওম":13765,"##গলোয":13766,"##ীগঞজে":13767,"শাওন":13768,"##ign":13769,"পরিল":13770,"আইনজী":13771,"সাবযসত":13772,"লিপ":13773,"রেটিং":13774,"বাণিজযমনতরী":13775,"দাডানোর":13776,"##able":13777,"বেরো":13778,"বসনধরা":13779,"সমবলিত":13780,"মিলেছে":13781,"পজোর":13782,"##ণীর":13783,"মনতরনাল":13784,"ভাঙন":13785,"##te":13786,"এমনকী":13787,"দকষতার":13788,"কারাদনড":13789,"##ml":13790,"আং":13791,"খচরা":13792,"তরঙগ":13793,"সসবাদ":13794,"জনপরশাসন":13795,"মোকাবিলা":13796,"মনিটরি":13797,"##ংসার":13798,"সাহাযযের":13799,"ভাসমান":13800,"##কেশী":13801,"সহকারে":13802,"বিরতি":13803,"জামিনের":13804,"##যি":13805,"ফটবলে":13806,"পযাক":13807,"হংক":13808,"##পণয":13809,"যকতফর":13810,"থামিযে":13811,"অনসারী":13812,"পরতযয":13813,"##ংকে":13814,"##ধারে":13815,"বসেই":13816,"অধিকতর":13817,"সেলাই":13818,"ইইউ":13819,"আসায":13820,"হিলার":13821,"সৌজনয":13822,"বদধিম":13823,"তহিন":13824,"##পরবাহ":13825,"আতমপরকাশ":13826,"১৯৯৪":13827,"কযানটন":13828,"নাফ":13829,"##ইড":13830,"##িরের":13831,"দইটা":13832,"বতত":13833,"সেবায":13834,"পাঠিযেছেন":13835,"রিপাবল":13836,"লিফ":13837,"জেরজা":13838,"পারফরমযানস":13839,"mod":13840,"রথ":13841,"সেও":13842,"সিরিযায":13843,"নববরষ":13844,"থাকল":13845,"##যাতরায":13846,"##ীশ":13847,"##িলিযান":13848,"ফরমে":13849,"নোটি":13850,"সোচচার":13851,"রাননার":13852,"ইনদর":13853,"এজেনসি":13854,"আইনমনতরী":13855,"জবালা":13856,"ঘোরা":13857,"খাশোগ":13858,"পরাণে":13859,"রেলপথ":13860,"paper":13861,"লাযন":13862,"বলাই":13863,"সিপ":13864,"ডিপলোমা":13865,"সদের":13866,"রেহাই":13867,"পতনের":13868,"dr":13869,"##আইপি":13870,"পরতন":13871,"পোকা":13872,"পরতীকে":13873,"আবশযক":13874,"ভেজাল":13875,"দবীপে":13876,"টেকসাস":13877,"সিনডিকেট":13878,"পরসতাবে":13879,"নিবেন":13880,"মরগির":13881,"গরনথা":13882,"ছিটিযে":13883,"##যাতের":13884,"ভারসন":13885,"ইউরোপিযান":13886,"##টটা":13887,"পোরটাল":13888,"দিললিতে":13889,"টির":13890,"পলল":13891,"করেতারা":13892,"##মালার":13893,"##বসহ":13894,"টেলিভিশনে":13895,"##ডারস":13896,"পরতিনিধিদের":13897,"ভটান":13898,"সতযিকারের":13899,"শাই":13900,"আইপিএ":13901,"১৪টি":13902,"গফর":13903,"দেবীর":13904,"আতমা":13905,"পরেসি":13906,"বরাউজার":13907,"জানতাম":13908,"সটডেনট":13909,"ধব":13910,"##জেম":13911,"মনতরিসভা":13912,"লিযাকত":13913,"বরগনা":13914,"##sp":13915,"গণগত":13916,"সীতাক":13917,"কদদস":13918,"##নাহার":13919,"ফোনটি":13920,"কিল":13921,"##নাগ":13922,"##বেলার":13923,"সটডিও":13924,"ইযাসমিন":13925,"সনের":13926,"কিমি":13927,"কালীগঞজ":13928,"জামাতের":13929,"বযবসাযীর":13930,"মহাবিশ":13931,"আধযাতমিক":13932,"নিঃশবাস":13933,"ওষধের":13934,"যদধাপরাধীদের":13935,"বোকা":13936,"পরতযকষদরশীরা":13937,"উদভ":13938,"পডলেন":13939,"মারে":13940,"কাপডের":13941,"পাকিসতানকে":13942,"গরিক":13943,"জীবনত":13944,"কযাচ":13945,"হসাইন":13946,"গটিযে":13947,"ডেমোকরে":13948,"সবচ":13949,"সহি":13950,"সবসমযই":13951,"বাসিনদারা":13952,"পরোফাইল":13953,"লাগার":13954,"রযটারস":13955,"রখে":13956,"সিনেমাটি":13957,"##ال":13958,"শিকষান":13959,"##জগ":13960,"##সেলর":13961,"বললেও":13962,"হবেই":13963,"##াতেন":13964,"জনগন":13965,"##দনড":13966,"১৯৮৬":13967,"কনসটেবল":13968,"##হাক":13969,"##োরা":13970,"কষটিযার":13971,"##েশনাল":13972,"##শালে":13973,"তিরমি":13974,"মশিউর":13975,"##বাবর":13976,"##োভে":13977,"দরা":13978,"দিদার":13979,"ঠাই":13980,"acc":13981,"ইনজরি":13982,"বাউল":13983,"রোমা":13984,"##জড":13985,"ডিজাই":13986,"##ঞছিত":13987,"কোনটা":13988,"##হাটি":13989,"দামপতয":13990,"সনায":13991,"নরে":13992,"এইটা":13993,"সদরে":13994,"জনসাধারণের":13995,"মারচে":13996,"##টিকস":13997,"জিনি":13998,"তাজা":13999,"##ামাটির":14000,"##োরি":14001,"কেনদ":14002,"৪টা":14003,"দলই":14004,"পডলাম":14005,"কালিযা":14006,"মোগ":14007,"কোমর":14008,"শৈলী":14009,"মিনারে":14010,"অনমোদনের":14011,"##২টি":14012,"বিলীন":14013,"এযারলাইনসের":14014,"সরববহৎ":14015,"##wor":14016,"##af":14017,"গছ":14018,"থাকছেন":14019,"অগনিসং":14020,"##ওসি":14021,"##বিআই":14022,"পরসপরের":14023,"জানালে":14024,"জিজঞাসাবাদের":14025,"##ফাইন":14026,"পরাযশ":14027,"লোকটি":14028,"উততরপর":14029,"পারাপ":14030,"মেটাতে":14031,"ডেল":14032,"ফানডের":14033,"দাতের":14034,"তাযালা":14035,"ফলবাডী":14036,"চযারি":14037,"পনরবাসন":14038,"din":14039,"লডাইযের":14040,"ডরাইভ":14041,"মশা":14042,"পরামা":14043,"১৯৯৫":14044,"মডি":14045,"পরাণীর":14046,"সিসটেমের":14047,"##ীগলো":14048,"অফিসিযাল":14049,"ছাতরের":14050,"##গাল":14051,"ভিজে":14052,"ভরাট":14053,"রিটারনিং":14054,"সেভ":14055,"রওশন":14056,"পরজাতি":14057,"সেকটরে":14058,"সবীকারোকতি":14059,"ভিশন":14060,"##বব":14061,"নাড":14062,"সনদেহভাজন":14063,"অবযাহতি":14064,"রাউনডে":14065,"মরশি":14066,"শিকষাবিদ":14067,"মোসাদ":14068,"ডকটর":14069,"জনমে":14070,"কাশি":14071,"সথপতি":14072,"তরন":14073,"##গাম":14074,"শরীপর":14075,"টকরা":14076,"রজন":14077,"অযাসোসিযেশনের":14078,"বিলের":14079,"ইসপাত":14080,"সমভাবনাময":14081,"##িসমপদ":14082,"##লেটের":14083,"চৌদদ":14084,"এনডি":14085,"সমারকলিপি":14086,"##ওযানা":14087,"বরযানডের":14088,"অবতরণ":14089,"করিকেটারদের":14090,"পরসেস":14091,"অমিতাভ":14092,"লব":14093,"রকতকষ":14094,"বৈধতা":14095,"পেটরোল":14096,"মোযাজ":14097,"লেবান":14098,"১৯৭৩":14099,"জলপাই":14100,"নামেই":14101,"আইপিএল":14102,"চকরানত":14103,"মোবাইলের":14104,"কোমপানীর":14105,"অনিবার":14106,"তাৎকষণিকভাবে":14107,"তামা":14108,"ওভারের":14109,"##তই":14110,"##বেসে":14111,"##হাল":14112,"##াযারের":14113,"অবসরপরাপত":14114,"ঠাকরের":14115,"ইনফরমেশন":14116,"##১০":14117,"পারকের":14118,"##োলজ":14119,"##টরির":14120,"##আইসি":14121,"বযাটিংযে":14122,"সবরত":14123,"চরচার":14124,"শরীযতপর":14125,"গণমাধযমকে":14126,"বলিযা":14127,"বেপার":14128,"মারিযা":14129,"শিশটি":14130,"আফরিকান":14131,"ne":14132,"ধরেছে":14133,"বিউটি":14134,"##কারড":14135,"বযাবস":14136,"পরবাভাস":14137,"এসপি":14138,"শতকে":14139,"নেদারলযানড":14140,"##ভারড":14141,"পরগ":14142,"চতবর":14143,"বচচ":14144,"সবপনে":14145,"id":14146,"সেনটি":14147,"নাঈম":14148,"বশির":14149,"##দবার":14150,"অঙগনে":14151,"মসলমানরা":14152,"google":14153,"খাচছে":14154,"পিঠা":14155,"যগানতর":14156,"##হতের":14157,"##ভল":14158,"সরবোপরি":14159,"face":14160,"অকার":14161,"রউ":14162,"##মাতরায":14163,"অচেনা":14164,"একার":14165,"দাডাবে":14166,"##াপে":14167,"অকসিজেন":14168,"সরবরাহের":14169,"দেও":14170,"মননা":14171,"মাধবপর":14172,"জনগোষঠী":14173,"##চারাল":14174,"সনধানে":14175,"ফরিলযান":14176,"চনার":14177,"চাপায":14178,"পরাঙগনে":14179,"টেনিস":14180,"##নশীল":14181,"জীবনযাপন":14182,"উপমহাদেশের":14183,"বাহিরে":14184,"১৮৫":14185,"সমাপতি":14186,"অবলমব":14187,"আকতির":14188,"জিযাউল":14189,"মরগি":14190,"##কটের":14191,"করমচারীরা":14192,"গানটির":14193,"##মানয":14194,"সমযস":14195,"হবে৷":14196,"ইনডে":14197,"##গনে":14198,"মোশারফ":14199,"উপাধি":14200,"##োজেন":14201,"জমার":14202,"কাফ":14203,"সামি":14204,"বখা":14205,"জানযারিতে":14206,"##যাৎ":14207,"##শিবির":14208,"সবেচছায":14209,"পডেছি":14210,"সংরকষণের":14211,"পাচারের":14212,"করমীকে":14213,"##ubl":14214,"মঙগ":14215,"সনাতকোততর":14216,"পরসকারের":14217,"জবানবনদি":14218,"বিজিবির":14219,"2015":14220,"পেনালটি":14221,"সটাই":14222,"আডাল":14223,"ভাবমরতি":14224,"দমপতির":14225,"##রোধ":14226,"শোকের":14227,"অপরাধীদের":14228,"মরিযা":14229,"##হীত":14230,"ওদিকে":14231,"##যতে":14232,"##ভিনিউ":14233,"কাগজের":14234,"আনহ":14235,"সনদরবনের":14236,"আইডিযা":14237,"করততব":14238,"করমশালায":14239,"সবজের":14240,"দরজার":14241,"সফলভাবে":14242,"জঘ":14243,"জনৈক":14244,"পঞচগড":14245,"লীগে":14246,"কাজও":14247,"পলেট":14248,"গরনথের":14249,"রেসটরেনট":14250,"অগনিসংযোগ":14251,"টযর":14252,"##দিত":14253,"গিল":14254,"আসসালাম":14255,"অনভত":14256,"আনেন":14257,"##ানতম":14258,"পরারথীকে":14259,"পরতারণার":14260,"ধবংসের":14261,"নিযমে":14262,"##বসতর":14263,"কারতিক":14264,"নিবে":14265,"লেখালেখি":14266,"পলযাটফরম":14267,"আহাদ":14268,"##হাটে":14269,"##চং":14270,"সিএম":14271,"পরচছদ":14272,"##18":14273,"অধিকারের":14274,"বিসফোরণের":14275,"পরিচালকের":14276,"৫টা":14277,"##পনার":14278,"মেঝে":14279,"ফরোযারড":14280,"বিশালা":14281,"পতল":14282,"হাটহাজার":14283,"রাঙগামাটি":14284,"দাসের":14285,"লাগানোর":14286,"পৌছতে":14287,"জরিপে":14288,"৩টার":14289,"ইনসপেকটর":14290,"##োসে":14291,"সোবহান":14292,"ঐতিহযের":14293,"ইনটেল":14294,"লোকসভা":14295,"পরিচযপতর":14296,"বযাকটেরিযা":14297,"des":14298,"##গাওযে":14299,"আশেপাশের":14300,"গরেড":14301,"উঠেছেন":14302,"##গণিত":14303,"সংজঞা":14304,"রোহিত":14305,"চিতরা":14306,"নামবে":14307,"##যাললাহ":14308,"##ভীরে":14309,"রাজশাহীতে":14310,"গঙগা":14311,"পাতরে":14312,"বিডাল":14313,"##ঙগালর":14314,"মাহববল":14315,"জঙগিরা":14316,"##ামোর":14317,"বঙগোপসাগর":14318,"এদিক":14319,"##ভমির":14320,"##যোজনীয":14321,"আতমবিশবাস":14322,"অধযষিত":14323,"সমারটফোনের":14324,"বিশবসত":14325,"শাসনাম":14326,"পরিসরে":14327,"ইফতেখার":14328,"কালা":14329,"জানাচছেন":14330,"শিশটিকে":14331,"ঠিকমতো":14332,"আদেশে":14333,"বেসিক":14334,"##শাসনের":14335,"ডিন":14336,"কাছেও":14337,"##বরতিত":14338,"করাও":14339,"দইবার":14340,"গাডিটি":14341,"##রিতে":14342,"আদান":14343,"##শচি":14344,"নৈর":14345,"১৩টি":14346,"কিতাব":14347,"দবিতীযার":14348,"জলপনা":14349,"হাব":14350,"##বধর":14351,"পারার":14352,"তাদেরই":14353,"can":14354,"ঘাস":14355,"dick":14356,"সাইক":14357,"বিদযত":14358,"বিধায":14359,"চাইনি":14360,"book":14361,"##পায":14362,"অসামানয":14363,"ইয":14364,"চাযনা":14365,"ভদরলোক":14366,"অংশগরহণকারী":14367,"তাহির":14368,"সহপাঠ":14369,"পডেনি":14370,"বিরোধের":14371,"দরভাগয":14372,"কাজগলো":14373,"কারডের":14374,"মসতাফিজ":14375,"গাঢ":14376,"সাদেক":14377,"তারে":14378,"এসোসিযেশনের":14379,"বিধানসভা":14380,"বরিগেডিযার":14381,"##সেরা":14382,"sup":14383,"বযাচ":14384,"গভীরে":14385,"রিলিজ":14386,"ফাংশন":14387,"gol":14388,"ভাবী":14389,"রাখাইনে":14390,"সবরণকেশী":14391,"পরেসকলাবে":14392,"অঙগর":14393,"সবরণের":14394,"টিউব":14395,"নেডে":14396,"লিখা":14397,"যানতরিক":14398,"শসয":14399,"কোহল":14400,"অসখ":14401,"বদধিতে":14402,"রেজালট":14403,"বেজে":14404,"জঙগলে":14405,"##ount":14406,"জৈব":14407,"সরকষিত":14408,"জেড":14409,"ইলে":14410,"ভাগাভাগ":14411,"বানদরবানের":14412,"সানা":14413,"##৩৩":14414,"যেতো":14415,"বরিটেন":14416,"হেলপ":14417,"ভযানক":14418,"হদযের":14419,"##ীযমান":14420,"ভালবাসার":14421,"পাললা":14422,"বোস":14423,"মাঝি":14424,"দজনেই":14425,"##له":14426,"সযারের":14427,"ইউনেস":14428,"সেকরেটারী":14429,"##পাশা":14430,"পডাশনা":14431,"মরম":14432,"ঢল":14433,"পেজে":14434,"জানাবেন":14435,"মেইন":14436,"##জিযামের":14437,"##act":14438,"কযাটাগরিতে":14439,"পাবনার":14440,"বরিজের":14441,"##সিডেনট":14442,"##িকাল":14443,"রড":14444,"##বাগান":14445,"যোগে":14446,"বিধবা":14447,"মোযাজজেম":14448,"সহিত":14449,"##কিংযের":14450,"গণা":14451,"টিআই":14452,"জাহাঙগীরনগর":14453,"থর":14454,"সরওযার":14455,"সমপাদন":14456,"করেছিলো":14457,"অঙকের":14458,"ag":14459,"উচচতর":14460,"শেখা":14461,"চিতরনাটয":14462,"ইমিগরেশন":14463,"তদ":14464,"##ix":14465,"দটির":14466,"তেহর":14467,"আযন":14468,"সেসময":14469,"সংসারের":14470,"##চরচা":14471,"পিটার":14472,"নিউজিলযানডের":14473,"##ey":14474,"##বাসনের":14475,"তাজল":14476,"সারথ":14477,"সমপততির":14478,"পরতিষঠায":14479,"খালের":14480,"বাটন":14481,"এরপরও":14482,"লোককে":14483,"ফাইবার":14484,"পরতিকার":14485,"সীমানতবরতী":14486,"আবিরভাব":14487,"জীবিকা":14488,"nov":14489,"বিঘা":14490,"ইসরাযেল":14491,"কাসেম":14492,"04":14493,"বাট":14494,"হোযাটসঅযাপ":14495,"আখযা":14496,"এজিএম":14497,"আদাযে":14498,"বকল":14499,"পরোটাই":14500,"অনিবারয":14501,"পাদ":14502,"নিযনতরন":14503,"বাসটি":14504,"নববই":14505,"আওযার":14506,"ছিলনা":14507,"কাপত":14508,"সালমানের":14509,"নকষতর":14510,"##কলের":14511,"২টা":14512,"চটর":14513,"শানতিতে":14514,"১৯৭৪":14515,"টযাক":14516,"##মিনা":14517,"শাপলা":14518,"অনধা":14519,"দিনেই":14520,"dhak":14521,"পরেসিডিযাম":14522,"বনের":14523,"আলীকে":14524,"contin":14525,"জগত":14526,"তাগিদ":14527,"বহদিন":14528,"অমানবিক":14529,"তাকেই":14530,"ভীত":14531,"কারবন":14532,"ভোরের":14533,"বাধে":14534,"মকতিযোদধার":14535,"##কেনদরে":14536,"মযানচেসটার":14537,"08":14538,"দদিন":14539,"##ভোর":14540,"সোনালি":14541,"সলো":14542,"ফলোর":14543,"সংহতি":14544,"পঞজ":14545,"##জজামানের":14546,"ফতল":14547,"বাজারজাত":14548,"বাণিজযের":14549,"পরতযকষদরশী":14550,"##জানা":14551,"সমসাময":14552,"পরাপয":14553,"উললা":14554,"মাহফজ":14555,"বিএসইসি":14556,"সবথেকে":14557,"নাশকতা":14558,"বাইরেও":14559,"##১টি":14560,"জাকারিযা":14561,"##সটিকের":14562,"উঠার":14563,"যোদধা":14564,"সপারসটার":14565,"রিমানডে":14566,"##তাসহ":14567,"##সিভ":14568,"##ষঠিত":14569,"##িকষিত":14570,"রিপাবলিকান":14571,"তচছ":14572,"বিপণ":14573,"##মিও":14574,"আইটেম":14575,"##কতে":14576,"per":14577,"সতনযপ":14578,"কানের":14579,"আরবী":14580,"সেপটেমবরে":14581,"মাষটার":14582,"আকি":14583,"টাউন":14584,"##দাযে":14585,"কাদতে":14586,"মনট":14587,"##িলারা":14588,"১৮০":14589,"##কষযং":14590,"এসো":14591,"##pl":14592,"##তলে":14593,"পরশসত":14594,"বৎসর":14595,"তযা":14596,"জিনিসপতর":14597,"পরাইম":14598,"পরতিনিধিরা":14599,"##কষেতর":14600,"##বীয":14601,"##হরের":14602,"##াকষণ":14603,"পরাচীর":14604,"বিসফোরণে":14605,"শিকষককে":14606,"খাট":14607,"সাইফর":14608,"বিমানটি":14609,"##গলপ":14610,"সাখা":14611,"##চিহন":14612,"views":14613,"মনিটরিং":14614,"খাডা":14615,"দেখাবে":14616,"জোরপরবক":14617,"সতযের":14618,"str":14619,"সটল":14620,"বিটিআরসি":14621,"সমিথ":14622,"##লারের":14623,"##েনদ":14624,"লোকটা":14625,"বিবিসির":14626,"সেজে":14627,"তাহলেই":14628,"##বিজঞানী":14629,"##কাহ":14630,"অযামবল":14631,"জামিনে":14632,"মজবত":14633,"জনা":14634,"হালাল":14635,"রেগ":14636,"তেজগাও":14637,"আতর":14638,"নডাই":14639,"##তলার":14640,"অনেকা":14641,"কাতারে":14642,"পষট":14643,"সমাধি":14644,"যথাযথভাবে":14645,"ঢাবি":14646,"##িনয":14647,"ধরমে":14648,"##িসতানে":14649,"পরসারিত":14650,"লাহ":14651,"সমসামযিক":14652,"##জাতনতরী":14653,"হযাক":14654,"##বযাপারে":14655,"##করন":14656,"দাযিতবপরাপত":14657,"পোসটের":14658,"লেবার":14659,"করমকাণডের":14660,"বাংলাদেশিদের":14661,"##োষ":14662,"দেযালে":14663,"কনসয":14664,"##টিসি":14665,"শরিফল":14666,"লিড":14667,"বাযতল":14668,"##যালে":14669,"কোষাধযকষ":14670,"লাখের":14671,"পরোডাকট":14672,"হবো":14673,"##পরস":14674,"##বিশেষ":14675,"থাইলযানড":14676,"##ডিল":14677,"উঠলে":14678,"শতাবদী":14679,"চোরাচাল":14680,"##যরের":14681,"ফরজ":14682,"নাতি":14683,"##ফেস":14684,"দোল":14685,"খোরশেদ":14686,"বিদবেষ":14687,"নভেমবরের":14688,"মরযাদায":14689,"মডার":14690,"শরণারথীদের":14691,"যেতেন":14692,"সরকারে":14693,"সংকরমণ":14694,"##বিবাহ":14695,"কষটে":14696,"হযাকার":14697,"শিকষাপরতিষঠান":14698,"বাচার":14699,"শযযা":14700,"কারিগর":14701,"অপেকষাকত":14702,"জঘনয":14703,"##কাস":14704,"মযাকস":14705,"##ates":14706,"##পরাপ":14707,"মোসতাক":14708,"larg":14709,"সংশোধিত":14710,"সটযানডারড":14711,"##জিদ":14712,"সংগঠনটির":14713,"ফযাকট":14714,"ইভেনট":14715,"চামডার":14716,"অগনিক":14717,"বাসিনদাদের":14718,"আখতারজজামান":14719,"get":14720,"পরতিরোধের":14721,"লাগতে":14722,"গনতবয":14723,"যাতরার":14724,"দরগম":14725,"বযাপারটি":14726,"রেখেছিল":14727,"ফায":14728,"চিটা":14729,"বিসমিত":14730,"comm":14731,"বরীজ":14732,"##খালি":14733,"টঙগী":14734,"নেবার":14735,"ডিভিশন":14736,"দজনকে":14737,"অভিমান":14738,"গাওযা":14739,"বষটিপাত":14740,"কামোত":14741,"অপরিবরতিত":14742,"চিনতায":14743,"ধযান":14744,"ঘাডে":14745,"অসথিরতা":14746,"কলানতি":14747,"শিকষাবরষে":14748,"মখোশ":14749,"উপলবধ":14750,"লিডার":14751,"##গেছে":14752,"বযাথা":14753,"##ভঙগ":14754,"##ky":14755,"##শরমিক":14756,"ভাবনার":14757,"বারাক":14758,"পরীকষামলক":14759,"ইসরাযেলের":14760,"আশেপাশে":14761,"নযাপলটনে":14762,"কাপতাই":14763,"##লিপ":14764,"কমছে":14765,"পকেটে":14766,"মাহাব":14767,"এসডি":14768,"##নাশক":14769,"কিবরিযা":14770,"দেখল":14771,"নিকটবরতী":14772,"পরযোগের":14773,"এনবিআর":14774,"বনদো":14775,"ঘমান":14776,"সিলেকট":14777,"মাশরাফ":14778,"মমিনল":14779,"ঘরবাডি":14780,"সবরগ":14781,"অনিশচয":14782,"নিরসনে":14783,"মসলা":14784,"ঠিকানায":14785,"দেবনাথ":14786,"আলোচয":14787,"মোনাজাত":14788,"ঈর":14789,"ভকতরা":14790,"কলাউডা":14791,"বিমানবনদরের":14792,"##৭টি":14793,"ct":14794,"##ec":14795,"ঈদগাও":14796,"ele":14797,"জানিনা":14798,"দাউ":14799,"সামঞজসয":14800,"কারোর":14801,"ছাডে":14802,"শৈশব":14803,"হযারি":14804,"বিছানা":14805,"##oh":14806,"১৯৯৩":14807,"হাসে":14808,"ভগবান":14809,"##সপ":14810,"দেখিযেছে":14811,"কাযেম":14812,"বেডায":14813,"##ont":14814,"আনদোলনকে":14815,"হরমোন":14816,"কাসটমস":14817,"দবৈ":14818,"বারসেলোনার":14819,"সংকর":14820,"অশোক":14821,"##কনযা":14822,"দির":14823,"লীগকে":14824,"উদধত":14825,"##৩টি":14826,"##টাকা":14827,"বযবসথাপনার":14828,"চযাট":14829,"আধিকারিক":14830,"লাম":14831,"##জাগর":14832,"কানটরি":14833,"##াহিতয":14834,"##ইস":14835,"কামোততেজ":14836,"নাডা":14837,"অপবযবহার":14838,"##বাডীর":14839,"গলশানের":14840,"কিসের":14841,"সমপাদকের":14842,"part":14843,"বিশবযদধের":14844,"সিবিআই":14845,"ভোকতা":14846,"##ানতমলক":14847,"##৮টি":14848,"##বিউ":14849,"পরিপক":14850,"ফেরেন":14851,"পতি":14852,"জলম":14853,"পরোটা":14854,"##৪টি":14855,"ইসির":14856,"দলা":14857,"মহডা":14858,"গণস":14859,"##ance":14860,"কাইযম":14861,"পরিদরশনে":14862,"ht":14863,"পনরা":14864,"##লোকের":14865,"বরণনায":14866,"পরিমাপ":14867,"##লাকসি":14868,"##মাহ":14869,"১৬০":14870,"সাস":14871,"বেশীর":14872,"ডিফেনডার":14873,"##খর":14874,"গণফোর":14875,"কযাটর":14876,"অযে":14877,"ভোগানতি":14878,"##বাডীতে":14879,"##চিতে":14880,"টিভিতে":14881,"সিরাজগঞজের":14882,"আমিরাত":14883,"বাতাসের":14884,"কামোততেজকত":14885,"বেডিযে":14886,"##বিধানে":14887,"পকরের":14888,"শেল":14889,"ইউটিউবে":14890,"আতমবিশ":14891,"বেশিরভাগই":14892,"##যামের":14893,"ওইসব":14894,"##বেদনশীল":14895,"রবারট":14896,"সিট":14897,"তিনজনকে":14898,"largest":14899,"মসকো":14900,"##ীবিত":14901,"গরেপতারের":14902,"জামিল":14903,"মযাচেই":14904,"নাকচ":14905,"কাফের":14906,"মাহি":14907,"উদাস":14908,"করমবরধ":14909,"সমনবযক":14910,"১৯৪৮":14911,"রেট":14912,"আতিকর":14913,"খেলাপি":14914,"##েয":14915,"##যেরা":14916,"সমাজসে":14917,"সৈযদপর":14918,"aut":14919,"বলের":14920,"##জিট":14921,"পিএনএস":14922,"অপরিচিত":14923,"##পলের":14924,"হঠ":14925,"বেক":14926,"টিউটোরিযাল":14927,"কোমপানিগলো":14928,"রী":14929,"আজিজর":14930,"সকযান":14931,"গোতরের":14932,"সমবেত":14933,"ছাপিযে":14934,"রাযকে":14935,"ছাতরছাতরীদের":14936,"গনতব":14937,"মিডফিল":14938,"নিরমাত":14939,"কযালেনডার":14940,"##জেকট":14941,"##ition":14942,"সমযও":14943,"ফিস":14944,"##লাকে":14945,"নিশচিন":14946,"##নদী":14947,"করণফল":14948,"দাখিলের":14949,"মেগাপ":14950,"##ঙের":14951,"নাজির":14952,"অনযকে":14953,"##কতিকে":14954,"যাযনা":14955,"সিলিন":14956,"পিএসসি":14957,"মেজাজ":14958,"চাও":14959,"বিযেতে":14960,"হতাহতের":14961,"কামোততেজকতততব":14962,"করমসংসথানের":14963,"ফরিজ":14964,"বলেছেনঃ":14965,"পলেন":14966,"রযাম":14967,"পারো":14968,"হইলে":14969,"রেসতোর":14970,"##কাতর":14971,"গণী":14972,"সমহের":14973,"দরজায":14974,"দেখলেই":14975,"নাটকটি":14976,"বঝলাম":14977,"১৬টি":14978,"মকবল":14979,"মেরি":14980,"বিতরণের":14981,"নইলে":14982,"সকার":14983,"তোলপাড":14984,"করণা":14985,"সাকিবের":14986,"করমবরধমান":14987,"সাথী":14988,"সেহেত":14989,"অনকল":14990,"খাদি":14991,"##মেইন":14992,"মানসিকভাবে":14993,"৫টায":14994,"##মারা":14995,"ডিলার":14996,"মালিকরা":14997,"ফলক":14998,"পলিসি":14999,"অনাযাসে":15000,"বরযা":15001,"বটেই":15002,"##হাতি":15003,"ছেলেটি":15004,"সবজির":15005,"ফাইনযানস":15006,"আমপ":15007,"বাসভবন":15008,"উততাল":15009,"##নারের":15010,"শীতে":15011,"মহারা":15012,"ভকতভোগী":15013,"##চনে":15014,"রসালো":15015,"গযালাকসি":15016,"উইন":15017,"পেশাজ":15018,"মেডিসিন":15019,"১৩০":15020,"এবযাপারে":15021,"ততী":15022,"সেলিনা":15023,"ওডি":15024,"##ইযার":15025,"বিধাযক":15026,"##জোর":15027,"##চই":15028,"কাটে":15029,"চাষে":15030,"বারানদায":15031,"বযবহারকারীরা":15032,"আদরশের":15033,"ওযানডেতে":15034,"##শপ":15035,"##িকিউটিভ":15036,"উচচশিকষা":15037,"সগন":15038,"##মিডিযা":15039,"রমের":15040,"সমতির":15041,"##ating":15042,"কমিশনে":15043,"কৌতহল":15044,"ফেরেশ":15045,"06":15046,"খাজ":15047,"বেআইনি":15048,"উললিখিত":15049,"সটারট":15050,"##মাণের":15051,"১১০":15052,"ভালোবাসি":15053,"বেডেই":15054,"গছিযে":15055,"আভাস":15056,"##জাম":15057,"##বরি":15058,"কনভেনশন":15059,"খট":15060,"03":15061,"পরধানের":15062,"একটানা":15063,"সংকলন":15064,"৪টার":15065,"##িকেল":15066,"তারপরেও":15067,"শিযা":15068,"হও":15069,"পরলো":15070,"দেখাচছে":15071,"অনসনধানে":15072,"দৌলত":15073,"নাল":15074,"মারামার":15075,"পরসব":15076,"মাদরিদের":15077,"bl":15078,"##কিছর":15079,"art":15080,"##বিজঞানের":15081,"your":15082,"অসামপর":15083,"অনকলে":15084,"রাশিযান":15085,"মাধযমের":15086,"##ict":15087,"ইনকাম":15088,"বযকতিগতভাবে":15089,"আনগতয":15090,"সমালোচ":15091,"উরগ":15092,"সদা":15093,"ঢোকার":15094,"নোযাখালীর":15095,"চিকেন":15096,"ইমপ":15097,"উততরব":15098,"পরতিবেদনের":15099,"তাদেরও":15100,"কষযকষতি":15101,"##জাতীয":15102,"##োটাই":15103,"হাজিরা":15104,"খাযের":15105,"##মশ":15106,"ইরশাদ":15107,"পতে":15108,"ঘে":15109,"##ভকতির":15110,"উইকেটের":15111,"অপহরণের":15112,"করমসথলে":15113,"খানা":15114,"##কাত":15115,"থাইলযানডের":15116,"হাফিজর":15117,"তিনজনের":15118,"##খাতে":15119,"অসসথতার":15120,"খাদযের":15121,"ইনদোনেশিযার":15122,"অনিচছক":15123,"দনড":15124,"##ননবী":15125,"সিরাম":15126,"ইউপিডিএফ":15127,"ভিউ":15128,"##ated":15129,"সৈয":15130,"কবরসথানে":15131,"সোরস":15132,"মহো":15133,"##সাগরে":15134,"##খানার":15135,"বহনকারী":15136,"tags":15137,"লেসবিযান":15138,"গলে":15139,"##নাস":15140,"বলকের":15141,"অচিরেই":15142,"সংবিধানে":15143,"সবাসথযসেবা":15144,"লাসটনিউজবিডি":15145,"অযাসিড":15146,"পরতিকরিযায":15147,"##ছের":15148,"##ছিস":15149,"গণধর":15150,"উততপত":15151,"মোছা":15152,"অনতরে":15153,"##ann":15154,"##99":15155,"##চাক":15156,"আখা":15157,"লাইবর":15158,"পরিনসিপাল":15159,"আমিই":15160,"##িললাহি":15161,"বনানী":15162,"গণপরজাতনতরী":15163,"##বাশী":15164,"##নাকারী":15165,"১৯৮২":15166,"মাঝেমধযে":15167,"ডেঙগ":15168,"আনোযারল":15169,"পরিনত":15170,"আরমান":15171,"আহমমদ":15172,"##ajpur":15173,"কমরেড":15174,"পরিচযে":15175,"উপনিবেশ":15176,"মেদ":15177,"গোযাল":15178,"আরোহ":15179,"বহিরাগত":15180,"শাসতর":15181,"মেঘের":15182,"পষঠার":15183,"##ফটের":15184,"মঞচের":15185,"দষটানতমলক":15186,"পারলামেনট":15187,"হৈ":15188,"##বাগে":15189,"বালিযা":15190,"##গরির":15191,"মদরার":15192,"ঘমাতে":15193,"কষিবিদ":15194,"এনারজি":15195,"নাটোরের":15196,"একনে":15197,"ফজলর":15198,"হাইডর":15199,"নিরমাতারা":15200,"গরেট":15201,"গজরা":15202,"dinajpur":15203,"pk":15204,"লাশটি":15205,"রমনা":15206,"##50":15207,"করবান":15208,"মধযপরাচযের":15209,"ঝলে":15210,"ভযেস":15211,"জঞাপন":15212,"##৯টি":15213,"পেযা":15214,"অবির":15215,"তাফ":15216,"ঝরণ":15217,"অনপরেরণা":15218,"বিকশিত":15219,"দেশজডে":15220,"##বিনে":15221,"করোযেশিযার":15222,"অংকের":15223,"পরসেসর":15224,"লাখো":15225,"আগার":15226,"পরণিমা":15227,"রপালী":15228,"ধারণার":15229,"মেহেরপরের":15230,"যোগদানের":15231,"##চকে":15232,"শরেণীতে":15233,"মাইক":15234,"চযানসেলর":15235,"বিবাদ":15236,"সেমিফাইন":15237,"গডি":15238,"মেই":15239,"মজাহিদ":15240,"##লিংক":15241,"##ভাষী":15242,"ভরপর":15243,"ডরাইভিং":15244,"বহিরভত":15245,"আশাবাদ":15246,"সমরণীয":15247,"07":15248,"রোগীকে":15249,"হেলপার":15250,"এট":15251,"##দোষ":15252,"কাময":15253,"জাহিদল":15254,"করছিলাম":15255,"দডি":15256,
[...]
