[PAD]
[UNK]
[CLS]
[SEP]
[MASK]
!
"
#
$
%
&
'
(
)
*
+
,
-
.
/
0
1
2
3
4
5
6
7
8
9
:
;
<
=
>
?
@
[
\
]
^
_
`
a
b
c
d
e
f
g
h
i
j
k
l
m
n
o
p
q
r
s
t
u
v
w
x
y
z
{
|
}
~
¡
¢
£
¤
¥
¦
§
¨
©
ª
«
¬
®
¯
°
±
²
³
´
µ
¶
·
¸
¹
º
»
¼
½
¾
¿
×
ß
æ
ð
÷
ø
đ
ı
ĳ
ĸ
ł
œ
ƒ
ƭ
ƴ
ƶ
ƻ
ƽ
ɑ
ɔ
ə
ɛ
ɪ
ɱ
ɹ
ʃ
ʊ
ʒ
ʫ
ʮ
ʰ
ʱ
ʲ
ʴ
ʷ
ʹ
ʼ
ʽ
ʿ
ˈ
ː
˫
ˮ
˼
ͳ
ͷ
ͼ
΢
α
β
γ
δ
ε
η
θ
ι
κ
λ
μ
ν
ξ
ο
π
ρ
ς
σ
τ
υ
φ
χ
ω
ϲ
ϸ
а
б
в
г
д
е
ж
з
и
к
л
м
н
о
п
р
с
т
у
ф
х
ц
ч
ш
щ
ъ
ы
ь
э
ю
я
і
ҹ
һ
ԥ
ա
ե
ն
ո
վ
տ
א
ב
ג
ד
ה
ו
ח
ט
י
כ
ל
ם
מ
ן
נ
ס
ע
פ
צ
ק
ר
ש
ת
׬
׼
،
ء
ا
ب
ة
ت
ث
ج
ح
خ
د
ذ
ر
ز
س
ش
ص
ض
ط
ظ
ع
غ
ـ
ف
ق
ك
ل
م
ن
ه
و
ى
ي
ٱ
ٷ
پ
چ
ک
گ
ڲ
ں
ھ
ہ
ی
ے
۰
۱
۲
۳
۹
अ
आ
ए
क
ख
ग
च
ज
ट
ड
ण
त
द
ध
न
प
ब
भ
म
य
र
ल
व
श
ष
स
ह
ा
ि
ी
ो
।
॥
॰
ং
ঃ
অ
আ
ই
ঈ
উ
ঊ
ঋ
ঌ
এ
ঐ
ও
ঔ
ক
খ
গ
ঘ
ঙ
চ
ছ
জ
ঝ
ঞ
ট
ঠ
ড
ঢ
ণ
ত
থ
দ
ধ
ন
প
ফ
ব
ভ
ম
য
র
ল
শ
ষ
স
হ
া
ি
ী
ে
ৈ
ৎ
ৗ
৤
০
১
২
৩
৪
৫
৬
৭
৮
৯
ৰ
ৱ
৳
৷
৻
੔
ા
க
த
ப
ம
ா
ி
ு
ക
ന
ാ
ി
ණ
ก
ค
ง
ด
ต
ท
น
บ
ป
พ
ม
ย
ร
ล
ว
ส
ห
อ
ะ
า
เ
แ
ไ
་
ა
ი
ღ
ᄀ
ᄂ
ᄃ
ᄅ
ᄆ
ᄇ
ᄈ
ᄉ
ᄋ
ᄌ
ᄎ
ᄏ
ᄐ
ᄑ
ᄒ
ᅡ
ᅢ
ᅣ
ᅥ
ᅦ
ᅧ
ᅨ
ᅩ
ᅪ
ᅬ
ᅭ
ᅮ
ᅯ
ᅳ
ᅴ
ᅵ
ᆨ
ᆫ
ᆯ
ᆷ
ᆸ
ᆻ
ᆼ
‒
–
—
―
‘
’
‚
“
”
„
†
‡
•
…
′
″
›
€
₹
℃
™
←
↑
→
↓
⇄
⇒
−
√
─
━
├
■
▬
▶
►
◆
◈
◌
●
★
☆
☐
☛
☞
♠
♣
♥
♦
✅
✌
✔
✪
❏
❤
➡
➢
➤
➳
ⱥ
、
。
「
」
【
】
あ
い
う
え
お
か
き
く
け
こ
さ
し
す
せ
そ
た
ち
っ
つ
て
と
な
に
の
は
ま
み
め
も
や
よ
ら
り
る
れ
わ
を
ん
ア
ィ
イ
ウ
エ
オ
カ
キ
ク
コ
サ
シ
ス
セ
タ
チ
ッ
ツ
テ
ト
ナ
ニ
ハ
ヒ
フ
ヘ
ホ
マ
ム
メ
ャ
ュ
ラ
リ
ル
レ
ロ
ン
・
ー
一
万
三
上
下
不
与
专
世
业
东
个
中
为
主
么
之
乐
也
买
了
事
二
于
五
亚
交
产
京
人
什
今
他
代
以
们
件
优
会
位
体
作
使
保
信
倍
值
免
入
全
公
关
其
内
円
册
军
冠
出
分
划
利
到
制
前
力
加
务
动
势
化
北
区
十
华
单
南
博
历
县
及
双
发
口
古
可
台
史
号
司
合
吉
同
名
后
吗
员
和
品
哪
商
器
国
图
在
地
场
址
城
外
多
大
天
奖
女
好
如
娱
子
学
安
官
定
宝
实
客
家
对
将
小
少
就
展
山
川
州
工
巧
市
平
年
广
庆
度
建
开
式
录
彩
影
律
得
微
徽
心
必
快
怎
性
情
意
成
我
户
房
所
手
技
投
报
据
推
提
播
政
教
数
文
料
新
方
日
时
明
易
星
是
最
月
有
服
期
本
机
杀
来
林
果
查
样
正
比
民
水
江
河
法
注
活
流
测
海
淨
港
游
湖
源
漏
澳
点
版
牛
物
特
玩
现
理
甘
生
用
电
界
登
百
的
皇
盘
目
直
省
看
県
真
着
码
破
社
神
票
福
程
稳
站
等
算
管
精
系
线
经
结
统
网
美
群
老
者
联
肃
能
自
色
苏
荐
行
表
装
西
要
规
视
解
计
记
论
设
费
资
赌
赚
赛
赢
走
路
车
软
载
过
运
这
进
选
通
速
道
遗
部
都
里
重
量
金
钱
银
长
门
间
际
限
院
集
面
预
频
食
香
高
黑
龙
﴾
﴿
ﷺ
ﷻ
ﺃ
ﺍ
ﺎ
ﺑ
ﺒ
ﺔ
ﺘ
ﺪ
ﺭ
ﺮ
ﺳ
ﺴ
ﻋ
ﻌ
ﻓ
ﻗ
ﻛ
ﻟ
ﻠ
ﻢ
ﻣ
ﻤ
ﻥ
ﻦ
ﻧ
ﻨ
ﻪ
ﻭ
ﻮ
ﻰ
ﻲ
ﻳ
ﻴ
！
（
）
，
：
👇
👉
👿
💙
💜
😀
😂
😆
😉
😎
😛
😮
😯
🙁
🙂
🙄
##ম
##য
##ে
##া
##গ
##ত
##র
##i
##n
##z
##p
##প
##ধ
##ী
##দ
##ব
##ি
##স
##হ
##ল
##ক
##ভ
##ং
##ফ
##ড
##জ
##ন
##ই
##খ
##শ
##9
##3
##7
##ণ
##উ
##m
##a
##l
##r
##৪
##২
##5
##ষ
##ৈ
##ট
##চ
##ل
##ي
##ب
##ر
##ঃ
##ৗ
##এ
##ৱ
##আ
##e
##u
##g
##h
##t
##y
##ঙ
##ͷ
##ছ
##ও
##ঞ
##b
##o
##w
##j
##১
##৭
##৯
##৬
##৩
##ᅡ
##ᄋ
##ᄃ
##ᅩ
##0
##1
##ঘ
##d
##c
##v
##f
##k
##s
##ৎ
##ঠ
##০
##৷
##е
##р
##м
##и
##н
##о
##л
##৫
##৮
##8
##2
##4
##থ
##6
##অ
##в
##а
##ա
##к
##δ
##ه
##ا
##ت
##x
##с
##у
##б
##т
##ʷ
##৤
##ঝ
##α
##μ
##η
##λ
##ο
##ق
##ن
##€
##™
##²
##ा
##च
##र
##ʽ
##і
##х
##¦
##ط
##ج
##¤
##❤
##ל
##ה
##イ
##フ
##て
##あ
##れ
##は
##œ
##щ
##こ
##ち
##ら
##の
##ラ
##ー
##メ
##ン
##を
##ৰ
##ض
##ح
##ة
##د
##ঊ
##q
##ঈ
##ы
##д
##ͼ
##ो
##प
##ड
##п
##я
##з
##ł
##¨
##ঢ
##ى
##ƭ
##ω
##σ
##ς
##ા
##ˮ
##վ
##س
##ك
##م
##ᅥ
##ᅮ
##ᆯ
##ᄂ
##ᆷ
##ᄇ
##ᄀ
##ᄎ
##ᅵ
##ᄉ
##ᄅ
##ð
##ш
##ь
##ص
##ف
##г
##°
##¬
##ع
##ч
##♠
##た
##し
##お
##り
##ま
##す
##خ
##ث
##ی
##ز
##ĳ
##ʼ
##ᅯ
##ᆫ
##ב
##י
##ת
##ᄑ
##ᅳ
##ᆼ
##ʫ
##ம
##®
##¾
##ф
##ᅭ
##ʮ
##ঐ
##な
##い
##ാ
##ക
##ന
##ش
##و
##ж
##ウ
##ト
##タ
##ロ
##カ
##ק
##ד
##★
##ہ
##غ
##リ
##ר
##ו
##ک
##स
##त
##ı
##ƒ
##ø
##ﻟ
##ٷ
##オ
##ϲ
##θ
##る
##ঋ
##ц
##פ
##य
##ल
##チ
##コ
##ク
##ю
##ɱ
##ʃ
##ɔ
##ʱ
##द
##−
##ᆨ
##न
##ि
##´
##һ
##ᅧ
##ᄐ
##ष
##ण
##क
##ᆻ
##π
##φ
##♥
##×
##ذ
##ᄌ
##マ
##ル
##ス
##シ
##ア
##ム
##ん
##ナ
##ニ
##さ
##つ
##っ
##ャ
##ハ
##セ
##گ
##ﺘ
##ƽ
##נ
##כ
##ט
##ס
##ッ
##ٱ
##ͳ
##☞
##æ
##ε
##τ
##ρ
##ն
##ﺎ
##ﻛ
##ﺮ
##ﻳ
##ﻦ
##ß
##ν
##ι
##מ
##γ
##µ
##ज
##ी
##ঔ
##ᅴ
##υ
##ʒ
##か
##ɑ
##ː
##ʊ
##ə
##ა
##ი
##─
##˫
##¯
##と
##➢
##く
##க
##ா
##キ
##ュ
##ﻤ
##ﻥ
##ﻌ
##β
##ח
##ھ
##ء
##³
##ﻣ
##ש
##۹
##サ
##ホ
##ヘ
##に
##ƶ
##ᅢ
##ﻮ
##ग
##ध
##व
##म
##ے
##ค
##พ
##ย
##า
##ม
##ท
##ต
##ก
##ร
##เ
##ล
##น
##แ
##บ
##ヒ
##テ
##ィ
##エ
##श
##ϸ
##ˈ
##ɪ
##ɛ
##→
##χ
##ᅬ
##׼
##ᄒ
##ᄆ
##੔
##¸
##ª
##ъ
##ʰ
##ʿ
##わ
##ᅨ
##ɹ
##ƻ
##ு
##ி
##৻
##も
##ظ
##ᅦ
##ﻋ
##ﻢ
##ҹ
##ԥ
##レ
##κ
##৳
##ख
##¼
##©
##ツ
##み
##よ
##う
##۱
##ע
##ப
##த
##ﺒ
##ﻰ
##½
##¹
##●
##¥
##˼
##ว
##ง
##ᅣ
##ʲ
##ʴ
##💜
##भ
##ﻲ
##ट
##ह
##ﻴ
##ﻨ
##ـ
##±
##ם
##ﺪ
##ะ
##ส
##ﺔ
##ĸ
##ด
##ไ
##อ
##ե
##ി
##э
##ᅪ
##ᄏ
##ں
##ﻠ
##ᆸ
##せ
##や
##ﺴ
##ﻪ
##ג
##ঌ
##अ
##ﺍ
##چ
##ป
##ڲ
##め
##א
##え
##ﻓ
##đ
##ξ
##ﻧ
##ﺳ
##✌
##♦
##♣
##き
##け
##ब
##ⱥ
##ﷺ
##↓
##ห
##ʹ
##º
##ן
##ᄈ
##ո
##►
##צ
##ƴ
##ﺭ
##۰
##÷
##ﻭ
##✅
##£
##☆
##⇒
##✔
##ﺑ
##տ
##√
##そ
##👉
##¢
##۲
##پ
##😂
##΢
##😆
##ए
##├
##😉
##ﻗ
##➤
##۳
##׬
##👇
##➡
##आ
##■
##↑
##▶
##😎
##😀
##☛
##₹
##℃
##ﺃ
##🙂
##💙
##😛
##➳
##😯
##ණ
##ღ
##🙄
##👿
##▬
##←
##✪
##◌
##❏
##━
##◆
##◈
##😮
##ার
##ের
##ো
##ান
পর
##যে
কর
##যা
##েন
##িক
##িন
##লা
##তে
##কে
##লে
##ির
##ায
##বে
##ছে
বি
##তি
##াম
##াল
##টি
##তর
বা
##বা
##িযে
##দের
##িত
এক
করে
##াক
সম
##পর
##েশ
##িল
##াই
##াজ
##াস
##তা
##নে
আম
সা
##বার
##যার
তার
##রা
না
জন
সে
নি
হযে
তা
##কষ
##টা
দে
##িস
##না
##েকে
##কার
##রে
অন
মা
##ভা
##বি
থেকে
হয
##ঙগ
##ছেন
##িনি
##েল
##ীর
##োগ
##াত
##নের
এই
কো
আর
##বং
পা
সং
##বর
এবং
যে
##নি
##লি
##যান
পরি
করা
বল
##রি
##ীয
নে
পার
জান
##থা
নির
##মান
যা
বয
##দেশ
##দর
##োর
##দধ
উপ
##লো
##কা
##ওযা
##মন
##কত
কা
##কর
##ডি
##মা
এর
কি
সর
##টে
পরতি
##ডা
কার
##বস
##জন
তিনি
জনয
রা
##ডে
##খন
##াদ
হযেছে
বিশ
##গর
সব
বাং
##যের
##েষ
আস
হবে
নিযে
মো
##যোগ
##মে
বাংলা
মে
গর
##লাম
মান
##যন
##িকে
শর
একটি
##টার
কোন
##ষঠ
##াকা
দেখ
দিযে
##ানে
করতে
##াপ
##মি
বলে
##তার
##ষট
##েলা
মধ
##ছিল
##েস
##ধান
ছিল
আগ
করেন
বাংলাদেশ
##বন
আপ
##যাল
দেশ
##ভি
##তন
##কতি
##নার
##চছে
##দি
##িকষ
পে
##পি
বলেন
সি
##তরী
কষ
তাদের
২০
##জি
রাজ
এস
দর
কে
কিন
##বাস
আল
##লের
মত
##বাদ
মহ
থাক
মধযে
বর
বযা
নাম
চে
মন
##ঙগে
ভা
মি
##ীন
##দিন
যায
##ভাবে
##কের
লা
কাজ
##েখ
##তব
উদ
##থে
সহ
আন
সময
##চার
##াহ
করম
সরকার
দি
##ছি
ছা
বে
##ারা
##পতি
অনে
গে
কিনত
##ছর
আমা
ইস
##দা
##শন
সন
##জে
শিকষ
কিছ
অর
সঙগে
##ওযার
##বল
কথা
দিন
##ভিন
আমি
সক
বিষ
নিরবা
##িযা
##জার
##বেন
বেশ
দা
অভি
##যো
##টির
ইউ
তারা
##বহ
আই
মানষ
##সি
পরধান
##ংশ
##ধার
##চি
##ধয
##িসে
ধর
##তিক
সাম
বছর
##োস
##লিশ
আমার
##ানা
##োন
তো
আহ
##ানের
উপজ
কম
##টের
##সথ
বিশব
##ীগ
করার
হা
বন
##তরে
হাস
##পা
##োধ
আমাদের
নিরবাচ
##ানি
##ঞজ
পলিশ
রাখ
##থম
ঘট
অব
তবে
ভার
অনেক
পরত
##লপ
##গলো
রযে
##োক
আমরা
##শি
##োল
এখন
##সত
##পার
##ীদের
কেন
##ষণ
##খানে
লি
সমপ
সাথে
আজ
কারণ
ইসলাম
সেই
##চে
সথ
##তের
করেছে
বির
##োট
##বদ
রহ
গত
অধ
##িকা
হচছে
##নন
##ালো
হাজ
##কি
সভা
##বী
কোনো
সমপর
খা
ইন
২০১
চল
##ভিনন
##তম
##াকে
জাত
##জঞ
অস
##মী
নিজ
##ানত
##এন
শেষ
আছে
##লাহ
বযবস
##কষে
হিসে
সবা
##যায
পারে
শি
আগে
বিভিনন
পরে
রযেছে
১৯
##সে
হিসেবে
মার
##লার
অনষঠ
অবস
##টর
জানান
এমন
টাকা
##লাই
##দন
##ালের
##দে
##েলার
পরিচ
##েলে
##সয
##িম
দই
সদ
হতে
হলে
নয
করেছেন
সংস
##ারথ
##কাশ
##ঞচ
##মপ
পরথম
##ডার
##ধারণ
বড
বাস
এলা
গো
কমি
##নী
##যনত
##তো
হাজার
তাকে
##কস
অনয
দল
রো
##ণের
নেই
বহ
##মদ
##িকার
##মের
##ামী
ডি
মাধয
কাছে
আশ
##তির
##থয
মনে
##ছিলেন
##েনট
##মনতরী
যদি
সভাপতি
মাস
##দযাল
উত
##ছা
##ৎস
সো
##মবর
একটা
##রের
জাতীয
বযবহ
##হা
দেখা
নতন
জেলা
##যাপ
##তরা
রহমান
তাই
##মার
মাম
##নায
বিষয
রি
১০
জী
ছিলেন
##লেন
##ডের
##ানো
গা
আপনার
ওই
সমপাদ
বার
পরশ
মল
নার
##টক
##বিত
দেশের
থাকে
##পে
হোস
সালে
পরা
##ভাগ
##জা
##এস
বিএন
##রম
##তযা
পরকাশ
##ঠে
উপজেলা
##দার
মখ
বেশি
মস
গেছে
পরযনত
পডে
সদসয
বযবহার
হার
##শে
তিন
##থায
শহ
আওযা
গণ
##ভাব
ভালো
পরতিষঠ
টর
সাধারণ
##ধর
সমপাদক
##যেক
আলো
পরস
জানা
আদ
ইউনি
চাল
অংশ
মাধযমে
চা
##সহ
দিকে
##থি
##পন
এসে
অরথ
জি
গিযে
##দধে
তৈ
গরাম
আওযামী
পরায
রে
##চিত
মযা
তখন
##উন
খব
হোসেন
##রণ
কল
ঢাকা
##ডিযে
##বয
সার
এম
##বাহ
সাং
বিশেষ
##গা
টি
##তত
##বের
পাল
##কারী
জানিযে
##বির
##তী
##কাল
##মাণ
মতো
উনন
বনধ
সপ
যোগ
##যর
##চচ
##ষটি
##মিক
লীগ
দায
##ভার
##লায
##ষটর
##er
বিক
একজন
উল
##গে
##তান
অফ
ধরে
##গরহ
চার
দিতে
##দী
সথান
পড
##তরণ
অভিযোগ
##গত
বৈ
##ফল
শেখ
##পরে
##িজ
বাংলাদেশের
সকল
কারণে
ছাতর
##ধি
সরব
পরিচাল
##বেশ
##নিক
##কষা
##an
পি
পারেন
##in
##সের
##যোজন
##ীল
আপনি
সাহ
##চনা
ঘো
##গরাম
##তায
কযেক
অপর
ভে
##টো
##ময
##ধা
##িকি
##মযান
আবার
ভি
##পোর
আরো
তথয
##সা
চেযার
বিরদধে
##াপত
পেযে
লেখ
বলা
করমকর
##উজ
লকষ
অযা
##বিদযাল
কযা
পৌ
দেওযা
##গঞজ
##ীরা
আবদ
যাবে
##হি
##বনধ
মানষের
##ভে
হল
তাহ
পাঠ
বিশববিদযাল
##তরের
চাই
ছবি
এটা
##বান
কেনদর
জা
পরী
##াকার
চলে
আইন
করছে
বাড
বিভাগ
##সব
##তয
##সট
শধ
জাম
##দান
চি
##বাজার
##তিতে
উপজেলার
রাস
কেউ
হলো
কলে
বিস
##জাত
##তমান
নিরবাচন
##বারের
##লেও
এটি
সালের
আরও
##হত
##ালি
পাওযা
##দল
কী
শিশ
দেযা
ফলে
##ৈতিক
##েই
নিজের
##েশন
##পের
চৌ
বরতমান
তৈরি
##কায
##েক
করত
উপর
বযবসথা
##খযা
##াধ
##on
##িনা
##or
##সার
##েসক
কষে
##দিকে
দলের
সেন
বাডি
##খে
শাহ
মর
পদ
##ভব
বযাং
ফির
##পরি
মকতি
##যাম
##িতা
বকত
পরক
##ফর
দেন
লোক
##েষটা
আব
বিষযে
একই
##ষণা
ভাই
দশ
শিকষা
যখন
##াইন
পরধানমনতরী
অবসথ
বিপ
ভারত
লাখ
গরহ
##নদ
##es
রেখ
সংবাদ
ঘটনা
দাবি
##শা
ছেলে
##তেই
##ar
অনষঠিত
##যারি
ধার
আবদল
##হার
মাল
দেয
উপসথ
##গঠ
পরব
##ীত
##নৈতিক
##কালে
ঠিক
পাশ
বস
খান
মাঝ
আদাল
মিল
##যেন
সেখানে
নেতা
বো
হাম
নিশ
পাক
##ছাডা
##ালী
করি
কাম
নামে
##লেখ
##en
করমকরতা
তে
##যানড
পরিষ
ছাডা
##কতির
কোটি
##পির
ওযা
##োযা
এসব
এতে
পরতিনি
সাল
ছোট
##পরণ
১২
হওযা
##গার
বিচার
##কষি
করবে
কলেজ
বলেছেন
ফর
বছরের
দেশে
##িকিৎস
বাজার
দেখে
সরকারের
তলে
শতা
বযকতি
##জর
##াযের
##ধীন
##ঙগল
হওযার
চৌধর
##তিহ
আগামী
চেযারমযান
সথানীয
##টাই
রেখে
##টট
গরে
##ণা
কন
১১
চিকিৎস
কারয
এবার
এন
##চছ
ওপর
থান
অফিস
##০০
##দক
ডেসক
##ষা
হাত
##বেক
##যোজ
বদধ
##গম
বের
সামনে
উদধ
অতি
ভর
মাহ
নিজে
##মল
চো
সমস
##at
১৫
ফল
##ানোর
##দয
যারা
কষেতরে
তাহলে
##েনে
সাই
ডা
##মখ
উততর
##om
##লোর
##al
##জজ
##াপা
পাচ
##এম
বযাপার
আললাহ
##ঙগা
##যনের
পরয
জীবন
##ারথী
শিল
ধরনের
যেন
##কম
##বক
যান
উপসথিত
##ণড
##লেট
উললেখ
কোর
শে
খবর
##রথ
এলাকায
কোমপ
এখানে
##গন
##সং
হন
বিজঞ
##ামমদ
আনদ
সির
মেযে
যাচছে
তল
##বেদন
##রাহ
বিএনপি
##বরতী
চেযে
রাষটর
বাই
##আই
অভিন
মোহ
উঠে
চটট
##করম
##মবার
সমাজ
যেতে
পরযোজন
কষম
হাতে
লে
হযেছিল
তাল
##শয
চটটগরাম
আলী
নারী
আনতর
এছাডা
লাগ
##টিতে
চৌধরী
কলা
##বাদিক
আলম
বাহ
পরো
অথ
নর
বঝ
ঘটে
##াযক
সাংবাদিক
সযোগ
##হে
গেল
দাযিত
আনদোল
চেষটা
করন
##বাই
ভাল
সাবেক
সট
পরতিনিধি
##টায
##িসা
২০০
পো
##যম
উঠ
সড
নিতে
##াযী
যার
লীগের
শিকষক
##লীগ
##িনী
শা
##কষণ
পাকিস
ঘোষণা
পান
##াকি
সমম
বই
##বো
বঙগ
১৮
হক
সবাই
সৌ
সতর
রাত
দবিত
সিদধ
উচচ
বিসতার
সদর
যেমন
পানি
অপ
##াইল
##জাতিক
পরশাস
৩০
জীব
মামলা
কত
তর
থাকা
কখন
##টন
করছেন
##িনে
সরকারি
##লিম
বিএনপির
##পত
উই
##ফা
##ললাহ
ইং
জায
উদধার
##যাস
পরেস
করলে
সমযে
বরি
মধয
নেত
নানা
##েরা
##ষে
##ীতে
##পতর
গরহণ
##িসি
খে
যৌ
পথ
গরামের
পশ
দবিতীয
এগ
হতযা
##সন
##হের
##পাত
গরতব
ফট
আতম
এরপর
অনযান
খালে
আনতরজাতিক
সেটা
শতাংশ
সমভব
মঙগল
দিযেছে
রাজনৈতিক
করবেন
দিল
##it
##েরে
উদদিন
##ডিযা
সকাল
ভারতের
বধ
##রত
##ফিক
##চিব
##োজ
##তিহাস
##কেই
##চেযে
দেখতে
পরিবর
ধরম
থেকেই
পরশন
মতয
মাতর
##ীরঘ
মৌ
বিন
সবাধীন
##টিং
মাঝে
অনযায
যক
##পকষ
জনম
রোগ
বহস
সভ
দকষি
হযনি
সংগঠ
সমপরকে
পতর
করিকে
সতয
##নীতি
সবচেযে
##রিযা
নিশচিত
শন
পরযা
শেযার
##সম
##দদ
বহসপতি
##জী
নিহত
##াকর
শিলপ
সমা
দাযিতব
১৪
##ফি
দীরঘ
আলোচনা
নিরদেশ
তত
রান
ফে
##চছেন
বান
উৎস
হিসা
ওযে
বিসতারিত
##ডিও
একে
রাজধান
অনযানয
বহসপতিবার
শনি
নিউজ
একট
দিযেছেন
পরণ
সবার
থাকবে
##কেট
##ফতার
কিং
বধবার
##চর
আটক
খেলা
জানিযেছেন
##মো
সংসদ
পরিস
জনগ
গঠ
সোমবার
খেল
##শীল
ডাক
শেষে
উননযন
শো
হে
মহি
জয
##মেদ
এত
##লেই
আপনা
পরতিষঠান
পাশাপা
আমাকে
পাশাপাশি
সী
নিরবাচনে
সমসযা
##বাব
গতকাল
বকতবয
##িনার
রিপোর
বিদযাল
শকর
##খান
মঙগলবার
ঘরে
পরষ
শরে
শাস
দকষিণ
##মাতর
বলতে
##িদ
ফের
আসে
##গলোর
##চা
শরী
পালন
মহান
মোঃ
জাহ
হলেও
২৫
হাই
উৎ
##কল
হযেছেন
অনষঠানে
রাতে
চিন
একস
##কট
যাওযা
##হী
মোহামমদ
জার
##he
পলিশের
বিষযটি
মিনি
##পক
গবে
অভিযান
এলাকার
##পরের
##লী
অবশয
ডে
##াযোগ
##বোধ
##দরশ
##ভর
শনিবার
##দধা
পরদান
##বাসী
##পাতা
১৬
##িং
##ew
গান
##কদের
উদযোগ
##ad
##মর
##ডাই
##শর
ওযার
সকালে
সংশ
পায
আহত
রায
অক
পকষ
বাবা
সবাস
সিদধানত
সষটি
##িরা
অনযাযী
##কয
পরকলপ
জিযা
দাম
বাসতব
কমিটির
বিমান
শকরবার
##িড
জে
সারা
১৩
বযাংক
##ামা
খর
##ic
কোনও
##াট
পন
সমমেল
খালেদা
ভাবে
ভাব
##যকত
লাই
লেখা
##করানত
বাংলাদেশে
রাখা
বসে
মযাচ
আহমেদ
##োপ
সংখযা
ইউনিযনের
বযাপারে
##শোর
ফিরে
##বীর
বিশবাস
পরীকষ
জেলার
শিকষারথ
##িকত
ফার
নাই
বিশববিদযালযের
মানব
পরিবার
##েনস
com
##গল
এগিযে
যাওযার
বেডে
বযস
তদন
##িসট
হাসপাতা
লাভ
কেনদরীয
সতরী
##জনের
উদদেশ
ভিত
মারক
আলা
##গের
##যাত
অবসথান
সাত
বিরোধ
দটি
##রেক
বিদেশ
নিযন
যকতরা
গরেফতার
তারপর
হাসপাতালে
##is
বরতমানে
##বনদ
উপল
টে
থানার
বিনি
বিদয
১৭
সহযোগ
আয
##ণয
লো
ককস
হাসান
##াযন
##িকলপ
জল
কাছ
বিভাগের
শরমিক
##করা
বরণ
বরা
যোগাযোগ
##ীতি
চলছে
ঘটনায
ভো
এলাকা
কিংবা
ইতিহাস
##শিযা
গোল
##বিষ
##মব
রাখতে
পরিচালক
##ed
আশা
##শেষ
আযোজ
হত
##ামান
সবাসথয
শকতি
পরীকষা
ককসবাজার
পরাণ
অত
গডে
সাজ
নিযম
ফি
আট
নভে
ঘর
থাকতে
##সর
শীর
বৈঠ
পরচার
গলপ
সমপরক
পারি
মহাস
##জের
সৈ
##াজিক
পরাথম
অবসথায
সনদর
ইনটার
রোহি
ফেস
২০১৮
পশচি
##ঙক
পৌর
তারি
পরাথমিক
##তরীর
##লক
বোর
নিরাপত
মালিক
##খা
##ছিলাম
পরিবারের
যত
সভায
##দায
দিনের
সপার
কাজে
##তরণাল
জানতে
সবি
মোট
##চিতর
পরসত
##িনন
##ews
পথি
করমস
##টস
in
ভাগ
পরবরতী
দরত
বেগম
##পরিয
##গলি
নিজেদের
##িনদ
##করণ
২৪
##তানের
কাল
বেস
চাপ
ইউনিযন
##ভকত
সডক
##পটে
জো
পরিকলপ
ফেলে
ভোট
##পাদ
##েলের
সাক
মনতরণাল
বাইরে
নভেমবর
লাল
বিজ
ছে
##ডায
##পরাপত
##নদর
সনধ
দবার
সামাজিক
হই
##নড
##মত
আবেদন
মোবাই
পারবেন
অঞচ
গেলে
ফেল
ওর
##লাইন
সমরথ
অকটো
কমিশ
সাডে
##চল
##টিকে
সিলেট
টা
কোমপানি
##ধযে
পরেসিড
ভিডিও
সাহায
পকষে
অধিকার
বদধি
##ঠা
রপ
চান
গাডি
##ানতি
অথবা
পল
মহিলা
ময
নব
মিযা
টাই
মসলিম
20
##কো
##গরিক
মারকিন
##বেদ
গরতবপরণ
সথা
##আর
##িনীর
মলয
চোখ
ভরতি
##নয
বিশববিদযালয
##তবয
আহমদ
হিসাবে
একা
##কোর
অনযতম
দার
বঙগবনধ
মেড
শরেণ
যেখানে
ভল
##ৗশ
নগর
চাক
জলাই
##লীগের
##ou
সেপটে
শত
##ানির
নেওযা
আদালত
পাশে
চলা
##গরহণ
জাতি
চালিযে
##বদধ
অপরাধ
ভারতীয
হাসিনা
আরেক
##ion
রবি
##চয
সেনা
জমি
##তারা
##ing
পরতযা
খো
চলচ
এসেছে
কঠ
২১
ফোন
##মধযে
##কারি
সনতান
মাদক
লিখ
আনদোলন
##েলি
খল
সবর
জনপরিয
শহরের
##াসা
সিনে
রোহিঙগা
অকটোবর
কারা
##ঙগি
সপতা
##ততবে
দিবস
মারচ
##ঘর
পেশ
সবী
শবদ
##le
ভাষ
অতিথি
##ঘট
নিরবাহী
পথে
##দির
##বাল
রযা
##হীন
পরিমাণ
অফিসার
শরীর
৫০
রাখেন
শীরষ
##মেনট
##াকায
মখে
২২
বিশবের
##যাক
##রী
লকষয
##ামি
##ছরে
অতির
কমার
ফা
##ডির
##বত
##ীদ
ডিসে
থাকেন
সতরে
রোব
রকত
চরি
খাবার
আসতে
##ইন
##ang
সেপটেমবর
কারযাল
জর
##সিং
করেছিলেন
ভম
মজি
জানায
যদধ
সংসথা
##শের
তাতে
##la
থাকার
নৌ
পডা
মনোন
এদিকে
পরেসিডেনট
অতিরিকত
সচিব
নজর
##িকভাবে
the
আসা
নেযা
##োযার
নামের
সিটি
পরমাণ
বললেন
নিরমাণ
##াতের
পরিবরতন
মির
অধযাপ
বলি
বাডিতে
দিক
দেওযার
##নাথ
পরিবেশ
চায
সনতর
নদী
##াসট
ছেডে
##যোগয
কষতি
নিক
##েনার
সংগরহ
মনতরী
কখনো
মাসে
খাদ
টাকার
উদবোধ
সফ
পরারথী
আযোজন
তদনত
আধ
ঘটনার
তরণ
##যাট
যাতে
##টিযে
আগের
ইতযা
সমমান
মাঠে
ইংরে
##গান
##জান
বাদ
মাই
নাগরিক
বাণ
##ফে
হারিযে
##জজামান
সনতরাস
##লিষট
গাজ
##চছা
সফল
##থার
করতপকষ
নিরাপততা
##উল
আমের
নিযোগ
আছেন
বিশবকা
বিযে
##াসে
চর
দৈ
মোবাইল
##ভীর
পলা
##পাল
##িতয
নমবর
##দরশন
##ফোর
##গরে
অধযাপক
##সিল
অভ
জড
##st
বিজঞান
##ামর
##ষটরের
যৌন
##তেন
হামলা
দাডিযে
##বায
মেডিক
তমি
ধারা
বোঝ
দিনে
অবসথা
বেলা
বিকরি
গলি
মারা
দবারা
##মিন
পরসতা
নিন
##উট
সরবো
সংশলিষট
কষি
পরিষদের
##দদিন
শার
সমন
##ধে
ডিসেমবর
##ফার
##লিক
##কতার
মাছ
##টেড
উৎপাদ
জানিযেছে
##জল
সমযের
আসলে
##ণে
হাসপাত
গাছ
দেযার
জোর
##re
ইযা
২০১৭
লিখে
##রয
##ঠি
উপলকষে
মযান
##শাহ
কাপ
রাজধানীর
মযাচে
১৯৭
পরিচালনা
পরের
##সল
হযতো
##হর
##মিত
সেবা
পরতিযোগ
নিরবাচনের
অরথা
মামলায
মহা
কাউন
নিজসব
হম
##েশনের
পরতিটি
মসজি
টেস
##নত
পরভাব
সমপরতি
##ংস
করিকেট
ফিল
বিপল
মামলার
পরসকার
করছি
an
##মস
সল
দপরে
জিন
নিযনতরণ
সথানে
অরথাৎ
##lo
##োভ
##শার
##লাল
বাজারে
পরযকতি
##মাধয
থাকলে
কষমতা
ফরি
রোববার
##িকায
কবিত
নেয
পেতে
##তবে
কমে
ভমিকা
কমিটি
পাহা
২৩
##হন
ইতযাদি
আবল
বাঙ
আগসট
করেছি
হোক
##েনি
##লেক
আললাহর
যদিও
of
১৯৯
থানা
তারিখ
৪০
পাই
##কষম
জামা
কাজের
এখনো
পরতিদিন
দরঘট
পোস
##কতা
##বাদী
সামর
মসল
পরথ
বিল
পরকাশিত
ভাষা
জাযগা
চিনতা
##বিদ
ছয
অভিনে
নাস
##il
সাহাযয
পদধ
বাল
##ষিক
সহায
##এফ
ফটবল
পাকিসতান
##গরি
গহ
পরাক
সবপন
##রো
সহকারী
আসছে
তোমার
কারযকর
##াতার
টেক
সঙগ
নেমে
ঢাকার
অনতর
##বিষয
কান
মনতবয
##তল
হলেন
আলাই
বছরে
সীমান
কিশোর
ধরা
আহবান
সংগঠন
উচিত
##গণ
##যেল
মেযর
আগেই
##ংক
##কালীন
বযাপক
ফেবর
করপোর
পাস
##চের
জীবনের
পরশিকষ
বিপকষে
পরযাযে
re
দোক
ততীয
কযামপ
মকতিযো
২৮
নো
পরমখ
থানায
আপনাকে
ডলার
##মনতরীর
এপর
দলীয
কযেকটি
নেন
পরবেশ
##বাধ
শিকার
ধারণা
পরিসথি
201
##বিক
করলেন
##দেহ
তালিকা
সবিধা
পরিকলপনা
অযানড
শহর
##েনের
ঐকয
##ঙখ
##ষের
মাসের
এল
পরথমে
##গায
অনষঠান
##am
অযাপ
##কেল
এদের
এসময
সঠ
রং
এখনও
আদালতে
খবই
##েনদর
মড
##গলোতে
অনেকেই
ভয
গরামে
রাম
মজ
##দরে
সকলের
পরতিবাদ
কারযকরম
##িনের
টেলি
এপরিল
ঘণ
সেক
তব
##দীর
পরিচয
অনলাইন
##পনা
##নাম
অরজন
##চক
##তাম
পিছ
##িযার
সৌদি
ঘন
মাদর
##গো
নাকি
চিকিৎসা
আরথ
হযা
২৬
##যদধ
সরবোচচ
ছি
##খালী
##কষেপ
##বিল
পাওযার
##খার
পরতির
বিরোধী
ইর
পছ
মহানগর
##ভত
##কতিক
গঠন
বদ
নিরবাচিত
বিষযক
##ডী
বিনিযোগ
হাল
শহীদ
তোমা
পরবে
পারবে
যাতরী
##ঘাত
##যাশন
পরতিষঠা
নিউ
নিজেকে
২০১৬
##টিশ
সমার
##শাল
খার
##ভাবিক
##সী
অনর
bang
ডর
বযবসায
পরিষদ
বাণিজ
সমভাব
##রাষটর
##ানী
##বধ
বিদযৎ
##কিং
কবি
জানযারি
পরিচিত
##টাল
##বনে
জানানো
অপে
পণয
##পাডা
জমা
জঞ
##বাদের
যথ
দখ
সটে
দরকার
##ডাতে
এমনকি
শির
##সিক
##ভী
কামাল
বিজয
২৭
অভিনয
মাথা
মিযান
এভাবে
সভাপতিতবে
মাহমদ
##ৎকার
দরশ
শনে
##গডা
হো
##শালী
বেসর
যাচ
মিযানমার
বযাংকের
##ot
নেততবে
রেল
জিযার
সাংস
আননদ
দো
করেছিল
##লিযা
ইম
হিনদ
বযবসাযী
শিকষারথীদের
গল
সবামী
##মক
পদে
কেবল
জেনার
সহজ
##িতে
কমপ
##যদ
রব
##কোন
চাদ
পরিণ
নাজ
##িতির
হওযায
##as
##ীকে
বরং
##টিক
##দিষট
যকত
ইতি
শিকষারথী
নিযমিত
##রল
##জনয
##উর
মাও
গড
পরারথ
কমিশন
পরিবহ
অবশযই
##ent
চিতর
বঝতে
লাশ
পনর
সবাধীনতা
নিষ
##et
লিমি
##উদদিন
রকম
জাতির
##শী
##ঙকা
নিযেছে
মনোনযন
বাকি
বাধা
মসলমান
##াসথ
রিপোরট
##লাললাহ
সেরা
##খয
ইংরেজি
পডেছে
##াদার
##ধব
##সতা
##ানস
রকষ
কবির
এমপি
পেছ
অসতর
মেডিকেল
##ol
রাজশাহ
একবার
গভীর
জনের
অথচ
##মির
ভালোবাস
##শিযার
##দেশের
গন
আলাইহি
সিনি
##িতি
##কান
তেমন
চকতি
যগম
এড
##উনড
##মিটার
মলত
##ামের
অপার
ভিনন
আও
##পরা
রম
কলেজের
##কারীদের
রাখার
আলাদা
চলচচিতর
পযেন
##পী
হাদ
##ভো
হতো
মকতিযোদধা
জাযগায
##ur
##িতার
চাম
লেন
##টরে
##ানতর
##ীরে
কাঠ
মিথ
সংর
উদযোগে
##উটার
গলো
বাহিনী
বিকা
বিপর
##ততি
পঞচ
সিনিযর
ছডিযে
নন
আফ
জঙগি
বাডির
রাজনীতি
চাকরি
মাথায
দঃ
##নীতির
একাধ
উঠেছে
পরযোজ
তিনটি
কিনা
বিব
ইসলামী
খজে
##চেতন
ওঠে
পৌছে
পরতিবেদন
জিজঞ
কযান
একাধিক
সঠিক
নাট
সমমেলনে
##াযার
চী
কমপি
দাযের
বযবসা
ছিলো
আধনিক
শানতি
কিভাবে
##ঘা
আগরহ
করমসচি
রাসতা
আকর
দয
বাজে
ভবিষয
বিবে
##ামার
##হাজ
নিকট
সটা
বিতর
এনে
সৈযদ
উদবোধন
##বযে
মিশ
কমিশনার
##িলো
কাদের
##বিতর
হি
পরামর
পরসতাব
পাবেন
একদিন
৩১
জডিত
##নো
##ia
পরযোজনীয
চাইলে
অনতত
দরে
বিদযালয
অনেকে
জনগণের
##ষঠান
৩৫
সমপরণ
অংশগরহণ
টরাম
আসার
জনযে
ইনস
##যনে
বাণিজয
লকষযে
##গঞজের
মাযের
সপর
কিছই
ফো
জীবনে
এছাডাও
##জীবী
বিশাল
কাউ
ইসলামের
বাধয
নিরাপ
অবসথিত
##তনতর
##ষক
চড
চলতি
বিকষ
পরধানমনতরীর
ছাতরী
পরিয
মডেল
##ভোগ
রবিবার
মানে
ওসি
যাই
২৯
মতে
উভ
রিপোরটার
আকতার
খাদয
এইচ
হঠা
খারাপ
অশ
কাউনসিল
আপনাদের
একমাতর
##ঙে
যাদের
সিরিজ
রযেছেন
ঈদ
পোশ
যকতরাষটরের
সমালো
পযা
অভিজঞ
ফেবরযারি
##ওযে
##বারে
news
##ডিং
##ফের
গবেষণা
হঠাৎ
ভারপরাপত
অবৈ
##িশ
##পতার
##তরিক
##ঞজে
অনমো
অনযদিকে
সমপনন
জেনারেল
##যানডের
আরথিক
সই
আলোচ
##টিভ
কিছটা
##তাস
পেযেছে
সেটি
সাংবাদিকদের
রহমানের
আকাশ
হর
কমপিউটার
বাতি
আনা
ঘটন
থাকলেও
##এসই
আসন
পরিসথিতি
মকত
বেসরকারি
##গারে
মতযর
পবিতর
গাজী
##খযাত
##ch
সাললাললাহ
কোমপানির
সবাভাবিক
সিলে
##েনা
তাদেরকে
বিতরণ
নীতি
রাসল
অতযনত
সংকরানত
বলছেন
দেবে
##দেশে
গরেপতার
পেরে
মনো
##id
অবৈধ
##বাডি
##el
থাকায
##াব
বাহিনীর
ঢাকায
দকষ
২০১৫
##ভিস
কঠিন
##াসরি
পাঠানো
অঙগ
আক
চোখে
সাহিতয
##জির
##াযণ
ডিজি
##জেনট
##সথা
সমসত
কালো
দেব
##রিয
##তক
শহরে
ছবির
##রির
সকষম
সরাসরি
##চাল
কষট
পাকিসতানের
##েনড
##িরে
##যাগ
আযোজিত
পরদ
##কষিত
##তেও
মেনে
##যাপী
মখো
ভিততিতে
পরচ
গার
##ওযান
খেলে
ভযা
on
করতেন
মানষকে
##কারের
##বকে
সিং
##ফোন
ফলা
পথিবীর
লাগে
সাব
##লানা
##যাশনাল
আত
পরামরশ
বিকে
##বছর
রেকর
##ro
আসবে
অগর
তৎ
আকরম
কেটে
খরচ
##কষর
নরল
সাকষ
পরকরিযা
##সভা
বিদযালযের
কারো
রঙ
জেনে
পডতে
and
যন
সমাধান
ফোর
##ষটির
আসেন
শভ
সেনাবাহ
##ফিজ
##াকত
কমান
ফাই
টার
বযকতিগত
জাপ
মকতিযদধ
উৎপাদন
জানি
নদীর
##মনি
##াহি
বাচচ
খাত
অযাড
সথাযী
কলযা
পারব
পরসততি
পরতিক
##হল
বীর
##সক
সত
কেমন
ইনটারনে
পযার
##এল
লডাই
ঘটনাসথ
কোথা
##কারে
মাঠ
পরশাসন
রকষা
##সংঘ
নিচে
আদায
করিম
জারমান
দষটি
##কৌশ
##ষধ
ডাকতার
মিনিট
করেই
অধিদ
দৈনিক
##গঠনিক
মেযের
গরপ
গরাহ
##ামে
আমিন
ইউপি
অধিন
##ct
হাসিনার
লোকজন
দরনীতি
##েরি
অরথনৈতিক
কাটা
জটি
ঘোষ
সতযি
যব
##মতি
সহজে
##পথ
পরিণত
মহর
বিজে
১৯৮
##যামপি
অভিযোগে
যেকোন
অবযা
চালা
বষটি
আহব
##বযাপী
##মকে
সিনেমা
পছনদ
পরতিরোধ
##পণ
ইঞজ
সহাযতা
বিযের
বযকতির
##ামল
পরতিবে
জরি
পরশিকষণ
দেশটির
পজি
সাংগঠনিক
আফর
##াসের
যাযনি
নিরযা
পোশাক
##িষট
আচ
ছাড
ফেসবক
##াময
ভাঙ
হাট
বাক
##জনক
অসটরে
সটাফ
ছাতরলীগের
ধান
কবিতা
তাক
তেল
মহাসচিব
রস
ঋণ
ছাডাও
##এসসি
##ধিক
সরবরাহ
সেনটার
সংগঠনের
গেছেন
চযা
জাতিসংঘ
লেনদ
##নিযা
মিনিটে
ভবন
ভোর
উন
দিলে
ঘটেছে
শাম
নী
সবীকার
পথিবী
আবদর
দলে
নিরধারণ
সখ
কোথায
দিচছে
মধযেই
নং
বিকেলে
নান
##দাতা
##বিশ
ধরষণ
সিরাজ
করমচার
ঘম
সারভিস
পৌছ
##সথান
আখ
##িলোমিটার
সেত
ওযান
বযরথ
##মলক
চেযারপার
পোসট
আনদোলনের
সচেতন
মনতরণালযের
পত
##শেষে
##াসহ
জবা
নিরভর
##00
খাওযা
##ইল
##রাফ
বেশির
সমভাবনা
হসত
পরতিষঠানের
দী
২০১৪
##মরা
সমপদ
অধয
ভেঙে
হামলার
পরশনের
বোরড
##গাও
পরেম
সংঘর
গরম
হতযার
তরি
সোহ
চকর
আজি
##ণী
##েষট
সরে
##শনের
বেরিযে
লেখক
খেযে
জনগণ
##তবের
##যামপিযন
ভাষায
এরা
দিলেন
##দিনের
##াকিব
উইকেট
পশচিম
পরতিবেদক
সামরিক
ওযেবস
করী
চডানত
উননত
##ir
##ob
বৈঠক
গোপন
##ঙখলা
মিস
মেহের
কষমতায
##হাট
দপর
১০০
##শবর
আকরানত
পাবে
কযেকজন
রেস
রাই
পরীকষার
বিজঞপতি
ওযেবসাই
করতক
ভমি
বক
সমারট
আইনজীবী
বৈঠকে
বিশিষট
সেখান
রাজধানী
##বেশে
বাসায
##পো
পিতা
##তিত
সাংসকতিক
উপজেলায
টেসট
দেখিযে
পরতযেক
করায
মাওলানা
মযানে
রাজশাহী
আইনের
বসবাস
জিনিস
৩২
##েনটের
কং
চনদর
সথাপন
যবক
কাগ
তী
ধীরে
##াজয
সবস
নিরদিষট
বযয
উচ
বলছে
নজরল
ভগ
পারটির
নীল
কোথাও
৬০
##োনাল
to
##বাহী
মানসিক
ইক
##বনধন
করব
##নিং
কাজী
একাডে
গরন
মহামমদ
সমমেলন
অলপ
##বেল
রাজয
উতত
##লাস
চযামপিযন
চযান
##গীর
কথ
উদদেশযে
দখল
বসত
উদদেশয
খলে
সংসথ
বাংলার
তোমাদের
উললেখয
পালিযে
পেযেছেন
ch
মজিবর
রেকরড
এনড
পরিবহন
সিস
##ীগঞজ
##কিছ
##নিউজ
সান
সমতি
কিলোমিটার
##ig
বরিটিশ
ধবং
মনতরণালয
করমী
বাচ
বলল
একাদ
##বনের
##সান
নবী
##ag
আগন
##বিধান
বিকষোভ
করণ
##যযার
মনদির
ঘা
মিডিযা
দাবিতে
##ছডি
##তিকর
##খানা
মিলে
উপা
উকত
কৌশ
মিলি
##লস
গণমাধয
কযামের
দিনাজ
অধি
##লযানড
যেসব
নিরধার
বিদ
##যত
ইমাম
কারযালযে
তথা
নেওযার
পরান
পারেনি
##ঙগের
##াসি
##কেও
##থর
তলনায
আহবাযক
অনি
আদালতের
৪৫
বায
ধরমীয
চরম
জঞান
খেলোযা
পরকৌশ
সাহে
সহযোগিতা
মম
সামপর
সাললাম
##পতরের
চাহি
বিচারপতি
রেজ
কখনও
অনসার
উপসথা
উৎসব
খন
সমাজের
দৌ
সবে
দেখার
##পাধ
সকলে
বেশী
কলক
তারকা
আদেশ
অসসথ
অবযাহত
করো
##ore
মিথযা
##যাব
দশমিক
খলনা
সমিতির
দবি
##নীয
##িলের
বেডেছে
##ষেধ
##ভাই
দধ
রাসতায
হাসপাতাল
সরকারী
খেলার
দাস
আরব
অধিনাযক
##ভোকেট
চাষ
##est
উপদ
সদসযরা
লিমিটেড
##শিষট
খেতে
##িকের
অনরোধ
##মকত
যোগয
জনকে
রাখে
ডিজিটাল
##ck
পরজন
বলেও
মনতর
##ীনদর
আনোযার
সমরথন
কাট
সমাবেশ
করমসচ
জগ
কংগরে
চিঠি
পেছনে
উভয
বযসত
চিহন
##তানতরিক
##মানের
বোন
##টিটি
লেগে
সাফল
আওতায
##ীক
উননযনের
আশরয
নারাযণ
##গলোকে
নাটক
##িলার
ফরম
মোটর
পরকলপের
##সাই
সাদা
ঐতিহ
##az
ভেবে
##জায
ঝকি
##ধন
পরসতত
ভেতরে
গোলাম
গৌ
পরসঙগে
##িতায
কাউকে
করল
নিরাপদ
পরতয
চতর
আজকের
##হেত
##মনসিং
হেল
ওভার
##শো
নারীর
##জিত
##থির
পরকত
দান
ভাডা
##িকাংশ
পদকষেপ
পয
##লাপ
##ay
বাঙালি
বোধ
তীবর
যিনি
এযার
এফ
অধিকাংশ
উপরে
##জিং
পদধতি
সনধযায
শকতিশালী
হবেন
st
চির
দবী
তাম
মযমনসিং
##দো
##রাম
সাধারণত
পযেনট
গিযেছে
দোকান
কমিল
রাজা
##ul
হযরত
মাহব
বাংলাদেশি
হাইকোর
##ফিকল
##পনের
মেযা
##জঞান
সংগরাম
ধারাবাহ
বিধ
##লিং
নেযার
হজ
পরদরশন
##চছি
সিন
মিছিল
অযান
বারতা
##বলীগ
বী
সেকস
##কাতা
##বিরোধ
নামক
আদরশ
ধনয
পরিশ
সরবশেষ
হতা
ভাস
বাবার
দেখি
মদ
##ut
যকতরাষটর
বিধান
সফর
অনমতি
১৯৬
পরচর
সাকষা
দাবী
সংসথার
তেমনি
ঘণটা
নিরমা
রক
নিযেছেন
ঘরের
দশয
ধারণ
মখয
টিভি
মৌল
বিশেষজঞ
নামাজ
##নালে
আপনারা
##যেনটি
আসামি
##iv
এরই
গাই
চম
##im
মাধযমিক
সপষট
আমির
অনমোদন
##গী
পাখ
বারষিক
পরাচ
মৌস
সিবি
টরেন
অনধ
##াঙগ
নিষেধ
##টারি
ভারতে
পরশাসক
সাধার
হোট
বলেই
সবাইকে
##news
ধরণের
নিরযাতন
ওঠ
মশ
অধিক
করলেও
বযবহত
গতি
শরীরের
##নং
##িলি
হাজির
মিরজা
##ap
খোলা
বেল
উপায
##াজন
পরীকষায
অভিনেতরী
পারটি
ইউন
##ানড
পরতিবেদ
অগ
##গরী
উপন
অদ
##em
##মখি
দফ
##মণ
ঈদের
নিমন
##ভতি
অপেকষা
নিরধারিত
পরাই
##আন
লনড
##গরসত
জররি
##তনের
শারীর
ভোগ
কীভাবে
নিখ
##ফরম
তাপ
শিশদের
চীন
##লোড
বাসতবাযন
##হান
##রেট
##োলার
যাচছেন
##ডো
তণ
পরিন
সরা
টরে
মেশ
##ফো
ছবিতে
কলকাতা
রবীনদর
মহাসড
##সাল
সবজ
##ততর
বোঝা
রাষটরপতি
কণ
##পোরট
ডটক
চলেছে
##ালেন
জানেন
পযান
অনষঠানের
##ভাবেই
##টাকে
বিকেল
নিশচয
কলাব
শাখার
##ভিত
##ঘাট
বরণনা
বযবসথাপনা
আওযামীলীগের
করীডা
দীরঘদিন
##ানয
ডিজ
পরিচালিত
##সতর
টরাক
যৌথ
নষট
##নট
নিঃ
##শাস
মোর
দঃখ
তোমরা
মসজিদ
যবলীগ
##ীনে
কাহ
উর
##বরণ
##ারে
চেযারপারসন
বাতিল
৭০
তালিকায
##টিযা
##নদের
bangla
##দরের
নেতারা
##সেল
##সির
পডার
জম
##সঙগ
##নাত
বলিউ
ধনযবাদ
হিসাব
সিসটে
টরামপ
গবেষণ
ইনডি
##াকরমী
এটাই
ডিএসই
ইউরো
সমরণ
নিরবাচনী
##বসত
মের
বাসতবায
পরবরতীতে
কেজি
শধমাতর
##ation
আরি
সঞচ
আকরষণ
এশিযা
বিকলপ
এগলো
সসথ
উপাদ
বকতবযে
##চারয
গোযেন
কোচ
ইনসটিটি
সনদেহ
##িকান
##সভার
কারাগারে
কেনদরে
আবদললাহ
রযাব
চক
একাদশ
মনির
ভকত
খেলোযাড
জডিযে
আনষঠান
##বাডী
##শিল
##পরতি
বদলে
সংসকতি
পরিষকার
যাতরা
কলযাণ
বরাজ
রাজি
বিজি
##ow
ভাইস
মখোমখি
ডিম
##তনে
বলার
বেচে
জামাল
ওষধ
অসথ
বরষ
বাধ
তোলা
ইনটারনেট
পরযোগ
##দদিক
গঠিত
##টোর
পরাকতিক
##ers
ফিরিযে
লেনদেন
সবরণ
##গলির
বাম
আবহ
পরনো
শরীল
হাসপাতালের
নযায
যেহেত
পররাষটর
গোযেনদা
##চছিল
নারীদের
কট
শাখা
##যাজ
এরকম
##ওযযার
##পতির
জাহাঙগ
##সিটি
লাইন
ভোটার
উদযাপ
হবার
##টেন
##ভেল
##ফিল
২০১৩
চাহিদা
করলাম
##এই
শিকষারথীরা
ইতিমধযে
##জনকে
বৌ
সংশোধ
সদসযদের
অরধ
জারি
বাগ
জোট
ইচছা
শী
##লিউ
মনের
পের
অধীনে
##ণডের
##মবা
ভেতর
ফাইন
চলাচল
ভরম
যাক
##হিত
এবারের
হারড
পরফ
শানত
আনতে
সপতাহ
পরেসক
গযাস
কষক
##কির
##েসে
সামানয
##মবরে
কথায
মরযা
মেঘ
দরঘটনা
##ারের
কনযা
পরশাসনের
th
পাঠিযে
টেলিভি
এজনয
হবি
ইলেক
কমিশনের
দাড
মিলিযে
টিম
রশি
কয
বিবাহ
জিতে
বযকত
বাডিযে
##াজা
ইমর
তৈরী
বিশবকাপ
সমান
##দম
উপদেষটা
##িনদা
নেতাকরমী
নেততব
চিকিৎসক
##বিরোধী
##un
হাও
হমকি
##ab
অবা
জিম
বিশববিদযালযে
ঐতিহয
ফারক
শিলপী
চলবে
কযানসার
##কিযে
নগরীর
ফাস
##কেটে
বযসে
সাধারন
রচনা
পরবাসী
ইতো
লিখেছেন
আকরমণ
টো
জিজঞাসা
নিযনতর
##us
##ামত
##বেগ
সনধযা
আরেকটি
আঘাত
বযসী
জাহাঙগীর
কঠোর
টানা
আসনে
জাল
পরতিষঠিত
শরতে
##ঞচল
অঞচলের
ছাতরলীগ
নিজেই
উজজ
##ce
##করো
বিদেশি
চাকর
ওযারড
শোক
মাদরাসা
জবাবে
হাদী
ওস
##উনি
৮০
রোহিঙগাদের
অজ
শীত
##ডযন
দেড
##টরি
##বাধিকার
##oo
আসনের
যশোর
যাবেন
শরীরে
১৯৫
বরিশাল
টরা
অনেকের
##বাজারে
আলমগীর
মহরতে
ফখ
উততে
##ীম
আচরণ
ইউর
করিযে
সফট
অভিজঞতা
সবাকষর
যথেষট
গোলে
পষঠ
ধবংস
বাব
হাবি
মোসত
সমসযার
জনযই
##েসর
দরবল
শারীরিক
দটো
বিনো
রাশিযা
মেযেদের
পরেসকলা
সনাম
##ীরণ
ফলাফল
ঐতিহাস
আবেদ
সেদিন
চোখের
অসং
দোযা
জেলায
খশি
অযাল
থাকবেন
পরচল
জডে
সযার
টেকস
পানির
##ox
ইনটারন
মিন
পরোগ
দিযেছিলেন
পডেন
বিখযাত
ধারাবাহিক
রাজযের
বযাট
##বযা
জটিল
##নেস
জবাল
গযা
জেল
##ভিততিক
যকতি
নেট
##রাই
read
চরিতর
##নির
সালাম
শিকষার
জব
ডাউন
##লাইট
মাদ
রেজা
for
ঘিরে
নেতাদের
অতিথির
##জাহ
##ইউ
গোটা
##োসিযে
##পাধযায
##বনধর
##যী
অল
মযাচের
দেবেন
সমদধ
রানের
করপোরেশন
শাসতি
জানে
##eng
##াওযা
##কারীরা
##াদা
বাসিনদা
কারণেই
সষঠ
বিতরক
##দরো
সেল
সিদদিক
ইলেকটর
তলতে
ষডযন
নৌকা
গজ
##um
হোসেনের
পাত
নও
##সযের
নযা
##২৪
##জো
খেলতে
##os
ডটকম
লিখিত
শরদধা
জনসং
১৯৪
ওবায
সপতাহে
জবাব
খোজ
বিভাগে
##কেরা
নক
blo
আলহাজ
আড
##গতি
কারড
সতরক
##াজিত
##মাদ
অঞচলে
চটটগরামের
সংবাদদাতা
তাও
অসম
##sb
মোতা
বরাহ
রিক
গাযে
চামচ
ঐতিহাসিক
খাতে
##িসটার
ওরা
বঙগবনধর
সীমানত
পরতিবেদনে
##esh
##িদধ
ইবনে
পণ
একেবারে
ইঞজিনি
##যেত
ইতোমধযে
উৎসাহ
মাত
আদি
ভিততি
##বণ
বেতন
মালযে
##থী
পাতা
রানে
##তানি
বযার
হায
##ামো
যেকোনো
দিনাজপর
##পল
দারণ
আটকে
বিশলে
বলেছিলেন
সতরা
গরতর
##গধ
নিরমিত
দম
ভট
ইকবাল
সোনার
##েনটে
শোনা
পাহাড
##দিক
বাছ
জাক
অবহ
##াপন
##গির
শিখ
মক
শতর
নিষিদধ
টই
বিজেপি
গলা
উপাদান
৩৬
পারেননি
সডকের
##টিস
করবো
more
##হতযা
ওদের
অঞচল
তারেক
##বাসীর
পেল
গরপের
##িকিউ
##শিযান
হোটেল
##ারি
সহযোগী
মিজান
অতী
##ইযা
কারনে
করিকেটার
৩৩
ডিস
সমালোচনা
ডান
দষট
জামাযা
আযোজনে
মামন
ইউনিভার
ঢকে
মেলা
##হারা
সিলেটের
অনেকটা
আবারও
তাছাডা
কিছদিন
##ামীর
##লিযার
করেনি
শিশর
চতরথ
যাব
টাকায
কলপ
মোকা
টেকনা
##চন
মেহেরপর
রশ
সংবিধান
##পিএস
##বাচক
অফিসে
বাডছে
সবকিছ
সেলিম
জনাব
ওবাযদল
পাশের
সবাধীনতার
##ভায
ওযেব
চলচচি
পরসঙগ
সংযোগ
##শত
পরাচীন
##নান
অধযকষ
আরজেনট
সস
চালক
সংরকষণ
##থের
ফরিদ
সিবিএন
ইত
বযবহারের
মানবাধিকার
সেগলো
##ak
পট
আলীর
ইযাবা
৯০
পথক
নায
##পিত
আবাস
##াজঞ
সতরাং
সাধ
পরও
##মায
se
ফাউনড
##গঞজে
##দানি
শাসন
গিযেছিল
বিসি
পতরিকা
চীনের
মাদরাস
চারটি
চলতে
ঘোষণ
##শাদ
সবসময
কিনে
চালানো
খালি
##ov
জামিন
চালায
নিরদেশনা
নিযেই
করাই
রাজনী
করমকরতারা
মকতিযদধের
তথ
সনতানের
সংঘ
##িসের
শিবির
যথায
##উনট
পরিদরশ
##িসহ
সোন
চযালে
কানা
নিল
##খযান
কাগজ
কলেজে
সবীকতি
##জেন
##াকরম
##azar
কেননা
বনদ
০১
একক
মাসটার
বললাম
অনতরভকত
যেভাবে
দরদ
সাগর
বকে
শভে
সীমা
সংগ
##াতমক
ভমিক
অসংখয
শরর
সৌনদর
খানের
##ষিত
যগ
সংসকার
বঝে
সযা
##শনে
কযারি
সবরাষটর
##াতে
শব
বাচচা
টান
খাতের
##মযে
##পেকষ
##বেলা
সাইট
মঞজ
##লাইনে
পরিদরশন
##ডেন
২০১২
##ষেতরে
মোড
কারাদ
উঠতে
লাগিযে
con
অনসারে
##িকস
বেশিরভাগ
রিযা
আছি
শৈ
বোরডের
অভিভাব
বিসফোর
আজাদ
সপোর
সাহা
ডিগরি
হাসি
ভযাবহ
বারবার
মকতির
কষদর
উনি
সমদর
##মালা
বযান
আসাদ
ঘাট
গানের
তযাগ
দেখন
বেধে
অবদান
##শেদ
ফখরল
দোষ
##মতো
ধাক
##িকেট
বিভাগীয
অভিযকত
শরেষঠ
মাটি
##নগর
কাউনসিলর
##কষেতরে
##engal
ইসয
##sbazar
সাপ
এখান
##oxsbazar
অসা
মাজ
হাউ
পানিতে
লাগবে
ভালবাস
##যারী
মাধযম
ইউরোপ
##এইচ
বগডা
নেতবনদ
অপারে
বাসা
##ততব
আহম
অতযা
হাতের
তারিখে
নিহ
যনতর
bengal
##যেড
##বলিক
উদাহ
সিল
রংপর
##তাকে
এদিন
কোটা
##ংসা
##ফট
যকতর
##ra
এতো
মিযানমারের
জযের
সনতরাসী
##মানা
মৌলভী
দাখ
কামনা
পরাপত
চলমান
আশঙকা
গেলেন
তৈরির
ওযাল
সবেচছ
##ub
অবর
সরিযে
পরতিদ
আনার
কলিক
রাসতার
ছবিটি
##তিকরম
ককসবাজারনিউজ
##oxsbazarnews
##ঙকার
হালকা
টাইমস
চিহনিত
##তঃ
অসবী
ফেরত
##তাই
##সফ
ঠাকর
##তাদের
মিটার
##ভাবন
উললেখযোগয
পৌরসভার
##ঞজন
কষণ
##ৈর
থাকি
অলি
##পিএ
##মাতরা
##যং
বাছাই
করিযা
অভাব
কেনদরের
পারিবার
অনস
সচ
হচছেন
টাঙগ
পারবতয
উননযনে
সংখ
৫৫
##চছিনন
শভেচছা
করমীদের
মেধা
বযাখযা
হান
##ist
##যানস
মিডি
পরকার
আমন
##রিযার
জামাযাত
মযমনসিংহ
ওপ
##করমী
টরনাম
##খযক
বিদেশে
##ালির
মোল
পলে
##িসত
তি
##কন
অপেকষ
সবাদ
##ip
সামপরতিক
রাসলললাহ
সফটওযযার
পরাপ
##বরের
সশ
বেন
##দৌ
জের
ভী
de
উপহার
##জনা
##মম
সেনাবাহিনী
হাক
##ink
মেটর
আউট
2018
##মখী
পরফেসর
বিদায
জঙগ
##েশনে
কৌশল
একষেতরে
মেরে
মিযার
৩৪
সটক
##পাশে
পরতিমনতরী
কারও
সহজেই
##িদল
##ভমি
পরযবে
রাননা
ভলে
শকত
##যব
##ঘন
ডাউনলোড
##টাম
##বাগ
##লড
al
##ীব
##লযানডের
পেলে
ঝিন
রশিদ
পরভা
ইব
অসহ
##lad
এলো
২০১১
ইচছে
##বেশন
আইনে
তাডা
বৈশিষট
##মনা
শের
টেমপ
সদসযের
নিষেধাজঞ
ধাপ
##জম
পারলে
##িযাল
জাফর
বনদর
অযাকা
ডেকে
অবশেষে
৩৮
বিনা
##বাং
নিখোজ
পরবাহ
##ছিলো
আবদস
জাহাজ
চেক
ফেসবকে
মানিক
গাছের
ডরাই
##কষিতে
##দলের
ইনটারনযাশনাল
##বরধ
৫০০
পরতযকষ
সাফলয
##ডর
তালক
সাকিব
করেননি
অযাস
##ঞচিত
##যোগী
পযসা
##াধীন
আলোচনায
সমনবয
ওজন
##ঞচলিক
রাতের
শামী
বিকাল
মনি
পরতিযোগিতা
গণতনতর
##টেই
##চালক
চোর
সারবিক
হযর
বরাহমণ
উড
আঞচলিক
##নিষঠ
##বধানে
চিকিৎসার
জযা
সটর
ঐকযফর
এসআই
বোমা
দলকে
আফগান
বিবেচনা
##চারের
সকরিয
##াকের
মতি
৪২
পিস
##লগন
থেকেও
##বোর
##ধিকার
সাহেব
সংকট
তফ
কমিউনি
পশচিমব
রাযের
করপোরেশনের
ঈশবর
##পট
খেলায
বদধির
পারিবারিক
পরই
##ladesh
শনানি
লমবা
পারথ
অনা
গোষঠ
##বিধ
সপরিম
##বসথা
##াদে
হাতি
বিশবে
মাশ
খোক
পরিশোধ
রোড
শনয
##শকতি
তাজ
ভরা
বযে
সথগ
অভিযানে
অভিনেতা
##জনে
৩৭
তালকদার
##ডল
আসি
পজা
কমিললা
আবিষ
আতমীয
is
অভযন
pr
চৌধরীর
সজন
২০১০
ইবন
তাকিযে
যথাযথ
পাট
ঘটনাটি
শরেণির
ফাইনালে
##শান
আপিল
পরতিবাদে
##াইদ
মাংস
তোলার
##কাঠ
ওসমান
৪৮
##শব
##গদ
বিরাট
##ওযারড
নেতাকরম
##টাও
আমেরিকার
রেখেছে
আসনন
##লামা
দমন
পলি
পরচলিত
আসাম
চযালেঞজ
##োগান
হামলায
পিছিযে
রবীনদরনাথ
ফেন
ছিলাম
##িকর
অনলাইনে
চযানেল
টেবিল
বংশ
খনদ
10
উদধতি
bangladesh
মৎ
বিদরো
##tt
গেম
বরাদদ
##বনদর
ভাইর
কযামেরা
শতাধিক
যদধে
কংগরেস
আলি
ধরমের
দজন
সমাবেশে
মযাজ
পরতিপকষ
বিডি
অবাক
সফরে
##টসমযান
অফিসের
মাতরা
পাবলিক
উততরা
##চনায
##টাতে
##চারজ
সনদ
সটেডিযা
ধন
বলেছে
গাজীপর
মোসতফা
পাথর
৭৫
##চাপ
পডবে
রাষটরীয
পরতীক
সংসদের
বহন
সংক
##সমহ
কলাবের
##ফাজ
sh
##ফাই
উদাহরণ
পনরায
##ঃপর
মিলিযন
বৈধ
ওযেবসাইট
টযা
আলোক
##তলা
করয
পডছে
##রিদর
ছিন
বিশবকাপের
গণতানতরিক
সরকারকে
কব
কারন
কাপড
তহ
কলাস
ভাষার
বিনোদন
কষতিগরসত
পরতিবনধ
হমাযন
তালা
##পস
কযাপ
tit
ইতিহাসে
সবজন
বিগত
সিসটেম
তণমল
##বিনি
ভযে
করতপকষের
গোপাল
পরতিদবনদ
আওযামীলীগ
##ঙগার
পরযাযের
শযা
তৎকালীন
##দিযা
আলহাজব
বাজেট
সমাজে
পরতযাহার
নাগ
তাৎ
সপোরটস
##শির
পাচছে
উদযাপন
##th
বযাটসমযান
ওযানডে
বিপরীতে
দযা
দেখানো
বিজযী
শিরোন
রাজনীতির
##24
দরঘটনায
সবলপ
##দানের
##ess
##াজযের
উপসথাপন
বৌদধ
ফেরার
পরোপরি
##পরয
ডাকা
##তিতব
বিকালে
কষমতাস
হবিগঞজ
লেখার
আমেরিকা
সালা
সাডা
শিব
বিচারক
শরণ
বাবল
##টারে
পাব
##ine
##and
পাযে
##গি
সিরিজের
জযে
মিলনায
নিরযাত
আনদোলনে
##শিকষ
##ment
কের
##বরত
##নতরী
যানবাহ
সংগরহের
তখনই
পরকৌশলী
##জডে
শনতে
দরজা
পকষের
দিযেই
জরিমানা
নিবনধ
দিত
এসেছেন
ঘটনাসথলে
##ঙকর
##েসট
মরযাদা
সতরীর
বানিযে
কলিন
##ঞচে
পারলাম
দাযী
ঝল
ইমরান
নেটওযার
গরহণের
যাকে
আমদানি
গগল
কষমা
শয
ভালোবাসা
অনসরণ
শরম
কারযালয
অনসন
উজজবল
বাজারের
বিড
রফিকল
সটেশন
আজকে
##চিন
রাঃ
ভবনের
করমকরতাদের
আইএস
২০০৯
আসামী
কই
তালিকাভকত
##our
রানা
করলো
অপরি
##ডাক
রহসয
গেলেও
শক
রোজ
অসবীকার
দিযেছিল
bd
পরেরণ
পরজাত
##তনা
১৯৭১
মৎসয
খাওযার
##সেনস
হরি
টেমপলেট
##িতব
খায
বেছে
কলকাতার
মোশার
জানাতে
জোটের
##ততবেও
##আপ
নযাশনাল
রাখন
##বদে
ফাযার
হযেছিলেন
আসল
পরতার
পালিত
##ালীর
গাডির
সাইফল
করমকা
বলগ
বিনামল
##রাণ
সটার
মীর
##হাদ
সনা
##ter
##মাস
বযথা
##বাসের
সডকে
মৌলভীবাজার
মাটিতে
একসচে
টেনে
গম
##যদধে
খনদকার
মখের
অযাডভোকেট
সঙগীত
link
##ফিজর
আলোচনার
সিক
ভাষণ
রিস
বযাক
##চনার
সাজা
ওযেসট
অজঞ
জাতিসংঘের
গি
জাহান
দেহ
##পতয
উদদ
##od
হযত
##পথে
ফেডার
ফলের
সিএন
##বলী
ঘনটা
দফা
পরতিষঠাতা
সেনাবাহিনীর
পরতিবেশ
##হির
জমির
##কালের
সরয
অরথনীতি
সাময
##িদর
##ষটরে
কণঠ
আকা
একসঙগে
তোর
আলোচিত
বিছ
যেত
সথগিত
যেটা
জিযাকে
যদধের
বজায
ষডযনতর
পদারথ
পতাকা
সেম
হিম
ভেঙগে
মৌসমে
ছাডাই
রহল
পাখি
আউ
হদ
হতযাকা
করমরত
রহিম
রাষটরের
পরথমবারের
হেরে
ধরতে
৪৩
দেখেন
পরোগরাম
নোযা
উপনযাস
মেশিন
##যারে
##োষঠ
০০০
পদতযা
মাসদ
সোহেল
দিচছেন
সাহিত
কারি
##ভেন
ফেলা
##মাল
নিযনতরণে
ভযান
তারই
কতটা
হোযা
টন
##লীল
পরপর
##রাফি
ছাপ
##লির
মোটরসাই
থাকছে
পরিচালনায
সৌনদরয
সবাগত
##করমে
নারাযণগঞজ
একর
পরযোজনে
জেলে
নেতাকরমীদের
##ভাস
ছটে
মাটির
##পিং
বরগ
বিশবকাপে
##২০
##ind
ততত
ফয
তান
বনদক
কালাম
২০০৮
কারখানা
মানের
নিরপেকষ
আডাই
পরষের
সহিং
আলাপ
বিজিবি
বাংলাদেশকে
##বযের
টরাই
সমিতি
বাজ
দাখিল
##পাশের
মযানেজার
এলে
দিলাম
ফযা
##বাবধ
নিরী
##দাযের
৬৫
ফরানস
যাচাই
শেযারবাজার
##রিযায
ঘোষণার
ছেলের
বিনামলযে
গরনথ
শরেণীর
মাহবব
ইবরাহ
সমপরকিত
উদযো
জনস
হারে
ইউনিট
সততবেও
##op
উননতি
মতোই
মসলমানদের
সামনের
##যানট
নেবে
মিজানর
শরীফ
##পটি
শরমিকদের
জিত
আহসান
ইতিহাসের
বিবতিতে
ছোটট
সষট
অসাধারণ
##াতন
রঙের
ধরেই
##বলম
ইহ
ইউনিযনে
৭১
বিকাশ
অনপ
ওরফে
জাদ
পোর
##iz
ডিভাই
মানববনধন
অরথমনতরী
কষমতাসীন
সরমা
বিচছিনন
পরযটন
##বিনদ
ছটি
কপ
ডাযা
শামীম
##দদীন
গরামী
নাসির
নিরযাতনের
শরত
##নর
উততোল
##বাসীদের
মরদেহ
##নটের
ডাকাত
খনি
as
রীতি
মিলনাযতনে
৩০০
##ate
পরেই
উপভোগ
##লেস
##ডিতে
ইসলামিক
##পদ
শতাবদ
পরাকতন
সংযকত
দেখেছি
তৎপর
পথিবীতে
বযবধানে
পেশা
খাতন
সঞচাল
অবরোধ
সনধান
সঙগী
##নাল
সাকষাৎকার
পরাজিত
গরামীণ
সবামীর
দাডিযেছে
মিষটি
সবেচছাসে
##ইট
##সাথে
তোমাকে
ভাইযের
আবহাওযা
##জয
##াতত
পরশংসা
##েকটর
৩৯
সপতাহের
নিচের
নিষেধাজঞা
ফজল
ভিতরে
ছো
##ওনা
শঙখলা
অনবাদ
করেও
##সকে
পরিবরতে
মখযমনতরী
পঞচা
##ww
ভরমণ
##ণডে
বৈশিষটয
ইনদ
চরিতরে
সারব
কাটিযে
রসল
গেলো
সংবাদমাধয
নিরাপততার
খরি
##কলা
যাবত
খাল
মমতা
##বাডিযা
বেগ
অসহায
##ততম
যগে
##িও
##িসটর
পরবল
সমারটফোন
পরকাশের
ফরে
##বাসন
##ail
ফোনে
সংলগন
বযাটিং
করমীরা
বরণিত
মোসতা
সংগীত
টেলিভিশন
ভোটের
সবারথ
বদর
খজ
হেড
মাদরাসার
##দত
আইনশ
শীরষক
##করণের
##কারীর
শিকষকদের
সমপরদাযের
পরতিশর
##সিম
##যাতরা
উললাহ
কবর
সংসদে
সলতান
জমিতে
হামিদ
জিজঞেস
নগদ
##মীর
জনমদিন
সতযিই
কাছাকা
রাশিযার
##বরে
##েনডার
##ডন
##োদ
চমৎকার
##যারিং
নদীতে
ইনড
তামিম
গডা
গোলা
এরশাদ
কাছাকাছি
নিহতের
পরবের
মও
যাবার
মানবিক
নিচছে
##গামী
খেযাল
##িযায
হারডকোর
ওকে
ইজ
মিশিযে
ককষে
ইফতার
পদমা
উম
নিয
অংশে
উততম
দরশক
বীজ
ইনসটিটিউট
##টকে
##তনতরের
উদদেশে
মহল
##মাতে
##যাপত
কমানডার
ইংলযানড
আনষঠানিক
কৌ
##ামলক
পরতিকরিযা
রাজসব
বিদযালযে
বাসত
১৯৩
##বিন
উদবোধনী
পদধতিতে
সালমান
মতবিনি
পরযটক
নিরমাণের
সটেডিযামে
হদয
জনগোষঠ
সমপরসার
##োনালড
সাতকষ
bengali
হচছিল
##পততি
করআন
৪৭
##জিও
##বলের
বাডতি
একদল
www
##লেকস
##ষটা
একের
পডন
ঝিনাইদ
ধরষণের
##বছরের
পরদানের
##শিলপী
ইনিং
জাকির
ভিটাম
আমলে
এসএম
##ওযাত
এমনি
##নেল
##িযাস
টায
##যারের
সোনা
পরেমের
বাদী
##রিটি
##শাখ
৪১
##if
যৌনসঙগ
কারযালযের
সিংহ
মৌলিক
##টিন
পরবা
মরি
##সিড
বাডা
##যেনটিফোর
কষমতার
সেসব
##করের
ইনি
পারছেন
পালটা
কোড
##কেনদর
সমমখ
তবও
পণযের
##জাদ
মেযেরা
চারজ
ডাল
দেখলাম
পাডা
শিরো
বরাবর
শটিং
পরতিযোগিতায
সরবস
দেশকে
##টেলে
টিউ
লাইসেনস
পরযালো
আসছেন
পাসপোরট
চিক
লাগা
সিদধান
বিশলেষণ
হাদীস
##াড
পরতিনিধ
টেকনাফ
##ীবন
আগরহী
এযা
পাচার
##টেক
হিজ
৪৪
সমভবত
ফিলিসত
ফাইল
তফসিল
##দাযিক
দরিদর
টের
পযারামি
নোট
ال
একথা
গরি
দবীপ
অবসথার
সথানীযরা
আবারো
টিকি
রাসেল
পযারামিটার
আমিও
রাজযে
পরিমি
গঠনের
সংঘরষে
অনযদের
পরিদরশক
বিসত
##বাসে
পরষদের
##পনে
সদয
ভবিষযতে
কিনতে
সংখযক
##ps
করমচারী
আগেও
বাংলাদেশী
জিমবাব
##যারা
মিলন
##ানায
un
ভাবনা
ওযারডের
আগামীকাল
কোরট
বানদর
অভিষ
পেন
ইট
কপি
অভিনন
##নিযার
##ামম
##বাধীন
সমপরকের
দঢ
বযারিসটার
##ভের
আকার
সমগর
অসটরেলিযা
##হিদ
ইনচারজ
##ইং
tits
বিনিমযে
##পরেস
মহাপরি
পাযের
অতঃপর
৫২
পরযকতির
যবলীগের
বহি
মঞচ
সেমি
##লেম
লকষমী
##মবে
##টিফ
সনত
গৌর
ভিটামিন
মতবিনিময
কারখান
##চছেদ
অযাক
রাহ
গেলাম
মারাতমক
পডাশো
কমপকষে
##িকো
মেহে
##জাহান
তততবাবধ
##ort
সপারিশ
##পরাধ
মেজর
ইলিশ
সংসার
##ভেট
অধিদপতরের
মতামত
##টেডের
গলায
রিজ
সিরি
রিযাল
মনা
##াকারী
##ারস
নিত
রাজনীতিতে
সের
কায
থে
সভয
বাংলায
ডো
মিশর
19
পিক
পিছনে
আরা
##ঞচি
পির
যৌনসঙগম
মিনার
##থান
মযাজিসট
##গতিক
কমিযে
নাক
বিদেশী
শাক
দতা
ইচছ
সবই
বাঘ
মসজিদের
পরতিষঠানে
##বরতন
কমেছে
ভিততিক
পরেসকলাবের
হাইকোরট
মেল
করতো
পতরিকার
চাকমা
মাদার
ইভ
৪৬
গোস
পরতযাশা
উনার
##টল
সমভাবয
বিনিময
ধাককা
শযাম
htt
বিলি
সিনেমার
সভার
পরিবরতনের
##ডিত
বউ
সমাপ
আযের
উপসথিতি
খাগডা
##সিসি
সবজি
হলদ
করমসচির
বিদযমান
সাঈ
মাননীয
জযন
ভেসে
মসজিদে
সতরের
##টিও
সষটির
বরাজিল
অপারেশন
##ভিল
##শিং
ঢক
বঞচিত
##বহার
##োরে
অনভব
##ঝো
সোশ
sy
জাতীযতা
##তপর
শরি
##তানা
পরাযই
দিযেছি
মেযাদ
##যাযের
ভইযা
##াইজ
বিপলব
##লিতে
বাচা
ওপরে
কাশ
আনিস
##যানের
##টনে
ভবনে
বিপদ
সোশযাল
জানালেন
বিএস
লিটন
be
উপাচারয
pro
লিখতে
সেট
পঞচম
দলটির
উপযকত
বকস
দরনীতির
বডো
##িসির
বযকতিকে
পডেছেন
কডি
অশলীল
নেতাকরমীরা
করতেই
কমিউনিটি
বাডাতে
জনক
সবারথে
পরতিষঠার
সমাপত
##যানা
দরযোগ
শপথ
পাচটি
ফরান
পারথকয
মালযেশিযা
লোকের
সিম
নিযেও
ভাবতে
##বাগত
জানার
মদর
৫১
ইউটি
ঊর
##াজের
সকর
গরহন
##দেরকে
টেসটে
ডিভি
সভাপতিতব
সোস
অবসর
রণ
নেতরী
ইমে
##জাল
জজ
দোকানে
বলছি
ইরানের
##মহ
পরকতি
বিধি
দকষতা
##টনের
মারকে
##ome
নিবনধন
মেন
আপন
বইযের
পরিবেশন
কাচা
বিকরয
দলটি
আইনশঙখলা
##যালি
ওঠা
পরিসথ
ফসল
থাম
হাওযা
দাযে
##বিযা
রেখেছেন
খাবারের
জনতা
আইডি
তিনজন
ঢাক
৫৭
##মমদ
##কাম
পারছে
##বাজ
রোগের
নাযক
আজিজ
পারক
গবেষণায
দের
কাজেই
টরানস
কানে
হোসাইন
নাজমল
নিশচযই
খাই
তীর
মসতি
মনোনীত
সিই
##াতায
সেকরে
ফাইনাল
##ik
##ভবনে
##যেম
সেটাই
টরামপের
ডোনালড
নিউই
সমপকত
en
মাছের
ডাই
##পতরে
দরশন
মারকেট
কামর
বিচারের
##িকযাল
##জিৎ
পরাঙগ
##হাই
উলটো
চাপা
ভিড
চাওযা
জামাযাতের
করমসং
চাদা
বাগান
নেতত
কাহিনী
আলোর
দীপ
tr
লট
কোরিযার
পাঠক
সাদ
অদভত
কলম
##ick
ইসরা
নেতার
আজও
রোধ
কষোভ
রেজিসটর
পরকাশযে
বাসের
##বলিউ
##ছার
ঝড
পাকিসতানি
যোগযতা
পজিবাজারে
রাঙ
পরাইভেট
দপতর
দেশীয
##গড
পাকা
##ধী
বনদযো
দাডায
ইলেকটরনিক
সতন
পরতিশরতি
ind
তন
##orn
আযাত
কিছকষণ
পললী
##সনের
দাশ
মোললা
হারা
বাডতে
পরিসং
বিপরয
উততেজনা
একাত
দইটি
লযা
ফেলতে
পারফরম
করিকেটে
##যেনস
টরাসট
##পষট
গরাহক
##টারের
##ষী
গণমাধযম
##রফ
একসময
দেখবেন
গবেষ
৪৯
তোলে
##িরো
##উললাহ
মাথার
##হাব
তারাই
সংরকষিত
নিউইযর
কাতার
বৈশাখ
অনষ
মজিব
পেরিযে
মাইকরো
##জীব
নই
##লোক
মহাকা
ডাঃ
##যাযন
অনসনধান
উততরে
পডলে
আইপি
##av
চটটগরামে
করিস
সমঝো
খামার
কাক
গদ
সমী
সতযতা
ককষ
ar
জযো
পরসঙগত
মোটা
অটো
কাসট
তবকের
চিনি
উচচার
##চনদর
পরিসংখযান
কযাল
##art
পরবনধ
##ly
পরকৌশল
ডিজাইন
ভারী
ap
সেঞচ
##পারে
একদম
##ভিউ
ফটে
বাতাস
জিযাউর
##বারষিক
উদদীন
পশচিমা
লিমিটেডের
##বারেই
##qu
ঝাল
যাওযায
নীর
##টিত
বিহার
দাও
##পরাণ
সেনট
সেমিনার
যাচছি
সেখানেই
হানি
কামরল
হোটেলে
অসটরেলিযার
##রকম
##বিজঞান
দেবী
##বনদি
আতমহতযা
গিযেছিলেন
##গরা
মঠ
##ডিযাম
ঐকযবদধ
সাহস
চিকিৎসাধীন
##িদের
##og
৬৪
সযাটে
কযেকদিন
##ণাঙগ
বাণিজযিক
পাচছেন
আমেরিকান
আবেদনের
দিবে
নেততবাধীন
ডট
উদযোকতা
আঙ
আরবের
or
##বিস
বনযা
পালা
ইঞজিনিযার
তরাণ
মেসি
রোনাল
blog
পরযবেকষণ
##যানডে
ডেভেল
হলেই
বনধদের
আরে
##বাংলা
##রাও
ঝাম
সবচছ
গরী
অনযের
জররী
রপত
##োসিযেশন
অভিযোগের
তলা
দাযিতবে
টাইগার
মযাজিসটরেট
মফ
করছিল
##যোজিত
জহির
লাইফ
বিজঞাপন
রোমান
মেযেকে
##ah
যো
পদতযাগ
ধারায
##টাইল
হজর
ভরাময
ভাগয
তারপরও
চেপে
আনসার
##তাহ
##নদে
বরে
টরাফিক
নিরবি
আসথা
সিঙগা
মজমদ
মমিন
নযন
সরদার
সংবরধ
লক
জনপর
অনির
বিকরে
##কষণের
এলাকাবাসী
সিকিউ
##দেশিক
এমনই
রফ
সংবাদের
শোভা
##টিভি
চিৎকার
খবরে
##oc
##তরীণ
পৌরসভা
পরোট
আবিষকার
##মনির
##জিযা
অম
সেবার
অগন
উইকেটে
le
শযে
রাষটরদত
ইউএন
পরিত
জমে
বযাগ
বদল
ইতিবাচক
নিযকত
বিরাজ
পেযেছি
মহমমদ
হসতানতর
##বিহীন
##দীপ
যানবাহন
টক
রমজান
একেবারেই
মাহফ
অবসথানে
##সাললাম
##গেট
ad
উনমকত
বেদ
লবণ
পরেমিক
যানজ
আগনে
পরশাসনিক
সপরশ
বিমানবনদর
##ওর
কারাগার
৫৪
##টেল
শকতির
হইতে
অবি
জনমগরহণ
sp
মশফিক
লকষণ
শিরোপা
##পাতর
##ost
##রাত
অপরদিকে
অরথে
নিচ
হাকিম
ভিসা
লিগ
বযবসাযীদের
২টি
##াইযা
ইসি
বযাংকিং
টিকে
ঘণটার
পরবণ
উঠছে
ককসবাজারের
##বাদে
দারিদর
এশিযার
মেডিকযাল
সংশোধন
সেজনয
জলা
##গাজ
সাহাযযে
পতরিকায
রয
##থন
করমকরতার
সংলা
খানিক
##তাব
ওযাসাললাম
আবাসিক
ভোরে
মাইল
##ex
ph
৫৬
পরযায
ঠিকানা
মোটরসাইকেল
চপ
ঈদল
##দণড
বোলিং
##সবর
ছাতরদলের
চাকরির
পরমাণিত
তাপমাতরা
বযকতিদের
বযবসাযীরা
ওযারলড
অভিষেক
কাদ
আনতরিক
পছনদের
রাজজ
ইউনিভারসিটি
পরিসথিতির
যদধা
##ভির
##সটিক
কচ
বলিউড
##লিপি
৭২
চট
##ণডা
নামিযে
চাইতে
খযা
অসতিতব
ছাডিযে
নিরমাতা
কাজটি
বকতারা
মাননান
আকারে
জাপান
হস
##ity
##রাট
মিতর
শট
হেলা
বিবিসি
পেটর
তম
করমকান
##বিদধ
ধরেন
রেজাউল
বললে
##সকের
ভরে
লজ
ফাউনডেশন
বিষযের
রপানতর
অতিকরম
সাউ
##বিশবাস
##সটার
অফার
##ষয
বলক
উপকার
আমনতরণ
অনভতি
সমারক
ধানের
মিনিটের
মাকে
বযবসথার
##ডেট
কোমপানিটির
যোগদান
করছিলেন
##যালী
##হরণ
হতাশ
##বারতা
এডি
##িতিতে
নরেনদর
টিকিট
তললা
বেড
নৈতিক
২০০৭
তাস
##ঞচলের
##ঙগিত
নানান
দতত
##কী
বষটির
মহাসডকের
পেট
জগন
রাখবেন
অসমভব
ফিচার
ওভারে
শান
পরম
দাডা
ডবে
##ie
এইসব
বগ
ইংলযানডের
fr
বাইরের
পরিসথিতিতে
ছাযা
ধা
বাসে
ভবিষযৎ
##ীপর
৫৩
পরিমাণে
২য
আমাদেরকে
অধিদপতর
আশরা
হেটে
আমল
##িযাম
দফায
পরিবেশে
কারাদণড
থাকন
পরাণী
পলিশকে
##ষার
ভদর
পরযাপত
মজার
##নতি
##তরিত
রবেল
উইনড
কখনোই
রফিক
ঘনিষঠ
ইপিএস
জবদ
শাসক
ভিতর
লযাপ
হেফাজ
##ib
##ফির
মহিলাদের
অযানডর
নাশ
তবক
নাযিকা
কেনা
সারচ
বাসতবাযনের
দেখলে
জনি
উপকরণ
গরহণযোগয
##বনদরে
নেইমার
২০০৬
পাঠানোর
বাডবে
ভমিকমপ
দাগ
##বলে
আসাদজজামান
##কটর
ভাতা
অংশগরহ
শাহজা
ইউটিউ
you
##ud
০০
বাডানো
আবেগ
এভাবেই
বডি
অনিযম
ইউরোপীয
পরিযা
টাঙগাইল
মোশাররফ
##চিং
##পনথী
জযী
সমযই
পাপ
সবেচছাসেবক
বিভ
অপারেটর
##লাদ
অনধকার
##টপ
কালি
পেস
সিকিউরিটি
সহযোগিতায
অননয
পরজনমের
শাহজাহান
ভীষণ
ইনিংস
মেলায
যদধাপরাধ
##িযান
বাডার
চলন
নাটয
করেছিলাম
সৌর
গনধ
বিবেচনায
গভর
জাস
কতি
গাডিতে
গরর
২০০১
কলকাতায
১১টায
লাগল
নৈ
এশিযান
রকষার
by
যবদ
পরারথীদের
সচনা
##কসহ
টযেনটিফোর
যকতরাষটরে
ex
সিরিজে
পিতার
##কাতে
জৈ
সারাদেশে
ডিবি
নেবেন
পরতিনিযত
বযসের
টযাব
সোহরা
পরকতির
করলেই
বসতর
পালনের
##ঘরে
##াসত
মখপাতর
12
দরগ
রোগী
আরিফ
চেষ
যাতা
পযেনটে
মরহ
খরিস
থেমে
ওঠার
পরেও
কালের
অরথবছরের
ছিনতাই
##বছরে
বললো
পদক
জগননাথ
দাত
পৌছা
সাকষাৎ
বাডানোর
সৎ
আফগানিস
গরা
সাংসদ
কিউ
অভাবে
মণ
শীরষে
##যাতর
মানষদের
বাডী
##যোগে
##ছাতরী
এডিযে
##যানে
বিকরির
সংঘরষ
উৎসবের
কবিতার
জবালানি
অনমোদ
##টিই
##igh
পরানত
কলপনা
হইযা
পাঠা
বলেছি
কেনার
ফস
চেহারা
##ামনতরী
লনডন
করমে
11
অরজনের
ঘোষিত
কমল
অং
##ানার
রাব
উততোলন
one
বাগের
##ডাঙগা
পরিচি
বাশ
এসএসসি
##পকষে
আদা
রপতানি
১টি
জনপরিযতা
শহিদল
চলার
ফটবলার
ধোন
মহেশ
##যেদ
ইনিংসে
কস
ফোনের
দেখাতে
##নিবেশ
ঘটনাসথল
আধা
##কষিপত
পরিমান
পরারথনা
##হাজার
১৯১
সাইকেল
মেজ
তদনতের
বেডা
ইউনাই
পারশব
অনেকটাই
পরাতন
অবকাঠ
##িপ
রমে
##uck
ঝাপ
মহাপরিচালক
ইনসটিটিউ
উখ
খাগডাছডি
কমিউন
##গলিতে
অপেকষায
সিপি
মনতরিস
নিম
##ধারী
একাডেমি
##লীর
সংলাপ
১ম
ইঙগিত
কলো
লাভের
##াকষ
পারস
তাহার
রোগে
পাহাডের
ঢা
রাখবে
চাপাইন
ইউএস
সিএনজি
হাজী
একসচেঞজ
ধরন
রোগীর
আগর
##াজনক
##eb
শাহজালাল
##োনো
##কলে
শিকষিত
সশসতর
শলক
হকের
পরতযে
পিত
হিন
১০টি
শিলপের
পরচেষটা
আশরাফ
হযেছি
ঠান
চাপাইনবাব
##ামাটি
তই
সমমিল
##শাসন
পরভাবশালী
নিযোজিত
রেড
সহাযক
কচি
রেডিও
##হাতে
চামডা
সিভিল
##খালীর
কোরটের
চালাতে
ডাযাবে
পরদিন
##হতি
##ies
৩টি
ধরার
পাঞজ
পরিচিতি
সবপনের
শবাস
নরম
wor
মেমবার
মরা
সমপততি
সোসাই
##ফন
খস
আনষঠানিকভাবে
সংকষিপত
রিমান
##নাহ
ঘরণ
বরধ
আকরষণীয
খরিসটা
পারছি
বকের
##রপ
নোবেল
##কষার
নিনদা
শাকিব
কথাও
##কষক
দশকে
বহততর
মাদরি
##২১
বিজঞপতিতে
ওমর
##ld
খতি
ঝামেলা
বাপ
এডভোকেট
আইনি
তলনা
লিও
মজা
আসর
চেতনা
চলচচিতরের
চালানোর
নেটওযারক
৫৯
ইউসফ
##ংকর
##বানী
##মপনন
কথাই
মিউ
কবে
নারীরা
##াকস
উপলকষ
চরচা
##ভাষা
কোরস
সংসকরণ
ইরান
কিড
তারাও
চলচচিতরে
রকমের
উপরের
সনামগঞজ
অকষ
ঘোর
পডাশোনা
শিক
লেখাপ
শাহাদ
জানাই
উঠল
তৌ
মজমদার
##বেলায
পরভতি
অমান
##oun
অগরগতি
পরিবারে
নেশ
পরচণড
আকবর
অতযাচার
##ard
কনফার
অসথাযী
১০টায
##দেহে
##ংকার
সাফ
##দধার
আপাতত
পডল
বারসেল
কোরআন
বানা
শফি
ডাটা
শাহর
##াযিত
##বৈ
রোজা
ভিক
ফরানসের
##ংকা
অপহরণ
চীনা
পাইল
##শিপ
##বলিত
গবেষক
সকলেই
অটোর
রেফার
##মেন
উঠবে
এখানকার
মাশরাফি
দশকের
##দধি
কষটিযা
শরেণী
ফজ
টপ
দিনবযাপী
##তোষ
লঙ
টেকন
নাচ
দরঘটনার
বজর
অনশীল
পরানতিক
সচিবাল
সামগরী
ঐকযফরনটের
শবদের
##িট
অরডার
চকরবরতী
পরন
বিভর
##job
একসাথে
সরবাধ
একদিকে
সিডি
##োলজি
গলপের
পররাষটরমনতরী
শরতেই
##সঙগে
খোকন
টেন
ইউনিটের
##েট
##কতরা
##িনাকে
ওযাশিং
অভযনতরীণ
গাইবান
আফরিকার
সামপরদাযিক
এসেছি
আহমে
সংসকতির
শানতিপরণ
কালে
কোরিযা
রযাবের
পরিমিযার
বিলিযন
সযাম
জমিদার
হরাস
টরি
জেগে
মেলে
##ীনগর
অষট
ঘটিযে
##টারস
ভটটা
নিলে
##ook
বযকতিতব
যেই
বলব
অযাকাউনট
##ive
দশম
০২
কষেতর
রাশি
চেযেও
অজঞাত
মাযা
পীর
পতন
##েনসের
জনে
মরতি
লকিযে
##ha
##োড
সবতনতর
আতা
তরসকের
টাইম
ফটো
তির
তিনিই
বযাপারটা
ইনডিযা
ডিভাইস
অপরাধের
পযানেল
ধযে
৯৯
সাভার
ছড
##াসটরি
সবরাষটরমনতরী
ভাত
##যাংশ
আতঙক
##বিজঞ
##কষট
সরঞজ
বিমানবনদরে
মেসে
সাজানো
##যাযে
লঞচ
জনযও
সকলকে
বহততম
##ue
##গাছ
পটযা
##ঙকের
চলের
গণয
রাজজাক
##মাত
নড
বোলার
৮৫
খরিসট
উদবেগ
৫৮
আগষট
কতজঞ
কাচ
নমবরে
##ামটি
নেপ
মঞজর
মঞচে
পরেকষিতে
রিজভী
বযবসার
মগধ
হরত
##দশ
##োত
নামবার
বেকার
গরাহকদের
অযাম
##াকরমে
##কিল
সারটিফ
৬২
অভিভাবক
সথল
কাবয
##ঘাতে
##োনা
নিপী
##সাগর
সহয
বৈষ
দেই
হেলাল
##শরে
মিরপর
টয
বাঙগ
আপততি
##ামমাদ
সনতানদের
ইঞচি
দদক
##দরা
যাতর
##বিষযক
পরজাতির
হাযদার
নীতিমালা
৫টি
সনে
আখতার
পরণাঙগ
হারন
পাবনা
রাগ
##বাহিনী
বসিযে
তালে
##করে
উপে
##ice
সারাদ
৯৫
অচ
রচিত
ঐতিহযবাহী
মেগা
cont
অরধেক
মহিলার
##দেব
ঈমান
ওযেবসাইটে
৪টি
সামযিক
##মলের
অবন
ডলারের
পরতিবেশী
বিরত
নাগাদ
মাহফিল
দিযা
নাও
পরতিযোগিতার
দাদা
বটে
অরথবছরে
সমসযায
সৈনয
ইবরাহিম
পরজে
চকরিযা
আইযব
চেতন
দিনটি
##লোযার
##ith
পরারথীর
সযাটেলাইট
সঞজ
আলোকে
##জঞা
ফিলম
##লাভ
৬৩
ধো
মছে
পারিনি
ঠা
কারযকরী
পাডি
##িকষে
##aj
##ণার
যাচছিল
জলপ
##কটি
মসতা
দেশি
সীমানতে
কডা
##ামপর
coxsbazarnews
এতদিন
ঘষ
##coxsbazarnews
সিবিএনcoxsbazarnews
ঠিকই
সংবরধনা
বলগার
যাবতীয
৮৮
মেলার
ইংলিশ
##বসথায
দরদানত
সেঞচরি
##কাঠি
দিবাগত
অবহিত
ওযাই
সমমেলনের
সদরের
ডির
সলতানা
##ac
কযলা
কাই
##ain
##ant
যগের
##ংযের
##বাড
##চরয
টোযেনটি
সংখযাল
অভযাস
কষতিকর
##সথানে
টিক
নবীগঞজ
মায
পরদরশ
৬৬
এজ
সিদদিকী
মেধাবী
লাগছে
পাযনি
শিগ
বিজেপির
ওপেন
কোমপান
##যেজ
am
জামাত
আদাযের
নাটোর
বলবে
##পকষের
গণতনতরের
বট
তথযপরয
wh
কলি
দেবার
দরগা
দদ
##সিন
নিরদেশে
##se
দরতব
##ide
##থিত
সনাতক
ইনডাসটরি
হযানড
পরিচালনার
##োতে
সংসদীয
আছ
লাগানো
ভালোবাসার
৬১
কথার
দবনদ
মিউজ
মারধর
##িতিশীল
কমাতে
সেকষেতরে
##পলে
##ঝি
বযবসথাপ
##েও
নেতর
##বকের
বিবরণ
##োলডার
মাহম
সীমাবদধ
##কষাপ
মেহেদী
##পিকে
সমনবযে
ঠানডা
##পাট
যাতরীদের
মাঠের
আশরাফল
অযানটি
জনসংখযা
##াযনিক
ঘাটতি
মণড
গারড
একানত
চাদপর
সিলেটে
বনদযোপাধযায
##বতত
আশে
ডেপটি
করোযে
মানবতা
##ষণের
আবর
সাতকষীরা
উনমো
কমপলেকস
অটোরিক
টেল
##ঘয
চালান
বাঙালির
বযাল
দণড
ফানড
এজেনট
##টেবল
মাসিক
##বরষ
ছাতরদের
শিগগির
অসথির
কনস
এখানেই
পরযালোচনা
বিসতত
##লাতে
শহী
মিডিযায
এসি
গলিতে
মনস
##ধবতন
বানানো
##নেতরী
off
শিশকে
অসবি
##িলমবে
##পরধান
##সথল
##জীবন
হাদিস
আফরিকা
##লাক
##চাত
##লয
##শেম
পেশাদার
ইউরোপের
শরেণি
অলিমপ
রেলওযে
##হাত
##লাদার
১১টার
দেযাল
চকতির
শিকষারথীর
##শিত
নগন
সাঈদ
##ভাগয
নারীকে
দনিযা
রই
মভি
সহাযতায
##াইনের
হাবিবর
লিংক
ইনসট
সেনটারে
হদা
পাহাডি
##উদ
##টরিক
ভৌ
##পাক
18
৬৮
চলাচ
নিরবাচনকে
ছডে
রতন
পরেকষাপ
সিরাজল
দশক
ইঞজিনিযারিং
ইংরেজ
সোজা
শনেছি
সংখযালঘ
##ডিট
উপকল
কতর
##ফামার
মালিকানা
##তরি
রহমানকে
বিভকত
গরভ
৪০০
রাসাযনিক
উপযোগী
পরবণতা
ওখানে
অবিলমবে
রকতের
শেষের
##উদদীন
যকতরাজয
আশবাস
##ডস
##wjob
মযানেজ
ডায
##বযবসথা
নাগরিকদের
পষটি
নিউজিল
পরতিবনধী
জগতে
##তাডি
শফিকল
আকাশে
তেজ
সচক
ইবাদ
##ast
আসরে
##াতক
কোযার
200
##বহল
ঝিনাইদহ
মহিত
পরিপরে
##ষটার
##দানে
চমক
বিপরীত
অজানা
অপসার
সমমানিত
করিকেটের
বোনের
##িমা
সমমাননা
সোযা
৬৭
##up
২০০০
আঃ
জোরে
নীলফামার
জোডা
সারটিফিকেট
পলাতক
বনধর
পরদেশের
পরতিষঠানটি
এসেছিল
টিপ
গরত
##one
এবারও
চন
ডিফ
নিঃশ
ফলাইট
ফরাসি
অরথায
বাহা
পরতযকষদরশ
##end
পরচারণা
ফেলেছে
হাইকোরটের
অভিননদন
আইসি
নিতয
কষয
১৫০
মোদী
০৫
##বনার
রোডের
পকর
পডিযে
##হয
জনগণকে
আমিনল
সাহিতযের
মোজ
সমমিলিত
##শনার
অধীন
##বারক
পেলেন
##বিড
যাদ
সাউথ
##মানিক
আববাস
যনতরণ
লোকে
ফলাই
ইউনাইটেড
পেযাজ
সবাগতিক
তাডাতাডি
##যোগাযোগ
কংগরেসের
##মতে
##ওযাজ
তহবিল
সবাকষরিত
##সভায
করমশা
##জঞানিক
তততব
সরবনি
টরাইব
হতেই
এএস
##উনডার
দেরি
অসবা
te
##হতযার
অভিযানের
ভোটে
কনটর
গোলাপ
##রাতে
পরতিবছর
ইযাস
বাসস
এমনটা
##াজে
##গরন
কাছেই
রাজার
বলবেন
তাহের
##গাহ
##তীত
ভারস
এখনই
আহতদের
সটেট
মনোযোগ
home
জোন
ঋণের
পেলাম
২০১৯
দেযনি
পরযাত
শাহীন
ফেই
নজ
##ভিযে
০৩
বহৎ
জলবায
দরশকদের
কাঠামো
##খের
০৮
##োনেশ
কেউই
নেতি
লেগেছে
মেম
তাৎকষণ
ককর
যোগাযোগের
অধিকারী
##মভ
অংশের
শবদটি
রাজনীতিবিদ
বইটি
##দারি
নিযোগের
গবেষণার
পরসার
শফিক
বিনিযোগকারীদের
অনপসথ
বযানড
আযে
নওগা
মযাক
##ঈন
সমপরদায
দেখায
##শিযাল
সোহা
বরিজ
হিং
##বোরড
বালিকা
##লেকসে
পাঠান
##ীকার
বারের
বাসতবাযনে
করিতে
বেঞচ
##পারট
##ong
একজনের
জাপানের
ঢে
মনডল
যবকের
৭৩
মানেই
সনির
বাসার
অরথের
ছডা
##বাণ
সেখানকার
বঝি
হোম
নীচে
ওযারডে
চেমবার
পরতিরকষা
নকশা
##ারথীদের
##ীবী
ইশ
দেওযান
নিচছেন
##ণঠ
ফিট
ইঞজিন
আবির
নরসিং
জাগ
আহমেদের
##পনন
সতযিকার
করানো
পরতিদবনদবিত
কারিগরি
দইজন
##ফোনের
দিলেও
টকরো
কডিগরাম
বদধিজ
##যকর
##টেও
##ধারা
সিআই
উৎসবে
বৈদেশিক
##চারী
মোডে
মনোনযনপতর
ঈদে
যথাকরমে
থাইল
##তিনি
##মিং
জাতীযতাবাদী
আরজেনটিনা
ডেভেলপ
##het
##চিৎ
শহীদল
তরটি
##own
মিঠ
এনামল
দরভোগ
##শরম
পরশনে
পরিচছ
##পালে
গোলের
বালি
##বাহিনীর
রাজাকার
ফকির
দেশগলোর
##গলের
এসেছিলেন
একসপরেস
গপত
বখার
বৈদয
##ডিযার
বলন
জাহিদ
নিরমম
##সমহের
বলিউডের
দজনের
কথিত
বরাহমণবাডিযা
রবিউল
সপিকার
পরিবারকে
ঘটছে
০৬
ঔষধ
টরাইবযন
শিকষকের
হাউজ
##ালার
##ঞচলে
উপলকষযে
হযেছিলো
##sh
বাসতবতা
চেন
হাফে
উডিযে
ভিকষ
নথি
করমসচী
বনদি
ইনদোনেশ
করমসংসথান
দিবেন
##দিবস
গী
বিদযতের
দিললি
বসা
শযামা
নিযেছিলেন
আমীর
বিতরকিত
আলমের
সমভাবন
##পরিষ
আযা
লতি
বকততা
সেতর
করমচারীদের
##সময
##ian
##এব
পলাশ
ইতিমধযেই
কষেতরেই
আমদান
সবিধার
১৯২
##সেবা
দেখেছেন
দরবত
##কমার
২০০৪
নাজিম
বাচাতে
##কামী
কিছর
##িকল
সমর
শরীয
##খানি
##তবরে
সমপদের
আজকাল
টাওযার
##বলমবন
রওনা
গহীত
একপর
##তানে
blowjob
বোতল
সমাধ
কোহ
##ish
রাহল
মামলাটি
##টরের
##ঙগী
হাড
০৯
অবাধ
লিঙগের
যতন
অপরাধে
সাফলযের
পরিশরম
বযাংকে
ইযর
পনঃ
অযাপলিক
##ডিপি
ফেলার
বহির
##বাজি
##যপ
খেলাধ
ছাতরীদের
শরীলঙকা
শল
মলযাযন
আনে
উদদিনের
২০০৫
সপেশ
মোটামটি
মমবাই
পরণযন
সচেতনতা
কযাটা
পাথ
সমপরসারণ
মতযতে
ইভি
সরবনিমন
##েরও
##ফাযেল
জাননা
বকষ
চলেছেন
মধযপরা
অমর
ধারয
ফাউনডেশনের
ভালোভাবে
নযাপ
জবর
নিলেন
বরযানড
বৈঠকের
বকতবযের
হানিফ
জলে
০৭
বসন
##load
আবে
টরেড
লিঙগ
হাওলাদার
সথির
##ঢয
শানতির
দরবয
দেহের
##খো
অতএব
ডেসকঃ
সমবনধ
পারবো
নিলাম
১৯০
কিংবদ
আরাম
নোযাখালী
বেলায
##ফিন
##ill
দাদ
##নামলক
##লিযাম
জামে
কযামপে
রাশেদ
ইসট
##নেতা
##দলীয
##যাসে
সঙ
সামরাজয
বাবর
সমরথক
হট
রনি
নবাব
হাফিজ
ভিজি
##ভেদ
জেরে
অযানডরযেড
আতমসম
৬৯
তলায
আদর
চাচা
০৪
সতরীকে
অসবাভাবিক
দলিল
##যেস
##িললাহ
পৌনে
লাগলো
বিটি
ফেরদৌ
পাড
##শিকষা
মহিউদদিন
এদেশের
চতবরে
##পরকাশ
জালাল
ভমিকায
রাউনড
##বারষিকী
গণপর
ডরাইভার
আরবি
মহাসডকে
বিসিএস
সাইফ
হোযাইট
ডিগরী
##তামলক
খাস
##দরবয
মদরা
##ফোনে
নেতিবাচক
জোরদার
সমঝোতা
##india
নেতরকো
সৈনিক
সমমখীন
syl
লাঠি
পরদরশনী
##বলি
##িনির
পরবী
পরকাশনা
বহাল
##পাস
অংশী
##খিত
##মপদ
নেপাল
সনদরী
মেকস
মাইকর
বৈজঞানিক
কিস
##ামরিক
##পাড
অরথনীতির
বাণী
জনসা
সথানানতর
##যালা
বেডাতে
শরণারথী
##age
ধারার
রকষায
##কমি
গডার
লিপত
বাত
নিষঠ
ষষঠ
বিগ
ফোরাম
একজনকে
অধিদফ
ইফ
সরল
পরপরই
অবলমবন
ফেসবকের
##েদ
##ডিসি
ছেলেমে
মোহন
কষকদের
আননদের
করাতে
##ial
চারজন
রেসটর
##মহা
বরাত
পাকিসতানে
সমরাট
বরিট
আধি
##line
বাডে
লিভার
ফিরতে
ঝর
##নাই
সাইটে
মধযেও
কমপলেকসে
থিযে
##বধি
আদিবাসী
বিশববযাপী
চাপে
মোসতাফিজর
##আরসি
নাসিম
শিকষামনতরী
##জনিত
কির
লৎ
রফতানি
পষ
সিসি
##মেলা
পজ
##এমপি
সফি
সথাপিত
জামাযাতে
##পাতে
করতব
##োসিযেশনের
##তলী
##ust
৭৮
সাববির
৭৬
দাপ
##পয
ছেলেকে
লোকেরা
লডাইযে
মনদ
কাটার
বাসতবে
অধিবেশ
##এর
সৈকত
করনেল
শাডি
oneindia
জানযারী
নামায
হারাম
আরোপ
পযাকে
দিবসের
ফজলল
আমান
গানটি
বঝিযে
পরিপরেকষিতে
আরিফল
কনট
ধারাবাহিকতায
সনিরদিষট
নিরমল
সবভাব
পশচিমবঙগের
##ীহ
সথাপনের
আসেনি
পিসি
তততবাবধাযক
ভাবেই
শীতের
কপিযে
সরবাধিক
##all
নোটিশ
গোষঠী
##তিকে
বাকয
একশে
কতরিম
সফলতা
কৈ
উপেকষা
কেডে
সপেস
পরথা
##কষন
কযাডার
sylhet
comment
##ততির
মানস
৭৭
নিজেও
মহরত
তথযপরযকতি
সারভিসের
##বিযান
সঞচালনায
কিছতেই
পরথমেই
কমলা
মযাগাজ
ধাপে
জযেল
খনের
পষঠা
বিরোধিতা
##চযত
সবযং
কারযকরমের
৭৪
ভাং
##খযার
সেকরেটারি
আযোজনের
##সাদ
সরবতর
মেহ
##কেলের
জসিম
বিজনেস
##মিট
ডিসি
##পাতের
বহল
এখ
এনজিও
সাহিতযিক
দালাল
উচচারণ
লনডনে
রশীদ
ইতালি
##ight
বিসময
জারমানি
যেটি
ইউনিভারসি
উদভি
যতই
গযাল
##শরী
তদনতে
##ঙগিক
লিঙক
সংবিধানের
আরাফ
শোন
##উস
খযাতি
হাবিব
রপে
উচছ
বিজঞানী
১০টার
পরতিনিধিঃ
গণিত
পিন
লোকদের
সাকষয
##গোল
তারপরে
কোরবান
মনোভাব
ঘোষনা
with
##রাগ
ছক
ফিলিপ
সোনালী
জারমানির
##ওযের
##াইলের
থাকত
পরকরিযায
##ect
ভযাট
রাজধানীতে
মিউজিক
পরজঞ
শনাকত
শাল
মসা
আইসিটি
সাইন
জিল
2017
শামসল
##ঙগন
আইনগত
##ষটান
দিলো
মালটি
##মণড
সমবায
লেক
অনপর
কাপর
ধানমন
##ber
তথযের
পারট
ভেন
##লিযাস
##হো
কমন
শও
সফরের
সংঘটিত
মগ
করতাম
লই
রোগীদের
ইসযতে
সঙগেই
খযাত
সলোগান
লালন
ছট
বিদরোহ
সটরি
ইসলামি
গাজা
পরজনম
পরভাবিত
কবীর
##বিডি
আগমন
১০টা
মেইল
দরের
বেঙগল
তোলেন
উননীত
যানজট
থরি
আশপাশের
সেতমনতরী
সীমিত
##সথানের
বনধের
##দাস
আশায
দেখছি
##পাডায
সিদধানতের
##ভবন
উততীরণ
me
##কাশন
অনমান
বরাজিলের
ঐক
পরিপরণ
মাদকের
##যরত
মিশন
বনধরা
##ামমেল
নকল
উচিৎ
##ততবিক
পাইলট
গণমাধযমে
সমরথকদের
পদের
##উডা
বিষযগলো
৬টি
ভরতির
রানী
মাতা
শিখে
##গরসথ
অনেকগলো
সিনড
উইনডোজ
00
জীবিত
হাটতে
বকর
হলের
15
##gr
মালা
ফরিদপর
রিজার
রোহিঙগ
জলের
##বততি
বযসক
সিনেমায
গাজীপরের
গজব
মলযের
রাঙগ
ভাসকর
বরহ
পালটে
মঠো
কফি
ডেই
আহমমেদ
পাতায
কমারস
সংবাদমাধযম
অবকাঠামো
পাডার
down
মোতাযেন
চারা
পাওযায
পেশার
কথাটা
##যাণ
শাসতির
মতদেহ
সংসকারের
ছযটি
##দবী
পেশায
বেনাপ
সমনবিত
কযারিযার
বিষণ
বনধতব
জামান
সপরি
##সযর
##পরদ
##পাডার
সোহরাওযার
##তিকা
পেটে
লযাপটপ
##ওযালা
মালেক
দিচছি
উপসথিতিতে
রাখাইন
##বরগ
ছাতরছাতরী
রাউজ
সালাহ
ধারনা
শাখ
পাননি
লাইভ
লযাব
আধার
সেরে
ঘরোযা
কাগজপতর
সারাদিন
করআ
বৈষময
ফিন
আশচরয
##ষম
করমা
এটাকে
দৈর
উপার
ডিরেকটর
নিকষে
এহ
ইল
তাকা
উদভাবন
মাইন
মলযবান
##েজ
নীরব
ঘমিযে
##াজযে
আনমানিক
তরণী
##সেন
##োপলি
অযালব
##বাসথয
ফারম
হজরত
পরিচছনন
গাধা
১২টার
৮১
চালাচছে
পরাস
চত
ac
দবাই
খানিকটা
ইসরাই
বযানার
মিলিত
জগতের
হারট
দরবততরা
বিরল
বিশেষজঞরা
কমিললার
সটযাট
মলযে
খালেদ
টেলিযোগাযোগ
সথাপনা
আডা
তললাশি
চিত
বযাটারি
এবি
এমনটাই
নবম
দখলে
##লামে
##টারন
হযরানি
৯৬
ফযাশন
##াকী
দৌল
গরেনে
সাইবার
কিতা
মালাম
৯১
মিডিযার
শরীলঙকার
পরতগ
সপেন
আশর
ফেরা
শেরপর
টরেনিং
##নাতদন
পরাজয
কতটক
পরসতাবিত
24
##ওন
বিবি
##রেস
গেট
পরাথমিকভাবে
##পাতি
পরিষে
জযেষঠ
##টারী
it
পরিকলপিত
ডেন
হেসে
জনিযর
সঠিকভাবে
মযনাতদন
চলছিল
সভাপতির
ছটির
বযবহারকারী
বিজঞানীরা
নাটকের
##যাযিত
পরবীণ
সায
সবগলো
##বাহিত
রেশ
বিবর
ঠে
ছেলেদের
গোসল
ভঙগ
##বিলে
বিমানের
লস
##ালা
বিলপ
অষটম
মিশে
পরিবহনের
তাহা
##ওযাল
বিচ
লিগের
ধনী
পরোনো
বলযাক
##োকত
টারগেট
##দেক
কাস
সবয
ঠাকরগাও
সমাপনী
ফিরোজ
বালয
বহিষ
আগস
উপাযে
ভান
বেই
##ছো
১৯৯৬
লং
সাহেবের
পরচেষ
শওকত
ফেলন
চাইছে
উপমহা
একইভাবে
চাকরী
সাজিযে
যাতাযাত
অবৈধভাবে
##নাকে
মকতিযোদধাদের
জাপানি
##ছির
মরগে
উস
বিষযটা
##বরষের
যতটা
ঘরতে
##সীমা
##যারির
জালিযা
নজির
রাখি
বেসামরিক
গতিতে
ডিপ
শিগগিরই
কও
সাকষী
বানদরবান
##ধরনের
নামকরণ
সাপতাহ
উপলবধি
খি
এযারলাইন
বযতীত
পরদতত
##িযেল
জেন
পরাধান
মসতিষ
##জজিত
হালিম
কিশোরগঞজ
কযামপের
##যাতরী
মনাফা
টরেনের
বিআর
মাঝারি
এটাও
তখনও
বযাকতি
মকল
পরতিফল
##মিনি
৮৪
পরভ
উডে
##যানো
আসলেই
চযামপিযনস
হিউ
হিল
দৌডে
শতাবদীর
রেজি
sc
টরনামেনট
দাডাতে
পরদায
শতভাগ
হাসিনাকে
রট
তলেছেন
সজনশীল
porn
পরযোজয
বৈচিতর
##ver
বগডার
pre
উগর
রন
মেযেটি
কারখানার
রজ
মোতাবেক
##ানট
##ভয
কমিউনিসট
তৎপরতা
##নতর
বিনদ
আপডেট
ইসলামকে
চেযেছেন
ইনসযর
ফাকে
##উটি
##ঙগিনী
ফেনী
সীমানা
হতযাকাণডের
মেটরোপলি
সকোর
##খাসত
রাযে
ফাকা
লাইনে
কযামপাসে
বিধবসত
http
##কেত
##তেমা
গির
২৫০
##সাহ
জাকার
lat
##বদের
অনরপ
##যাসের
মরত
এযাড
সনি
রিভিউ
##ism
##েশবর
পিরোজ
##সবরপ
গলিবিদধ
ফারসট
পরদা
আসছিল
কষেতরেও
আওযাজ
বাকী
দেশটিতে
আইটি
ঝকিপরণ
##ans
সটোর
##কীয
মকতিযদধে
ভাইরাস
৮৩
চটটো
টযাবলেট
ভযাল
পরারথীরা
সিকদার
ঘরণি
লর
জিবি
চিনতার
একশ
বযতিকরম
##ভিড
রাযহান
##ভাবিকভাবে
চলাকালে
বাতিলের
বততি
সরকষা
সরঞজাম
হাফেজ
আলাম
বিশেষভাবে
##জানের
চালের
সমাধানের
সংঘরষের
তিনিও
অপরের
কাশেম
সাকষাৎকারে
শতকের
জঙগিবাদ
ওব
হাউস
জবল
আডডা
ঢো
##vi
করতবযরত
জনপরতিনি
একেক
চালিযেছে
বেহ
##নাট
কলার
এলি
গরেনেড
##ামনি
ইনডিযান
করমকাণড
ভিযে
সাপতাহিক
##পরবক
মালযেশিযার
অনরধব
পাঞজা
গলশান
শবশর
##মারী
অসবিধা
##পিড
সাকষর
পজো
শরা
অনপরবেশ
পথের
ডেভেলপমেনট
##রপে
হসতকষেপ
##করি
সপযান
বডযা
##হাম
শরমিকরা
সরযের
অংশীদার
যাও
##ভেজ
কতব
একমত
এলেন
##থযের
at
অতর
সমপরচার
আদম
বযবহারে
##হাটের
পাঠাতে
উচচতা
##বানি
সেকেনড
৮৬
কষতির
বাদে
##edia
মোবাইলে
নশ
মিড
নতয
দেখছেন
##গতির
ইভিএম
বরষের
বিশববযা
লোকজনের
অভিনযের
গানে
করমশ
আরজেনটিনার
গালি
আজম
ab
সপতম
##ষন
তোফাযেল
আধিপতয
দিতেন
ঠিকাদার
হরতাল
মইন
পশর
গানধী
রিট
##জিযাম
শিকষাপরতি
ঠাণডা
জনসাধারণ
পরদেশ
ফেলেন
আনতঃ
তের
বোল
জনমের
বযরো
গযাসের
বিজঞানের
সাকষাত
উতথা
চিকিৎসকের
কাজল
কমবে
গারমেনট
##গোষঠ
সমবনধে
মালামাল
মারকেটিং
শরীম
##নিযায
দনিযার
##বাসীরা
লেখেন
পরোডাক
সেটাও
##ষঠানিক
##ack
##কিট
bo
অধযায
শামস
তরিপরা
সিরিযার
##জিন
১২০
কোমপানিটি
তলেছে
শিশরা
ফটবলের
পরাধানয
সাথেই
##সথলে
লিগে
পাগল
মোরগ
সমহ
দামে
পরতিনিধিতব
কোচিং
জিমবাবযে
দফতর
ভালবাসা
অতীত
##ওযেল
বিদযা
মোন
সচি
নিযেছি
ঐকযফরনট
উঠেছিল
সনতানকে
download
##ংগ
৯৮
##াকাল
##বনির
##ংখ
যেগলো
ঢেকে
তিত
গলোবাল
সিগারে
চরির
মোকাবেলা
করমাগত
পরবাহিত
বেলাল
খজতে
পরবদধি
কসম
##টিযার
##সথানীয
সহীহ
##ঙকে
ঘটতে
বিদরোহী
জযপর
ডাকে
16
##াজি
চেযেছিলেন
##ug
অগরসর
করক
মতই
##বানের
পরবর
পশচিমবঙগ
মযানেজমেনট
##তোর
সোহাগ
রোনালদো
ভাইরাল
শযামাঙগিনী
##বাদি
##পরবে
অবসান
ডার
আঙগ
নযনতম
##ঞজি
সহিংসতা
tim
জাতের
পেপার
ভোলা
লজজা
##ata
ফরহাদ
মামা
বাবাকে
এইচএসসি
মোজামমেল
মাঝখানে
বাহার
রযালি
গলাস
পরাণের
দেলোযার
পিপি
##খিক
ধারে
টিন
মনসীগঞজ
৭৯
##ণায
পরানতে
এটিকে
##পাঠ
কযাপটেন
##মারি
আগাম
বযব
নারাযণগঞজের
সোহরাওযারদী
সমি
সাতটি
বণ
অগনি
রণবীর
বসতে
আইসিসি
মাইকরোস
পরবেশের
ঢেলে
একটাই
টরফি
চিকিৎসকরা
জনগোষঠীর
আললামা
পাখির
আননদে
ওঠেন
##িনিউজ
দৌড
##মযের
কালী
ইউএনও
তলনামলক
পশচিমে
হেকটর
না৷
##নাশ
শরো
মরে
##ৈরয
রিপন
##কষী
নাহিদ
পাতার
সাবধান
রাতেই
দিনাজপর২৪
লাগাতে
he
দজনে
ভটটাচারয
মেটরোপলিটন
পোল
কথাগলো
ঠেলে
শিশন
জযনাল
৮২
কটনৈতিক
হলাম
কীর
লেখায
রকতে
##পাধযাযের
দষটিভ
হযনা
আসিফ
দত
দলাল
##কেলে
সরবা
জনতার
মযদানে
##10
রহমত
তেমনই
সাযেনস
ফান
মেঘনা
##দিনে
##ঞজার
ইসম
কাশমীর
লেখাপডা
অযাপলিকেশন
গভরনর
##মলয
gr
##তেজ
২০০৩
পরকলপে
শিরোনামে
##aper
গলশ
গরেফতারের
##ীপ
ওপেনার
বারো
যবককে
বাচচার
কৌত
কোযারটার
##ংরা
##নোর
সটেশনে
##দরোগ
সামগরিক
লিপি
আনিসল
ভারসাময
বিপলবী
জিজঞাসাবাদ
উৎসাহিত
ডাযাবেটিস
us
কযে
পিপ
রাজশাহীর
কক
জানাচছি
চেযারপারসনের
##যাযী
খসডা
##সরা
রোল
পাতর
বিবেক
ছাতরদল
মঈন
##ure
ভাবা
সপেশাল
শতকরা
ধমপ
উখিযা
মযমনসিংহের
##কলযাণ
৯২
জোগ
নেপালের
##গলা
##ary
বরডার
দোকানের
ঝা
##াযনের
##াইর
##োজা
সলি
##তবা
মসত
##ামানয
সনতষট
##যেনট
জেস
মতযদণড
বলতেন
আসবেন
উৎপাদনের
মাধযমেই
তীরে
করিনি
অপমান
১৯৭৫
বযাটালি
ইনসটল
##পরব
মনতব
হারিযেছে
##ফলে
ভাগে
টেকসই
im
কযামপাস
দেশটি
শরমা
শিরোনাম
অভিহিত
খোর
হদরোগ
বরণা
নামা
পরকরিযার
##চী
বারষিকী
আলেম
সিরাজগঞজ
বিলডিং
জানানোর
যাতরীবাহী
ইদর
চৈ
বিশবাসের
হযেই
হতাশা
সটি
মনসর
সবাভাবিকভাবে
##ous
সমালোচনার
##কসের
লাইট
##বিতত
লেখকের
##মেনটের
##শবিক
জরিপ
ভরসা
##পরিষদ
হিসেবেই
কযেকবার
চিং
সহিংস
চকরের
নৌকার
##বলমব
হোসেনকে
মসলিমদের
পরিবেশের
পারশববরতী
দষটানত
হয৷
তেলের
গণহতযা
##গলিকে
ইসরাযে
বঙগোপ
জাগর
online
বরেক
বসতি
কতো
পানীয
যকতরাজযের
##মরতি
যমনা
##ory
অভয
কাউনসিলের
ফাহ
নিস
কিডনি
##যদধের
##শালের
মরিচ
ওযাশিংটন
##বিলা
আগত
সরি
##মিযা
কলযাণে
অপারেটিং
বসানো
qu
দাওযা
বেসরকারী
পডেছিল
এএফ
অনেকদিন
অনিশ
##ite
##াদি
এমপিও
বেনাপোল
সবিধ
আকাশের
অহ
লগ
##কাটা
পিএস
তণমলের
##তিকার
হাফ
ডেম
##সভাপতি
হিট
হিনদি
পদধতির
ঘটনাসথলেই
কাধে
মনতরি
বিবতি
সঞচয
##শিলপ
বরবর
অবহেলা
বযাবহার
##ঞছ
গণসং
বাগেরহাট
পাউ
জট
সনতরাসীদের
জডি
সয
খেলনা
পরযটকদের
সংকরম
ঘরণিঝ
বিরকত
##ডেনট
আবেদীন
পরেমে
নিহতদের
##লেখা
পরষদ
জনসংখযার
##শায
বিশেষত
অমিত
নজরে
মেতে
পেযেছিলেন
মাঝামা
বাচচাদের
ঋত
লঙঘন
লালমনির
পরমান
সারি
দষটিতে
কোলে
##গণের
ডাকতারের
মহাকাশ
অনশীলন
গরপে
বনদী
অভিনীত
##ফাত
ইমি
from
##ction
বাজেটে
পিটিযে
কমানোর
লনডনের
ফোরামের
ইনভ
লকষযমাতরা
মহামমাদ
চরিতরের
সমরথিত
খোদ
গহবধ
অনমোদিত
বরজন
অঙগীকার
অধিবেশনে
##বই
দেননি
ভাঙা
vi
কিশোরী
অনযানযের
##লিমা
##াসতর
new
##লেশন
নামতে
ফেরি
মাদকদরবয
মনদিরের
ভরামযমাণ
রাষটরপতির
গডো
উৎপাদিত
অবনতি
ভযঙকর
বাটা
ধাওযা
ঊরধবতন
##নীতিতে
পেই
ফড
করেতা
জিপিএ
ইহদি
##ছডা
গিযেছেন
রিসার
হিসেব
সহসভাপতি
শেযারের
বারান
অনতরগত
সহকারি
মারফ
##are
##যালের
##৭১
অনদান
দতাবাস
বিসিবি
জাজ
##৩০
পারা
ধীর
কাঠের
উনমোচন
##বনধনে
সহযোগিতার
সাহসী
##সমমত
কোল
ফাক
পাহাডে
সদসযকে
সরবপর
17
রেখেই
##যেদের
পরতযাখযান
নিউইযরক
সংকল
##ঞচার
দেখছে
টইট
পটযাখালী
হব
জিমবাবযের
##সেট
পরশাসকের
তরণদের
তিস
শাহরিযার
##কষমতা
ইযার
লাউ
মলযবোধ
পরিমা
থাকতেন
ছাপা
##বাজারের
শাহরখ
ইলিযাস
অরজিত
সংলাপে
পরোগর
বনযার
পরতিরোধে
অঙক
রসন
পরতিদবনদবী
india
বরণাঢয
##দাযক
মযলা
গাডী
##ভিং
জানিযেছিলেন
মরহম
আরটি
দদকের
##ace
হাইওযে
হইবে
ফলযা
পিঠ
##বিধি
জিও
মিটিং
পরীকষারথী
##বিসতার
পডি
পরতী
25
একইসঙগে
কলাবে
##ধযকষ
এদেশে
ঢকিযে
গাছে
বযবধান
রিজারভ
নিকষেপ
##মাণবিক
##বানধব
লোহা
##মেট
চাকরিতে
সবীকত
দলগলোর
সেদিকে
টাইপ
বিবেচিত
মনিরল
এডাতে
আরবে
নামাজের
ধৈরয
পারত
হরম
দাফন
রিকশা
দেশপরে
শারমিন
অবিশবাস
ঘেরা
বখারী
৬০০
পোষট
##থেকে
পাচছি
শপিং
সযামসা
সকষমতা
দিললির
ঈদগাহ
সচিবালযে
গেযে
৮৯
রিযাদ
কাননা
##pt
পেসার
ছোযা
ডেভিড
ইযাহ
নিদরশন
চারপাশে
মযাচটি
##সাম
বিছানায
হতযাকান
##হারে
##করমীদের
দিবসে
ছযে
ওটা
##টেজ
বিশদধ
উইলিযাম
##উনডে
উষণ
শিলপকলা
৮৭
খতিযে
পরিবরতিত
হেলিক
বিএম
##ছল
পরগতি
খেলোযাডদের
রসলললাহ
মাখ
সবরপ
##িসং
পারমাণবিক
টরাস
নিঃসন
১২টি
সনধযার
##ree
ধোযা
##বীন
আকস
sex
ছাগল
গরীব
জডো
অবয
খবরের
গাইবানধা
ঝাড
##বরষে
শরমিকের
পরথমবার
মতিউর
##ডিএফ
##কষিণ
চলাচলের
বানধ
পরচারিত
জটিলতা
##বরা
অরণ
##পাশ
সংযোজন
রকষাকারী
all
আসলাম
##াহান
মতের
mar
##ভৌ
পরীতি
বৈদযতিক
পারভেজ
14
খলনার
মী
কেক
কোমপানী
চাপাইনবাবগঞজ
##েইন
##চায
##der
বযবসাযিক
বলছিলেন
br
লিন
মতযবরণ
বাইক
আজিজল
নিযনতরিত
১৮৯
কযেকটা
বনদকযদধে
পারতেন
সসপষট
তরসক
ডাকাতি
সমমানের
নশংস
করপোরেট
##মেযা
বিএনপিকে
রইল
উইকি
লেখালেখ
কোমল
কমিটিতে
বোধহয
গোপনে
শাহিন
পরতিশ
লকষমীপর
মতিন
কিম
##িসটরি
আচার
আমরাও
থাকক
মফতি
সটেডিযাম
##ঘাতী
রযালী
৩টায
মেযাদে
মাধব
মিলাদ
পঞচাযেত
পরভাবে
অযাসোসিযেশন
পষঠপো
বিনিযোগের
ফেরদৌস
শীতল
ঘমের
যবদলের
fuck
আইফোন
ঠেক
13
সটযান
অপরাজিত
যাপন
কানাডার
tag
কাপের
বসার
##ok
নাসতিক
এজেন
বাডীতে
করতবয
##কাজ
##ালয
অকস
01
কেযার
রাজীব
জামালপর
##লাত
##বনদের
একপরযাযে
যৌকতিক
যাবো
টযাগ
কযার
ঝালকাঠি
সাতার
গোলড
নিরব
পরতিপকষের
##উই
##ধারার
লতিফ
২০০২
নিযেছিল
হেফাজতে
মৌসম
পেলেও
মনড
দষ
বেতার
সথিতিশীল
দপরের
নিযনতরক
she
কোষ
অযাট
সিরিযা
শফিউল
৯৩
বরজয
বনে
৩য
গেছি
ওনার
##ণডিত
তরফে
মনতরীর
মোদি
##ৎসর
##গাছা
শাখায
হেলিকপ
কানাডা
আওতা
পরিনস
##জমিনে
টেসটের
শিবিরের
ভালোই
সেলস
আবদধ
নডাইল
ফেবরযারী
রিপা
##ere
মিযানমারে
##োরিযাল
##ধের
ওযেল
চাযের
বলেছিল
##ভাগে
পলযাট
আডালে
আচর
৯৭
ইসমাইল
##তিযার
পরতিদিনের
করমসচিতে
##খম
যনতরপাতি
টরেনে
রটে
শবে
##শিম
ফলন
পরতিষঠানটির
পরচনড
ঠোট
উপকারী
৮টি
বিশবাসী
মেসির
চলাকালীন
##িযেছে
https
হলিউ
পরহ
কোহলি
##চেস
##েশাদার
##কিন
##কষেপে
বরাউ
বযবহারকারীদের
কারখানায
বযবসথাপক
নমনা
সেভাবে
রীতিমতো
টরনামেনটের
up
করমকানড
আমায
চিঠিতে
১৯৯০
ভিজ
আহমদের
খরিসটাবদে
শিকষকরা
বললেই
##েনসি
পাম
সারক
লড
লোভ
মলক
জহর
বরাহমণবাডি
গডিযে
বলগে
জেমস
লেনদেনের
শাহাদাত
পোষণ
সমাধানে
ভকতদের
লী
##থীদের
সীমানতের
##পঞজ
চারি
গৌরব
নিরমান
##যেট
বনধন
মৌখিক
আলোকিত
এতি
##ফেল
##কযা
##ংশে
নাটকে
মনতরণালযে
##পরিক
পোষ
মনদিরে
##ms
কখনই
উদধারের
##বনদী
জিহাদ
কানতি
ফেইসব
post
সোভিযে
নবীন
অগরা
আকারের
একদিনের
খরী
টেকনিক
মারকেটে
##লিখিত
পরিকলপনার
আরেকটা
##ীগণ
পরিষেবা
দিকের
রোডে
শধই
##ee
অবধি
জারসি
##ছিলে
পেটের
নেশা
দাযিতবশীল
মেটরো
দিনাজপরের
শকিযে
##জমা
দাবীতে
বরো
পদোন
আপলোড
পরাঙগণে
বিসফোরণ
টেকনোলজি
পরজেকট
অনত
কারযদিবস
ছাডতে
কাটাতে
##জাতি
##সংকরানত
সংখযাগরি
মাতরায
শনানির
নিবেদন
উদবদধ
মধযকার
যৌথভাবে
অসবস
পেজ
কষকের
goo
জহিরল
মাং
উদার
কতজঞতা
##াসী
মওদদ
অনধকারে
##পিযা
অডিও
আসরের
##nal
হাজারো
একাডেমির
মদিন
বযবসথায
চিল
ইউনস
আইস
সেনটারের
রোযা
##বযসত
##ভন
বিজঞাপ
গণভবনে
গাইড
পলিশে
উতপাদ
অপশন
বযাযাম
ভকতভোগ
হিরো
##পিট
মযনা
মারচের
লভ
##বাসহ
##দাহ
সাপে
টহল
মোটেও
লকষে
##টরাল
##মিল
কষবধ
##বাসীকে
সাইটের
মহাজ
আদৌ
পাডে
মহাসডক
হারানো
থাকতো
সিএসই
##দিযে
##বিধানিক
ওসমানী
ঘনটার
মানি
##াকান
বাচতে
মহার
##ইযে
মিশরণ
পরখযাত
পাশেই
সাধন
গডতে
চডা
##যনির
##oy
##খী
ঘোডা
লেস
##বরাজ
অবসথানের
গাযের
##ঙা
কাসে
নিজেরা
মালি
হাজারের
সংগরামের
##গরনথ
কোট
আবশয
##ঘরের
##ঙগো
নিরভরশীল
বরিগে
##ষটিত
দশযমান
মেক
পরিসকার
পেরেছে
সালাত
co
বাধযতামলক
উদদী
##বতী
রাঙামাটি
বোঝার
চমকে
পরাতি
মাঝামাঝি
অতীতে
অগরাধিকার
কযালি
##গডি
##man
সসতা
##িযেছেন
পরিনট
কযাটাগরি
##টরনি
করণীয
পরেকষাপটে
সমযেই
##াইড
শোভাযাতরা
ফাসির
বযযে
##গরামে
##ভৌম
দেশবযাপী
আহমাদ
সেলফি
অযাকাউন
app
##কষায
##ননদিন
পেরেছি
কাত
সংগঠিত
##কানদি
ঠেকাতে
সানি
বাবদ
গোপালগঞজ
res
গরিন
##মৈ
জযোতি
টরলার
man
কলানত
এটিই
##ft
সনতরাসীরা
##ge
ইউটিউব
##ভাজন
অভিজঞতার
##াইনে
অযাওযারড
এমনভাবে
জীবনযাপ
পলযান
কোরবানির
তাআ
##নিতে
মাদরিদ
মতন
ধাককায
পাইপ
৯৪
গোবিনদ
শকনো
হারায
শিখতে
সততা
মধযম
##মখে
চেনা
কানন
পরার
পরভাষক
##লর
ডেটা
##ধরমী
ডেলি
##জরি
অরফ
ডাবল
পরোযানা
কষকরা
ঠো
মজরি
লিটার
##উক
##খি
বযাপী
ঘটবে
এটির
উদভিদ
সাহিতযে
নগরী
সারজন
##মদাদ
বিপি
##গলোও
এগলোর
ঐকযের
নিজাম
মমব
দকষিণে
টমে
উলটে
##ঞচলীয
চনদ
সকালের
দাবির
মললিক
শায
পরবরতীকালে
ভোল
তারও
মাযান
অতীতের
আচছা
বরিশালের
বিকর
টারমিন
##যতা
ননদ
১৯৯৮
নল
অসটরেলি
এতটাই
সখী
সপিনার
ছাদ
এরমধযে
আতমসমর
##শল
জববার
##াজাহান
অকসি
সবাসথযের
কাজটা
আলাউদদিন
বিজযের
পোরট
এনেছে
৭টি
##একস
গঞজন
সরবপরথম
সংকেত
আকরমণের
খেজর
সংশলিষটরা
যতকষণ
সজীব
গেই
##ai
are
থিম
সিঙগাপর
##পরক
সংখযাগরিষঠ
##পাকে
রেজিসটরেশন
হাইকমি
##att
কষেপণ
vide
##ানেজ
##বাডির
নেততবের
অপেশাদার
বযাপকভাবে
শরট
ফেডারেশন
গণমাধযমের
##ss
দশচিন
ভোটারদের
লার
করান
নাইট
##রেড
##াজাত
ভত
বনয
ইউনিভারসিটির
দৈননদিন
অবদানের
সথানীযদের
এমপ
##ach
দিই
তরফ
তথাক
খালেক
পরযোজনা
শিকষিকা
অংশগরহণের
পোডা
রপি
দবনদব
##রাইল
আটটি
গোষঠীর
বরখাসত
ধরমা
রিমানড
ঘডি
ডিসেমবরে
পরতিযোগী
চটটোপাধযায
##পযা
৯টা
পরকাশক
মমত
মানতে
১৯৭২
##মলে
পরেসকলাব
লভযাংশ
ডিএন
আমেরিকায
2016
##পরী
একাংশ
দমপতি
ফেডারেশনের
পাঠায
আঘাতে
সংকটের
চাইছেন
সিদধানতে
বছরই
চিফ
ছবিটির
##ঝে
চাট
শম
##ical
রবীনদরনাথের
জালে
হননি
নীলফামারী
##০টি
পরববরতী
হমকির
ছাতরীর
মেসেজ
##বারট
অননত
ভাঙচর
আকতি
ওযালটন
বযাকটের
বদধিজীবী
নামার
৮০০
বিচারে
নৌকায
অরফানেজ
বেপর
টরযা
নদ
মকতা
মহরতের
তথাকথিত
১৯৯১
সাকি
পেযেছিল
পরদকষিণ
##ry
খলিল
হযেও
##টান
মং
ছর
টাঙগাইলের
কবিতায
ভিযেতন
latest
this
পরতিমা
বাদশা
##চযাল
রকতচাপ
পারল
ডিসপলে
বরষা
বিশবনাথ
রিসারচ
dis
গলোর
##ডাম
চডে
ছাডার
ছোটো
১২টা
১৮৮
বেশকিছ
হেন
ভাজ
গবেষকরা
সারবভৌম
পিএইচ
##বিদযা
চাষের
১১টা
দেখেই
মডেলের
বিপলবের
ঢকতে
##িটি
হইল
রও
##ile
নকষ
বলবো
##াকালে
কৌশলে
##ফোরড
কোরটে
সাপোরট
দিনই
##ডিস
ডব
পোসটার
এমবি
হোল
##ash
১০০০
সোসাইটি
কদদ
##ভাষ
world
##ণডার
কযানসারের
পেছন
রপতান
ডিআই
not
খাওযান
##কেটের
##মনত
সাজে
মহেশখালী
পরধানমনতরীকে
সঞজয
ঢেউ
সভযতার
##যেই
ফোরস
গরনথে
web
মৈ
গিযাস
সোভিযেত
কলাম
##রগ
শরেন
দারন
গোর
##চারে
সইজার
নীতির
যেদিন
লাফ
##বিসতারিত
##যাহ
একাডেমী
সপন
৯টার
সংসকত
##কষণে
পরিযাঙকা
জবান
অযাকশন
অনন
শারট
চালিত
বিডিনিউজ
tw
কদর
##চছিলেন
করেনা
##ave
##যয
##ংশন
পলাস
পারটনার
##ফেক
নাঈ
অনেকেরই
##৫০
ছেল
হোন
আলে
রেহ
সেটার
##কারা
##এসএস
কেস
চাঞচল
দৈরঘয
মাযানমার
পরতযেকটি
নেতাকে
যশোরের
পহ
বাদশাহ
উচছেদ
ঝগডা
সনাতন
অলিমপিক
ঘাম
##াসন
যখনই
টযাকস
হের
অয
নাছির
মানা
##ঞা
রপক
লৎফর
দেযায
বানাতে
কবল
তডি
মারকস
লেভেল
শরিক
ইযেম
বিচিতর
মাগ
##যেব
বযবসথাপনায
সও
##ংকরিয
বিদবে
মাহববর
ইনডিজ
কাগজে
##তাল
নরসিংদী
##াননদ
পরদীপ
খরিসটান
দবিগণ
জাতিকে
cl
আযার
##জজীবন
পরযোজক
রিসোর
ফিলিসতিনি
##বিতে
ভরামযমান
এসবের
হাননান
বেগমের
আমানত
##যাতরার
##যমের
জখম
বারতায
ডিএমপি
আতমার
পজার
##ানতে
পাতলা
বরী
jour
টরনামেনটে
জোরালো
অা
##মানে
এমএ
##20
মাগরা
##রিন
##ংযে
হাসানের
আগামীতে
##বাক
টল
##ধরা
ইনতে
মোরশেদ
##জনীন
অপরাধী
মেগাওযা
সমতল
পরশিকষণের
জঞানের
রাউজান
দেশী
নাগরিকতব
কেশ
30
বারসেলোনা
##কেন
এনএ
##াইতে
খোকামনি
ঘটনাকে
ছাতরীকে
দরদশা
##পড
বযকতিরা
পাচজন
উঠলো
সেকসি
##ঘাটে
পী
ফযান
পারসপরিক
নাইজের
হাযদরা
রপানতরিত
নিরমাণে
ডরে
সেনটরাল
তামিল
গলির
মধযপরাচ
বিলপত
নেমেছে
##news24
বাগানের
ঠাক
##ভাল
সবদেশ
শেরে
পরিতযকত
cit
টেবিলে
ধরিযে
##মনে
রোহিঙগারা
কোষা
পরশনপতর
তালাক
সিইসি
ইবাদত
গরিব
বাশার
আঙল
ভোক
৯টি
আসত
ভিস
পরতিদবনদবিতা
সবাদে
অণ
##পরন
কনটেনট
পরকাশন
এগার
ওযাজে
##োততর
কযাশ
মনিরজজামান
পরচারের
রোদ
বিকরেতা
ভাংচর
আগনের
টেলিভিশনের
দেখানোর
১১টি
বিএসএফ
জনপরতিনিধি
বিলাস
পাথরের
হোটেলের
কনটরোল
কাপে
চারদিকে
##du
পরণে
নিরবাচনকালীন
টরাকের
ইসরাইল
##মনড
এরপরই
মানবতার
চেযারমযানের
সপেনের
বালক
কতিপয
##বারগ
বারন
মালিকের
একাউনট
জরজ
গিযেছিলাম
kh
আংশ
জনসভায
মাইকেল
##ell
ফিক
এসএমএস
বিআরটি
সমাবেশের
সেমিফাই
আশার
ছিটকে
শরিফ
তরকি
পরতিদিনই
তাৎপরয
বেপরোযা
##ডোর
কিংবদনতি
দিব
##নীতিক
টইটার
দপতরের
সজা
একাধিকবার
নিঃসনদেহে
হির
পাডায
আফগানিসতান
হিসেবেও
##ext
পরাতিষঠানিক
অনপরের
এপ
ফাসি
সরবসতরের
আতাউর
মযাগাজিন
করাইম
বযবসাযীকে
টরাইবযনাল
পরচছ
##েননি
টিভির
১২টায
##কারয
##রিচ
একসচেঞজে
আশাবাদী
মজিদ
অসতরের
ইযাবাসহ
অনযরকম
মালিকদের
কযামেরার
##বলমবী
বিনোদ
বনদরে
বিপরযয
##জেট
বকতা
ছিনিযে
সঙগেও
খণড
বাতাসে
##per
তৈরিতে
##দরশক
##োসা
পিঠে
নরথ
রহঃ
জীবনকে
অবশিষট
কণঠে
দষণ
রকি
##াদের
বৈশবিক
ভবিষযত
গঠনে
আযকর
কেনো
সহকরমী
কলাসে
##ানতরের
সটেশনের
উললেখিত
সটরাই
মইনল
হারের
রাক
চযাডাঙগা
inter
উপকলীয
##তততব
পাইনি
মিরাজ
সাপেকষে
হারানোর
জতা
##ভান
##irl
এনা
কমেনট
সবযংকরিয
খলি
এজি
##াজী
সাঃ
##াইট
পেছনের
##মৈথন
ভারতকে
মানববনধনে
মখর
##লাব
##ংকের
দেওযায
দাযরা
পডাশ
সকরিন
ইনসযরেনস
ঘাটে
হযরানির
##ঘরই
কথাটি
একেএম
একাডেমিক
গোলর
media
এইচডি
##ানতির
##লাও
##কারীকে
কাঠাল
মাসম
এমনিতেই
আটককত
রিপোরটে
পলাসটিক
পাঠিযেছে
##২৫
ভাঙগ
সমযটা
বশ
কষযকষ
বিকাশের
এনটার
সজ
ছতর
##port
৮টার
রোকে
কেনাকা
ফেলেছেন
উসক
কথাবারতা
ফজলে
সেকটর
মোটেই
আফগানিসতানের
মেযেটির
##ank
নিরীহ
বরধিত
মাক
##টেম
##োগয
মহাসা
হাটা
সেমিফাইনালে
পাঠকের
পালনে
পোসটে
যাবজজীবন
##ence
পরতিভা
##বিযার
সমাজতানতরিক
এনবি
হতযাকাণড
##ওভার
রাজনীতিক
বিএসই
দেহে
বিশবস
জেএম
##পডা
মনতরিপরিষদ
ছাই
সেনসর
নোংরা
ছেলেরা
ঘণা
দীরঘদিনের
৯টায
সিটির
বিপদে
পনের
##গারের
রঙিন
গায
ফেনসিড
##দেশীয
জনগনের
##বদল
বাকস
ভারি
লেগ
ফযসাল
সযামসাং
journal
হাবী
পরতে
ভাইকে
ডেইলি
##বযবহার
##চছেদের
##সতক
সোম
##জিব
ফিফা
বদলি
মশফিকর
মাহমদর
শহিদ
বসতা
পরোগরামিং
লিযা
সপযানিশ
যনতরণা
##ens
অসীম
নিজেরাই
আরাফাত
দগধ
এসোসিযেশন
কষতিগরসথ
বিট
পারকে
##পান
একতর
টেকসটাইল
##চরা
লাগলাম
এরপ
সারকিট
##ীকরণ
ভেতরের
বাগানে
##কারস
##েনটাল
সামরথয
একাততরের
সংলাপের
পাওনা
শিশটির
সবজনদের
জিরো
পহেলা
শিকষারথীকে
পরতযেকের
##আউট
এরপরে
e0
বলবল
খনিজ
অভিবাসন
এলজি
ইমেইল
রকতাকত
বরিটেনের
##লযানডে
পরশংস
লোকসান
কাছের
বেদনা
জিততে
##মনের
##সথাযী
অলরা
চিকিত
##ডেনড
##ভাগের
সেলি
বিশরাম
##চো
শাশ
##lay
দমপ
##গপত
নিরযাতিত
ডেমোক
##তলায
বানধব
টিপস
করমকরতাকে
ফৌ
কেলে
অযাটরনি
দারিদরয
দিবসটি
তাগ
লেবর
খোজে
নিরাপতত
বীমা
জানালা
পরতারণা
শাজাহান
জননেতরী
##কমা
##বিগন
কোনোভাবেই
ভাষণে
রেসি
ঝাপিযে
লাইনের
আউযাল
জিডি
এএসআই
##াহার
##oti
##eer
সমরণে
শবদে
মাদরাসায
সাগরে
##গরের
নিরাপদে
হেলথ
রোধে
অধযযন
মযানেজিং
##কশন
সখের
করমশালা
##গতভাবে
##বপর
নিই
উততরাধিকার
বাডায
##ীযার
##টোরিযা
মনসি
##াপতি
নিরীকষা
সরেজমিনে
পরদেশে
পরসপর
বিদেশের
মতা
##bd
নাহ
ইমেজ
ঘাতক
ডাযের
বরজ
টইটারে
ধরষ
হিউমযান
নযাপল
পরিণতি
কষত
যতটক
##মোহন
মিলবে
হজম
অনিচছ
##চযযাল
বিদাযী
একতরিত
সমদরের
কারাগারের
আযোজক
খেলবে
দরশকের
হাইকোরটে
বসেছে
ফরনট
শযামল
##মোট
জনবল
কষতিপরণ
ফাসট
মিত
মেস
বিকত
অরথাযনে
মেরামত
বনযায
অনশন
১৯৯৯
##ধনিক
শযতান
##জিল
ভাবছেন
ইমিগর
যগান
##ফলের
গরাহকের
বনদরের
একাই
অধিবেশন
আকষট
ইংরেজিতে
পেনাল
সংবাদপতর
citiz
gov
গেমস
পেরেছেন
##াতো
##জারের
##লতা
##োসট
তদার
রকষণ
পাসওযারড
টিকেট
##ve
নবনির
গোডা
পরকাশে
##ath
par
##ানীর
যাতরীরা
##ডিযান
রিযাজ
##দারের
শরেণিতে
##ডম
সামাদ
বিচারপতির
৪রথ
ইনসটিটিউটের
আরট
খেলেছেন
তষার
দীরঘমেযা
বাদল
ইনটারনেটে
##হাস
উদবিগন
দেখবে
সেগলোর
তরক
##মেল
সশীল
ককসবাজারে
১৯৪৭
মাদারীপর
##df
সালেহ
সংশোধনী
##ঙকায
রেঞজ
দারশন
জাসট
পরতিহত
মমবই
সংসারে
মরাদ
ডকম
বোরডে
##ond
ভযংকর
আখযাযিত
অপসারণ
কটনীতিক
##ডান
##xx
সমকামী
##করমের
রাজপথে
গৌতম
মযনাতদনতের
##ঙকষিত
বানানোর
আসামিদের
২০২১
কলিনিক
##পিযান
চযানেলে
ফরা
অবমান
তততবাবধানে
##বাডিতে
##বাদীদের
বেলজিযাম
৮টা
গলপে
যাবৎ
##ততা
ধারালো
##হানি
সারভার
রেখা
##মহল
বসনত
##দদের
হাটে
নানাভাবে
আতমহতযার
bdnews24
আযর
সনদরবন
চাদের
মানষই
অনভ
দেখান
মাঝেই
নগরের
নিষপ
হাওর
অডি
##িলেন
শিমল
মাজার
বযাঙক
কমানো
খাযরল
ভিন
লামা
অনারস
কামার
##িরেই
##শিযারি
নস
সভানে
দরগাপ
পাশচাত
##ult
জামাই
21
মালদবী
কমতে
ফলযাট
বরাবরই
তলিযে
দকষিণা
৮টায
ওযাজেদ
মিনট
টম
মানবতাবিরোধী
অনযরা
চাপের
৪টায
পরবাসীদের
পরথমার
পরতযাহারের
##চির
সাংবাদিকরা
citizen
সযান
সমমত
৭০০
##gy
ঘণটায
খনন
তেলা
কাসটম
তাৎকষণিক
মাহমদল
সরবরাহকারী
অপপর
উপারজন
##সিস
খালা
এগো
ভিসি
##রন
ঈশবরের
গাড
ওযারক
দরবলতা
রোবট
##বললাহ
এটার
##কষেপের
কারযনির
দেশেই
সনাত
##সরগ
ধারাবাহিকতা
বরষণ
##সরাই
জঙগিদের
গরাহকরা
##িসন
পরবত
গরব
ডরি
তমল
রাখলে
শতাংশের
শোনার
যেনো
সাংবাদিকতা
জগৎ
##খবর
পৌছেছে
পরতিপাদ
##ানতরে
ধাত
করবার
##সকল
ফাকি
করস
##যানী
সটযাটাস
অনষদের
##ৈরা
দেশগলো
অসতরোপ
নিবেদ
ফেটে
নিষপততি
##ছান
আলোয
ডযা
সনতোষ
অবকাশ
শাহবাগ
সেকেন
##রোর
##দিল
ফরেনড
দধের
ভরমণের
কমপিউটারের
বললেনঃ
১৯৯৭
একযোগে
100
পরানো
জঙগী
সমরথকরা
মোবারক
ফেনসিডিল
পরধানত
হসতমৈথন
দোষী
ভাবি
খেলেন
##ফান
ভবিষযতের
সিইও
বাঙালী
লাইবরের
পেমেনট
ফলো
১৯৭০
মসতিষকের
হদযে
বিষাকত
সাজজাদ
##লিন
শাসনের
নেতরকোনা
তেলে
বিতরকের
কপালে
লিওনেল
মলধন
ডিভিডেনড
ফাট
ওইদিন
##২২
মককা
চোরা
নগরীতে
পকরে
অনযানযদের
অলরাউনডার
##৪০
বলিউডে
লাভবান
ইনডিজের
##লাইনের
কষেপণাসতর
মধর
সপট
সতরপাত
মাতার
##ণাবে
ইতযাদির
মধযবরতী
সেমিনারে
২০১৭ইং
আজহার
মনোর
করোযেশিযা
আযেশা
অপরিহার
সবৈরা
##ডক
কারযকরমে
তিনবার
মৌসমী
তরল
পডযা
বইযে
সংগঠক
##শকতির
##িসিআই
##ৈল
##মাকে
ছল
জলিল
রাখছে
পেশাগত
টমেটো
দলগলো
চিতরনায
জারনাল
খেলাধলা
দবীন
চালকের
বোনাস
org
আকসমিক
##সারে
##out
বাজেটের
##পরায
সাংবিধানিক
ভষিত
ফরিল
দতাবাসের
পরোটিন
সতরকতা
অযোগয
শাপ
আযতন
দাউদ
এলাম
মচ
বালা
লোকাল
আতমসমরপণ
সনীল
##pur
ফসলের
দবিধা
ডেলিভার
আজীবন
কীট
##েখা
উৎপাদনে
পরাপতি
বিআই
##বড
গরভব
##াহিদ
সেবন
ইযরক
কাউনটার
মজদ
ধরমঘট
চললিশ
সিগারেট
##পেকটর
পৌছাতে
##for
খারিজ
মশি
ইসলামীর
শিলপীর
খলতে
অভযনতরে
দিযেও
##শনয
comments
অরথনীতিতে
তৈর
গরাফিক
কাকে
সবারই
পযানট
##ীযা
পরদরশিত
আতমঘাতী
খসর
মরণ
ইতালির
##ফিলে
##পরিবহ
খিল
মানসিকতা
##ডনের
সাশর
##ঘাটা
সনামগঞজের
পরযাযকরমে
##ঙগাল
ফটোগ
##io
নিরণয
মরমে
ছরি
পাইকারি
মিছিলে
সংশয
##pr
কোযালি
মাতভাষা
বরাহমণবাডিযার
সিড
সবসতি
##ইডি
অবগত
cr
কমানড
নিখত
বনধে
উততেজিত
লাসট
কাচাম
মাধ
উপতয
মারতে
চাষা
তখনো
##উড
বরফ
মিউচযযাল
শিলপীদের
##চচার
গরযানড
অরজনে
কারযনিরবাহী
রসাযন
##াযতত
##চডা
সাতকষীর
কষটের
পরিষদে
দারশনিক
সাগরের
##ধানে
পরতযনত
পোদ
দরশনার
##জারি
পরকলপটি
বলগের
অকষর
করেডিট
সিনহা
টারমিনাল
লোড
সটোরে
উননতির
##সংস
ভিডিওতে
শদধ
নেদার
কনঠ
দিকেই
দেখেছে
রকষণাবে
অনষঠানটি
কেবলমাতর
রিম
আশঙক
খনড
দীপিকা
অগনিকা
hd
##মেই
গতির
##শাদের
পোশাকের
##ালট
এনএভি
##কষাধিক
নযাযয
ভাবন
কযারিযারের
ইতোমধযেই
তারিখের
নিশচযতা
ঘেষ
মমতাজ
পরথমত
পরেসিডেনটের
আধযা
চরবি
কানাই
কনভেন
সফলতার
পরেমিকা
অভিশ
ঝরে
কোরআ
নিষঠর
মোকাবেলায
উৎপততি
শিবগঞজ
ঘরণিঝড
টাক
হোযাটস
কযালিফোর
জযাম
##ালিশ
উপপরি
জীবাণ
সবামীকে
অযাপল
হাতিযে
নিউজিলযানড
ইকোন
উভযের
বাঙগালী
আঙগল
##তাপ
রঞজন
ইবরাহীম
পারলেও
##ঘল
নিযা
col
##শবে
তালিকার
অপহর
নওযাজ
ফটিযে
টানে
##খল
তথযমনতরী
পরণের
পারতাম
চেহার
ফাল
ইনটারনেটের
##বাচিত
জবাবদি
সাকষরতার
আনি
ঘটায
সেখানেও
২০টি
ভাঙগা
##বদধতা
আনডার
পিরোজপর
কারযত
শঙখ
চিকিৎসায
পরচলন
##yle
দীন
যবদল
অপরব
কবলে
আইনজীবীরা
উসমান
চকতিতে
সরবদা
##ff
শিকষায
pion
সংখযার
তস
রেসিপি
##শনাল
পরযোজনীযতা
করেতাদের
##াকালীন
বাঙাল
পরিশর
##ঘি
##গঠিত
জিতেছে
মেগাওযাট
##তিহীন
##িনিউ
দখলের
##হোক
##দসয
##ঝা
করআনের
pioneer
পাকিসতানী
সংকটে
##ফাক
##সংখযক
##চিযে
##ear
journalism
ছিনন
##sc
##ারী
জাহাননাম
##নাটয
my
বাডীর
la
মেট
এবারে
##েনসে
হাসতে
উননযনশীল
গতিশীল
যাচছিলেন
হশিযারি
কাহিনি
শীঘরই
ঘি
তবকে
অভিনব
নবজাত
এনার
##arg
তানভীর
লটপাট
যবরাজ
সাও
জাননাত
আবততি
খানে
থা
রদ
পিসতল
##ণি
সেরকম
এমডি
রিল
হাতির
##বিহার
##এনএস
মেটরিক
সিযাম
অযালবাম
##লান
পরতিশোধ
##খণড
##ember
ভাসকরয
মরমান
পঞচাশ
চাহিদার
##ৈক
চিকিৎসকদের
বদধা
শোষণ
পাসের
##গনধ
পরজ
ছিডে
আটকা
##গাত
যথারথ
ডিক
টোক
##সচিব
এনটি
##োনার
##জীবীদের
পরজনন
উপদেশ
##িয
পরযাস
##ধরম
সমমতি
ধমপান
ইনসটা
জং
পরকতপকষে
সংঘাত
গাল
##সনে
দেখিযেছেন
ইউরোপে
বিমানে
##িযেন
সনাকত
ডিপলো
##পরষ
চনদন
##ph
হবেনা
নমবরের
গারমেনটস
অপরিহারয
চেষটার
লেব
হিনদদের
উপনযাসের
ইসরাইলের
মাহফিলে
মধযবিতত
সকযার
ঘরিযে
বলো
##ংখলা
রোকেযা
নোমান
দিতেই
##কিক
থাই
মাফ
কামরজজামান
আমীন
নাগরিকের
রোক
মহলের
বাহাদর
পাছা
খানকে
সঙক
পরকাশয
##ঠাক
বিএ
ঘটা
সিরিযাল
সেচ
গরভবতী
অতযাধনিক
কোরবানি
বিশেষজঞদের
মাইকরোসফট
পদোননতি
##সায
বহিষকার
পিটি
বাযো
##ওযাব
তামাক
গরেফতারকত
##সাজ
মেগ
##ভারত
উতথান
অধিকাংশই
হানাদার
আইজি
পৌছায
সথানের
##ককে
##শরেষঠ
পরাপতির
দরবারে
pl
খোলার
জবাই
নিবিড
##খোলা
কতিতব
রিটার
উৎকষেপ
সালাউদদিন
ছরিকা
সংখযায
##যিং
রেজিসটরার
মরমানতিক
চেযেছিল
বষটিতে
পাবার
গণনা
##ওডা
ঘটেনি
অযাপস
##ডবলিউ
ষট
সঙকট
আংশিক
১৮৬
জঙগল
সৌময
গৌরী
অনযতর
অভিভাবকদের
গরীষম
##বনদরের
##ire
টেলিফোন
পরষকার
##খানেক
মটর
comp
dh
আলিযা
ইউজার
দিগন
থিযেটার
বোঝাতে
পরজঞাপন
শিষয
ঝক
##ীভত
মধযদিযে
অনিযমের
রাজী
পরিজন
মৌলভীবাজারের
মালযেশিযায
ভাগা
অভযসত
সটাইল
মখোপাধযায
শিবিরে
খরিষটা
চিংডি
অধিনায
সসং
কাও
##যামত
গোলডেন
দবীপের
খাতা
ওজনের
জানাজা
ইমরল
চাপিযে
##বনত
##ঙগেল
আনগত
উদযান
so
##পালা
পরোফ
খাম
##ild
বিলে
বাসতবাযিত
##ass
টেলিক
ধসে
রাশির
কাটতে
রংপরের
জগননাথপর
ভালকা
পলিশি
আরমভ
মারমা
দাওযাত
##দহ
মাসেই
শোধ
##ীতির
অমিতা
ষডযনতরের
মহসিন
শষক
##টিকযাল
রৌ
উঠা
ইমন
##বসথার
করানোর
কোনদিন
পরতযাশী
জেএসসি
হরিণ
এও
##ফেরা
উমর
বিশলেষ
নিরবিশেষে
সংসথাটি
বিশবজডে
সমপাদনা
নারস
আকরাম
বসেন
বটিশ
চীনে
লকষাধিক
চাকা
সনান
আসছি
##চীন
জযোতির
মাতরার
##ame
ডিমের
পেসট
বিষযবসত
rs
রটি
সসম
অবিশবাসয
লজজ
ভাবেন
গেলেই
মনতবযের
করমসচীর
হানা
ফেলবে
যথা
মাসটারস
বানধবী
রিং
বসবাসরত
ছাদে
পারতো
বানদা
নানার
##জমিন
##বেদনা
কনফারেনস
বারে
নানাবিধ
উসকানি
সটাডি
##রমে
##িরি
অভযত
##ফিকেশন
দনিযায
রেন
কমপিউটারে
সতম
বযানারে
##ফত
বইটির
কোতো
করতপকষকে
যাকাত
##দোর
রমি
বাদাম
free
ঘটাতে
##ics
পাউডার
চেযেছে
মেকসিকো
পপ
চকষ
গোলরকষক
আটকের
অধিদফতরের
উদযানে
বকততায
অবত
আজিম
##ীকষিত
পজিবাজার
রিচার
অফিসারের
তদনতকারী
গণসংযোগ
চেষটায
##জযী
পরতিষঠানকে
মণি
ser
সমরথনে
পতরের
ইনফরম
ওযাটার
পলেযার
কদ
##োলো
আমজাদ
বনাম
হসে
উদয
সিকিউরিটিজ
##দরশী
সকা
পেলেই
##quo
##পিটাল
সথাপতয
জবলে
হাতিযার
রাশে
##ঞজসয
ইংরেজী
ভাগের
সাদিক
##এসপি
হারাতে
হবিগঞজের
ঝলিযে
পারায
একতরে
রেমিট
শহীদদের
choti
চিনতে
পলক
চেতনার
পেকযা
##দাবাদ
##গরামের
বঙগবনধকে
##বাশ
কেদে
##day
বিবাহিত
big
পদম
##ound
পডায
যতদিন
ফিলড
জৈন
অযেল
কনসার
নিবনধিত
জবালিযে
সকোযা
এমনটি
পযারা
নাহার
ইনতেকাল
করতা
রোজার
আমলের
##এমই
পরানতিকের
কোচের
জনসম
রাজবাডী
অনিরীকষিত
##তাততবিক
খরচে
ধম
ডিসেমবরের
টেকনিকযাল
চেতনায
সনন
মহানগরীর
সোসাইটির
পষঠপোষ
নীত
বাহিনীকে
দেবো
উপরোকত
সোবহ
দফতরের
লালমনিরহাট
##িকেশন
অভিজাত
no
খাদে
##াহিত
পলাট
সংগরামে
##৫টি
pol
অবসথানরত
##চেসটার
কোম
পরিচর
নেযনি
সংশলিষটদের
সৌরভ
em
আধযাতম
##টিম
শাকিল
বাউ
##চছনন
বিসফোরক
পরিনসি
##তনী
মারকেটের
সাততার
ইলেকটরনিকস
খোল
##থানের
নত
ফোক
##নকে
##ডেসক
শতক
নিরভরযোগয
করতেও
এরশাদের
করমেই
ককরের
ভৈর
আরোহী
গাযক
সমাজকে
জোযার
##োযারা
দষটিভঙগি
বিভরানত
১৮৭
টিউন
এটিএম
জানযারির
বযবহারকারীর
উততেজন
খালাস
এতটা
নযাদিল
##gle
ফরোযার
##po
##াতি
ঘাটি
অভিবাসী
জযলাভ
পেটরো
আপনিও
##খানায
ভিডিওটি
দিদি
তোল
নামটি
তখনকার
চোট
দরবতত
সামনেই
##াপি
ধরেছেন
অরপণ
দিলেই
রিকসা
কাণড
বারী
hot
উপকত
খলনায
##সালাম
##যনতর
হেলিকপটার
চৌধরীকে
ওবামা
মাপ
পিচ
১৫টি
আকাঙ
##মারক
উতপাদন
৬টা
সহান
##হহ
##ষি
দিলীপ
জযাক
ফিতর
মানবস
##শীয
লেখাটি
##ভীন
##কটরে
লিখেছিলেন
উঠিযে
পরতিফলন
যেতেই
বিচারিক
আবহা
নেব
আরমি
দাডি
##কাপ
বৈশাখী
মাংসের
##শতা
একাকী
ইজি
নিষপাপ
do
সযোগে
রবিন
##obs
##বিদের
ইননা
ফযাক
মশকিল
টিমের
বোরো
বাধার
জানাজ
জাতিগত
করমকষেতরে
মশার
##চাদ
বরন
ফিটনেস
কারটন
শরীমঙগল
জোড
উইকিপি
##জজনক
চালর
বিবরত
কমলগঞজ
মজল
##ছডির
বরকত
##ছন
মনজর
##ফেযার
পরতিটা
অটোরিকশা
ঢাল
বরণের
##ফাজজল
##দধারা
ননদী
নজরদারি
##ase
শিকদার
গলার
পরচেষটায
শাযে
##ঙখিত
বানি
৭টায
এবছর
উততরের
বঝা
জাদঘর
বলেনঃ
সটিভ
পারলেন
যথাস
বযাহত
জাসদ
আলতা
ডঃ
##িসতান
##ogr
অবতীরণ
সৌভাগয
মানষেরা
টস
দেখিনি
ঐশবর
বিসর
হলি
বহিরা
সামরাজযের
ইউজ
মালিকানাধীন
পৈ
ইরাক
অংশগরহণে
ডাকাতির
sub
বোঝাই
পোশাকে
এইভাবে
সবীকারো
নিপীডন
ভঙগি
পরশানত
আবহাওযার
পরানতিকে
ইহা
ভোটগরহণ
সবজনরা
তবেই
১৯৮০
সারাদেশের
রমজানের
##বিশিষট
জডিতদের
অনগরহ
ফাডির
পরতিপাদয
বাচিযে
সরববহ
বিরপ
হসেইন
যগন
বেআই
##ঠির
করাটা
পডলো
অনপরাণ
নেতবনদের
##ঘাতের
তপন
থের
23
বাসভবনে
জযনল
অশর
আলিম
##টরাক
আননদিত
নিযনতরণের
রানার
22
শিম
বলাড
বযরথতা
অসত
অনতঃ
পকেট
সটযা
ওযেবসাইটের
মাহমদউললাহ
মরতজা
জিমমি
রমা
আশংকা
হতযায
জনসংযোগ
নওগার
উরদ
##ানবিত
##টেট
মারার
পাঠকদের
##জীবনে
এলাকাবাসীর
দকষিন
উৎসরগ
লাইক
পরগতিশীল
ডিপারট
আসামির
খোজা
নিহতরা
##জাই
রেখেছিলেন
তাআলা
ফৌজ
রাণী
জালা
ass
বদি
হযেছে৷
অনষটিত
ইউনিটে
##uk
উৎপনন
উতথাপন
শেখার
মহানবী
মাননা
খাশ
জীবনী
তিনদিন
আবাদ
শলোগান
কোনোদিন
পযারিস
আতিক
##োজাহ
##ঝিল
that
##ভমিতে
##book
তাতেই
রাজতব
খড
অভিমত
দঃখের
দেখলেন
##তেখার
আগা
##iss
##lam
বোঝায
বলেছিলাম
মহলে
সবকিছই
pdf
গাং
ফসফ
সারকেল
বানিযা
জযপরহাট
আদেশের
মেডিস
নাথ
দামি
বিসমযকর
দপতরে
১৯৯২
পযাকেট
জনসভা
বিপজজনক
আতমস
উদযোগের
নাশকতার
চিনতিত
অদশয
ডযান
রিভি
বরিফি
সেটাকে
##তমক
বমি
৫ম
মসলমানের
বংশোদ
এসিড
টিউট
দাডানো
খানম
গগলের
বাসিনদ
##হিদল
গরবিত
ঘটেছিল
##ীরথ
এখনকার
##মাতরার
লরড
বৈচিতরয
সরবমোট
লৌ
##চালিত
পযাকেজ
##ধনয
বযকতিবরগ
সিমেনট
ভেজা
নবয
##চরের
আকরমণে
তরিশ
##দানী
মদন
হকম
আফজাল
##ামতের
গরমে
শীরষসথানীয
ইপি
ডবলিউ
দঃখজনক
মনতরিসভার
##জজাম
বানান
সভানেতরী
আইপিও
আতি
অযার
এজাহ
ফাতেমা
সভযতা
ভোটা
বাজি
পারেনা
হজজ
ডিআইজি
05
শিলপে
বিকরম
তলার
ছোটবেলা
তিসতা
বাসসট
অনযথায
মৌসমের
a6
##কিতে
বহমখী
চাইবে
sheers
রল
##নিউজবিডি
মাহা
##অযাপ
##দেহের
লোহার
এপি
ততই
সোপরদ
##ational
অজান
বযরথতার
পণডিত
সালমা
খালিদ
টেবিলের
থার
আওতাধীন
##রাব
চশ
উডোজাহ
সিগন
বিষযটিকে
সনদেহে
কনসাল
গাম
ছটিতে
ছনদ
অমানয
আমলা
নিবার
port
##বিএন
##ern
মিট
##চরে
##পরারথী
ফিলিসতিন
আগসটের
সহাযতার
যতো
উপাস
ধরমান
নেক
##করতা
করমীর
##ডানো
পরতিসথা
বিতরন
##বনগর
উজ
পাও
ঠিকঠাক
times
অরগান
সীত
কোসট
পরদার
সমতা
অকটোবরে
বাশের
সটযানডার
##ঘো
পৌছানোর
আবাসন
we
জাযগার
sheersha
কারবার
লাশের
কষধা
কইন
নভেমবরে
##ধীর
পতিত
টরান
ভাষয
গোপনীয
অংশগরহন
জমান
মসতিষক
video
বরযাক
##াতির
##গঠন
##ich
সংগী
ইসলামে
বকেযা
ফোটা
ছাতররা
##ামমদের
##োম
বিপাকে
জমম
##৪১
অগরণী
ফিরেছেন
কালার
সবাভাবিকভাবেই
মখার
মণডল
000
ইযে
##ডারের
পরোকষ
ঝলনত
পারভীন
সহিংসতার
কাঞচ
##জনযে
বেযে
বংশোদভত
আঠ
কাযে
কিবর
##হানির
##বাণী
বিপনন
সনাতকো
ভাজা
##লভ
জানতেন
অনৈতিক
এরদ
টেকনাফের
গলোতে
অনপরাণিত
##বিকে
##হোলডার
সভাষ
আরেকজন
সমবেদনা
অতিবাহিত
পাউনড
আধিকার
কেমিক
চেননাই
##বেত
##মদাদল
শরটা
দরবার
মযাসে
তিল
মোজা
##কাই
ডিএসইতে
আচরণের
সচল
##করণে
অনপসথিত
##ts
আসবাব
ফেডারেল
##ube
আশঙকাজনক
ফাদে
হাসানল
রোমানটিক
দামের
বখ
##সিদধ
লিখন
শঙকা
##হিক
ওম
##গলোয
##ীগঞজে
শাওন
##ign
পরিল
আইনজী
সাবযসত
লিপ
রেটিং
বাণিজযমনতরী
দাডানোর
##able
বেরো
বসনধরা
সমবলিত
মিলেছে
পজোর
##ণীর
মনতরনাল
ভাঙন
##te
এমনকী
দকষতার
কারাদনড
##ml
আং
খচরা
তরঙগ
সসবাদ
জনপরশাসন
মোকাবিলা
মনিটরি
##ংসার
সাহাযযের
ভাসমান
##কেশী
সহকারে
বিরতি
জামিনের
##যি
ফটবলে
পযাক
হংক
##পণয
যকতফর
থামিযে
অনসারী
পরতযয
##ংকে
##ধারে
বসেই
অধিকতর
সেলাই
ইইউ
আসায
হিলার
সৌজনয
বদধিম
তহিন
##পরবাহ
আতমপরকাশ
১৯৯৪
কযানটন
নাফ
##ইড
##িরের
দইটা
বতত
সেবায
পাঠিযেছেন
রিপাবল
লিফ
জেরজা
পারফরমযানস
mod
রথ
সেও
সিরিযায
নববরষ
থাকল
##যাতরায
##ীশ
##িলিযান
ফরমে
নোটি
সোচচার
রাননার
ইনদর
এজেনসি
আইনমনতরী
জবালা
ঘোরা
খাশোগ
পরাণে
রেলপথ
paper
লাযন
বলাই
সিপ
ডিপলোমা
সদের
রেহাই
পতনের
dr
##আইপি
পরতন
পোকা
পরতীকে
আবশযক
ভেজাল
দবীপে
টেকসাস
সিনডিকেট
পরসতাবে
নিবেন
মরগির
গরনথা
ছিটিযে
##যাতের
ভারসন
ইউরোপিযান
##টটা
পোরটাল
দিললিতে
টির
পলল
করেতারা
##মালার
##বসহ
টেলিভিশনে
##ডারস
পরতিনিধিদের
ভটান
সতযিকারের
শাই
আইপিএ
১৪টি
গফর
দেবীর
আতমা
পরেসি
বরাউজার
জানতাম
সটডেনট
ধব
##জেম
মনতরিসভা
লিযাকত
বরগনা
##sp
গণগত
সীতাক
কদদস
##নাহার
ফোনটি
কিল
##নাগ
##বেলার
সটডিও
ইযাসমিন
সনের
কিমি
কালীগঞজ
জামাতের
বযবসাযীর
মহাবিশ
আধযাতমিক
নিঃশবাস
ওষধের
যদধাপরাধীদের
বোকা
পরতযকষদরশীরা
উদভ
পডলেন
মারে
কাপডের
পাকিসতানকে
গরিক
জীবনত
কযাচ
হসাইন
গটিযে
ডেমোকরে
সবচ
সহি
সবসমযই
বাসিনদারা
পরোফাইল
লাগার
রযটারস
রখে
সিনেমাটি
##ال
শিকষান
##জগ
##সেলর
বললেও
হবেই
##াতেন
জনগন
##দনড
১৯৮৬
কনসটেবল
##হাক
##োরা
কষটিযার
##েশনাল
##শালে
তিরমি
মশিউর
##বাবর
##োভে
দরা
দিদার
ঠাই
acc
ইনজরি
বাউল
রোমা
##জড
ডিজাই
##ঞছিত
কোনটা
##হাটি
দামপতয
সনায
নরে
এইটা
সদরে
জনসাধারণের
মারচে
##টিকস
জিনি
তাজা
##ামাটির
##োরি
কেনদ
৪টা
দলই
পডলাম
কালিযা
মোগ
কোমর
শৈলী
মিনারে
অনমোদনের
##২টি
বিলীন
এযারলাইনসের
সরববহৎ
##wor
##af
গছ
থাকছেন
অগনিসং
##ওসি
##বিআই
পরসপরের
জানালে
জিজঞাসাবাদের
##ফাইন
পরাযশ
লোকটি
উততরপর
পারাপ
মেটাতে
ডেল
ফানডের
দাতের
তাযালা
ফলবাডী
চযারি
পনরবাসন
din
লডাইযের
ডরাইভ
মশা
পরামা
১৯৯৫
মডি
পরাণীর
সিসটেমের
##ীগলো
অফিসিযাল
ছাতরের
##গাল
ভিজে
ভরাট
রিটারনিং
সেভ
রওশন
পরজাতি
সেকটরে
সবীকারোকতি
ভিশন
##বব
নাড
সনদেহভাজন
অবযাহতি
রাউনডে
মরশি
শিকষাবিদ
মোসাদ
ডকটর
জনমে
কাশি
সথপতি
তরন
##গাম
শরীপর
টকরা
রজন
অযাসোসিযেশনের
বিলের
ইসপাত
সমভাবনাময
##িসমপদ
##লেটের
চৌদদ
এনডি
সমারকলিপি
##ওযানা
বরযানডের
অবতরণ
করিকেটারদের
পরসেস
অমিতাভ
লব
রকতকষ
বৈধতা
পেটরোল
মোযাজ
লেবান
১৯৭৩
জলপাই
নামেই
আইপিএল
চকরানত
মোবাইলের
কোমপানীর
অনিবার
তাৎকষণিকভাবে
তামা
ওভারের
##তই
##বেসে
##হাল
##াযারের
অবসরপরাপত
ঠাকরের
ইনফরমেশন
##১০
পারকের
##োলজ
##টরির
##আইসি
বযাটিংযে
সবরত
চরচার
শরীযতপর
গণমাধযমকে
বলিযা
বেপার
মারিযা
শিশটি
আফরিকান
ne
ধরেছে
বিউটি
##কারড
বযাবস
পরবাভাস
এসপি
শতকে
নেদারলযানড
##ভারড
পরগ
চতবর
বচচ
সবপনে
id
সেনটি
নাঈম
বশির
##দবার
অঙগনে
মসলমানরা
google
খাচছে
পিঠা
যগানতর
##হতের
##ভল
সরবোপরি
face
অকার
রউ
##মাতরায
অচেনা
একার
দাডাবে
##াপে
অকসিজেন
সরবরাহের
দেও
মননা
মাধবপর
জনগোষঠী
##চারাল
সনধানে
ফরিলযান
চনার
চাপায
পরাঙগনে
টেনিস
##নশীল
জীবনযাপন
উপমহাদেশের
বাহিরে
১৮৫
সমাপতি
অবলমব
আকতির
জিযাউল
মরগি
##কটের
করমচারীরা
গানটির
##মানয
সমযস
হবে৷
ইনডে
##গনে
মোশারফ
উপাধি
##োজেন
জমার
কাফ
সামি
বখা
জানযারিতে
##যাৎ
##শিবির
সবেচছায
পডেছি
সংরকষণের
পাচারের
করমীকে
##ubl
মঙগ
সনাতকোততর
পরসকারের
জবানবনদি
বিজিবির
2015
পেনালটি
সটাই
আডাল
ভাবমরতি
দমপতির
##রোধ
শোকের
অপরাধীদের
মরিযা
##হীত
ওদিকে
##যতে
##ভিনিউ
কাগজের
আনহ
সনদরবনের
আইডিযা
করততব
করমশালায
সবজের
দরজার
সফলভাবে
জঘ
জনৈক
পঞচগড
লীগে
কাজও
পলেট
গরনথের
রেসটরেনট
অগনিসংযোগ
টযর
##দিত
গিল
আসসালাম
অনভত
আনেন
##ানতম
পরারথীকে
পরতারণার
ধবংসের
নিযমে
##বসতর
কারতিক
নিবে
লেখালেখি
পলযাটফরম
আহাদ
##হাটে
##চং
সিএম
পরচছদ
##18
অধিকারের
বিসফোরণের
পরিচালকের
৫টা
##পনার
মেঝে
ফরোযারড
বিশালা
পতল
হাটহাজার
রাঙগামাটি
দাসের
লাগানোর
পৌছতে
জরিপে
৩টার
ইনসপেকটর
##োসে
সোবহান
ঐতিহযের
ইনটেল
লোকসভা
পরিচযপতর
বযাকটেরিযা
des
##গাওযে
আশেপাশের
গরেড
উঠেছেন
##গণিত
সংজঞা
রোহিত
চিতরা
নামবে
##যাললাহ
##ভীরে
রাজশাহীতে
গঙগা
পাতরে
বিডাল
##ঙগালর
মাহববল
জঙগিরা
##ামোর
বঙগোপসাগর
এদিক
##ভমির
##যোজনীয
আতমবিশবাস
অধযষিত
সমারটফোনের
বিশবসত
শাসনাম
পরিসরে
ইফতেখার
কালা
জানাচছেন
শিশটিকে
ঠিকমতো
আদেশে
বেসিক
##শাসনের
ডিন
কাছেও
##বরতিত
করাও
দইবার
গাডিটি
##রিতে
আদান
##শচি
নৈর
১৩টি
কিতাব
দবিতীযার
জলপনা
হাব
##বধর
পারার
তাদেরই
can
ঘাস
dick
সাইক
বিদযত
বিধায
চাইনি
book
##পায
অসামানয
ইয
চাযনা
ভদরলোক
অংশগরহণকারী
তাহির
সহপাঠ
পডেনি
বিরোধের
দরভাগয
কাজগলো
কারডের
মসতাফিজ
গাঢ
সাদেক
তারে
এসোসিযেশনের
বিধানসভা
বরিগেডিযার
##সেরা
sup
বযাচ
গভীরে
রিলিজ
ফাংশন
gol
ভাবী
রাখাইনে
সবরণকেশী
পরেসকলাবে
অঙগর
সবরণের
টিউব
নেডে
লিখা
যানতরিক
শসয
কোহল
অসখ
বদধিতে
রেজালট
বেজে
জঙগলে
##ount
জৈব
সরকষিত
জেড
ইলে
ভাগাভাগ
বানদরবানের
সানা
##৩৩
যেতো
বরিটেন
হেলপ
ভযানক
হদযের
##ীযমান
ভালবাসার
পাললা
বোস
মাঝি
দজনেই
##له
সযারের
ইউনেস
সেকরেটারী
##পাশা
পডাশনা
মরম
ঢল
পেজে
জানাবেন
মেইন
##জিযামের
##act
কযাটাগরিতে
পাবনার
বরিজের
##সিডেনট
##িকাল
রড
##বাগান
যোগে
বিধবা
মোযাজজেম
সহিত
##কিংযের
গণা
টিআই
জাহাঙগীরনগর
থর
সরওযার
সমপাদন
করেছিলো
অঙকের
ag
উচচতর
শেখা
চিতরনাটয
ইমিগরেশন
তদ
##ix
দটির
তেহর
আযন
সেসময
সংসারের
##চরচা
পিটার
নিউজিলযানডের
##ey
##বাসনের
তাজল
সারথ
সমপততির
পরতিষঠায
খালের
বাটন
এরপরও
লোককে
ফাইবার
পরতিকার
সীমানতবরতী
আবিরভাব
জীবিকা
nov
বিঘা
ইসরাযেল
কাসেম
04
বাট
হোযাটসঅযাপ
আখযা
এজিএম
আদাযে
বকল
পরোটাই
অনিবারয
পাদ
নিযনতরন
বাসটি
নববই
আওযার
ছিলনা
কাপত
সালমানের
নকষতর
##কলের
২টা
চটর
শানতিতে
১৯৭৪
টযাক
##মিনা
শাপলা
অনধা
দিনেই
dhak
পরেসিডিযাম
বনের
আলীকে
contin
জগত
তাগিদ
বহদিন
অমানবিক
তাকেই
ভীত
কারবন
ভোরের
বাধে
মকতিযোদধার
##কেনদরে
মযানচেসটার
08
দদিন
##ভোর
সোনালি
সলো
ফলোর
সংহতি
পঞজ
##জজামানের
ফতল
বাজারজাত
বাণিজযের
পরতযকষদরশী
##জানা
সমসাময
পরাপয
উললা
মাহফজ
বিএসইসি
সবথেকে
নাশকতা
বাইরেও
##১টি
জাকারিযা
##সটিকের
উঠার
যোদধা
সপারসটার
রিমানডে
##তাসহ
##সিভ
##ষঠিত
##িকষিত
রিপাবলিকান
তচছ
বিপণ
##মিও
আইটেম
##কতে
per
সতনযপ
কানের
আরবী
সেপটেমবরে
মাষটার
আকি
টাউন
##দাযে
কাদতে
মনট
##িলারা
১৮০
##কষযং
এসো
##pl
##তলে
পরশসত
বৎসর
তযা
জিনিসপতর
পরাইম
পরতিনিধিরা
##কষেতর
##বীয
##হরের
##াকষণ
পরাচীর
বিসফোরণে
শিকষককে
খাট
সাইফর
বিমানটি
##গলপ
সাখা
##চিহন
views
মনিটরিং
খাডা
দেখাবে
জোরপরবক
সতযের
str
সটল
বিটিআরসি
সমিথ
##লারের
##েনদ
লোকটা
বিবিসির
সেজে
তাহলেই
##বিজঞানী
##কাহ
অযামবল
জামিনে
মজবত
জনা
হালাল
রেগ
তেজগাও
আতর
নডাই
##তলার
অনেকা
কাতারে
পষট
সমাধি
যথাযথভাবে
ঢাবি
##িনয
ধরমে
##িসতানে
পরসারিত
লাহ
সমসামযিক
##জাতনতরী
হযাক
##বযাপারে
##করন
দাযিতবপরাপত
পোসটের
লেবার
করমকাণডের
বাংলাদেশিদের
##োষ
দেযালে
কনসয
##টিসি
শরিফল
লিড
বাযতল
##যালে
কোষাধযকষ
লাখের
পরোডাকট
হবো
##পরস
##বিশেষ
থাইলযানড
##ডিল
উঠলে
শতাবদী
চোরাচাল
##যরের
ফরজ
নাতি
##ফেস
দোল
খোরশেদ
বিদবেষ
নভেমবরের
মরযাদায
মডার
শরণারথীদের
যেতেন
সরকারে
সংকরমণ
##বিবাহ
কষটে
হযাকার
শিকষাপরতিষঠান
বাচার
শযযা
কারিগর
অপেকষাকত
জঘনয
##কাস
মযাকস
##ates
##পরাপ
মোসতাক
larg
সংশোধিত
সটযানডারড
##জিদ
সংগঠনটির
ফযাকট
ইভেনট
চামডার
অগনিক
বাসিনদাদের
আখতারজজামান
get
পরতিরোধের
লাগতে
গনতবয
যাতরার
দরগম
বযাপারটি
রেখেছিল
ফায
চিটা
বিসমিত
comm
বরীজ
##খালি
টঙগী
নেবার
ডিভিশন
দজনকে
অভিমান
গাওযা
বষটিপাত
কামোত
অপরিবরতিত
চিনতায
ধযান
ঘাডে
অসথিরতা
কলানতি
শিকষাবরষে
মখোশ
উপলবধ
লিডার
##গেছে
বযাথা
##ভঙগ
##ky
##শরমিক
ভাবনার
বারাক
পরীকষামলক
ইসরাযেলের
আশেপাশে
নযাপলটনে
কাপতাই
##লিপ
কমছে
পকেটে
মাহাব
এসডি
##নাশক
কিবরিযা
দেখল
নিকটবরতী
পরযোগের
এনবিআর
বনদো
ঘমান
সিলেকট
মাশরাফ
মমিনল
ঘরবাডি
সবরগ
অনিশচয
নিরসনে
মসলা
ঠিকানায
দেবনাথ
আলোচয
মোনাজাত
ঈর
ভকতরা
কলাউডা
বিমানবনদরের
##৭টি
ct
##ec
ঈদগাও
ele
জানিনা
দাউ
সামঞজসয
কারোর
ছাডে
শৈশব
হযারি
বিছানা
##oh
১৯৯৩
হাসে
ভগবান
##সপ
দেখিযেছে
কাযেম
বেডায
##ont
আনদোলনকে
হরমোন
কাসটমস
দবৈ
বারসেলোনার
সংকর
অশোক
##কনযা
দির
লীগকে
উদধত
##৩টি
##টাকা
বযবসথাপনার
চযাট
আধিকারিক
লাম
##জাগর
কানটরি
##াহিতয
##ইস
কামোততেজ
নাডা
অপবযবহার
##বাডীর
গলশানের
কিসের
সমপাদকের
part
বিশবযদধের
সিবিআই
ভোকতা
##ানতমলক
##৮টি
##বিউ
পরিপক
ফেরেন
পতি
জলম
পরোটা
##৪টি
ইসির
দলা
মহডা
গণস
##ance
কাইযম
পরিদরশনে
ht
পনরা
##লোকের
বরণনায
পরিমাপ
##লাকসি
##মাহ
১৬০
সাস
বেশীর
ডিফেনডার
##খর
গণফোর
কযাটর
অযে
ভোগানতি
##বাডীতে
##চিতে
টিভিতে
সিরাজগঞজের
আমিরাত
বাতাসের
কামোততেজকত
বেডিযে
##বিধানে
পকরের
শেল
ইউটিউবে
আতমবিশ
বেশিরভাগই
##যামের
ওইসব
##বেদনশীল
রবারট
সিট
তিনজনকে
largest
মসকো
##ীবিত
গরেপতারের
জামিল
মযাচেই
নাকচ
কাফের
মাহি
উদাস
করমবরধ
সমনবযক
১৯৪৮
রেট
আতিকর
খেলাপি
##েয
##যেরা
সমাজসে
সৈযদপর
aut
বলের
##জিট
পিএনএস
অপরিচিত
##পলের
হঠ
বেক
টিউটোরিযাল
কোমপানিগলো
রী
আজিজর
সকযান
গোতরের
সমবেত
ছাপিযে
রাযকে
ছাতরছাতরীদের
গনতব
মিডফিল
নিরমাত
কযালেনডার
##জেকট
##ition
সমযও
ফিস
##লাকে
নিশচিন
##নদী
করণফল
দাখিলের
মেগাপ
##ঙের
নাজির
অনযকে
##কতিকে
যাযনা
সিলিন
পিএসসি
মেজাজ
চাও
বিযেতে
হতাহতের
কামোততেজকতততব
করমসংসথানের
ফরিজ
বলেছেনঃ
পলেন
রযাম
পারো
হইলে
রেসতোর
##কাতর
গণী
সমহের
দরজায
দেখলেই
নাটকটি
বঝলাম
১৬টি
মকবল
মেরি
বিতরণের
নইলে
সকার
তোলপাড
করণা
সাকিবের
করমবরধমান
সাথী
সেহেত
অনকল
খাদি
##মেইন
মানসিকভাবে
৫টায
##মারা
ডিলার
মালিকরা
ফলক
পলিসি
অনাযাসে
বরযা
বটেই
##হাতি
ছেলেটি
সবজির
ফাইনযানস
আমপ
বাসভবন
উততাল
##নারের
শীতে
মহারা
ভকতভোগী
##চনে
রসালো
গযালাকসি
উইন
পেশাজ
মেডিসিন
১৩০
এবযাপারে
ততী
সেলিনা
ওডি
##ইযার
বিধাযক
##জোর
##চই
কাটে
চাষে
বারানদায
বযবহারকারীরা
আদরশের
ওযানডেতে
##শপ
##িকিউটিভ
উচচশিকষা
সগন
##মিডিযা
রমের
সমতির
##ating
কমিশনে
কৌতহল
ফেরেশ
06
খাজ
বেআইনি
উললিখিত
সটারট
##মাণের
১১০
ভালোবাসি
বেডেই
গছিযে
আভাস
##জাম
##বরি
কনভেনশন
খট
03
পরধানের
একটানা
সংকলন
৪টার
##িকেল
তারপরেও
শিযা
হও
পরলো
দেখাচছে
অনসনধানে
দৌলত
নাল
মারামার
পরসব
মাদরিদের
bl
##কিছর
art
##বিজঞানের
your
অসামপর
অনকলে
রাশিযান
মাধযমের
##ict
ইনকাম
বযকতিগতভাবে
আনগতয
সমালোচ
উরগ
সদা
ঢোকার
নোযাখালীর
চিকেন
ইমপ
উততরব
পরতিবেদনের
তাদেরও
কষযকষতি
##জাতীয
##োটাই
হাজিরা
খাযের
##মশ
ইরশাদ
পতে
ঘে
##ভকতির
উইকেটের
অপহরণের
করমসথলে
খানা
##কাত
থাইলযানডের
হাফিজর
তিনজনের
##খাতে
অসসথতার
খাদযের
ইনদোনেশিযার
অনিচছক
দনড
##ননবী
সিরাম
ইউপিডিএফ
ভিউ
##ated
সৈয
কবরসথানে
সোরস
মহো
##সাগরে
##খানার
বহনকারী
tags
লেসবিযান
গলে
##নাস
বলকের
অচিরেই
সংবিধানে
সবাসথযসেবা
লাসটনিউজবিডি
অযাসিড
পরতিকরিযায
##ছের
##ছিস
গণধর
উততপত
মোছা
অনতরে
##ann
##99
##চাক
আখা
লাইবর
পরিনসিপাল
আমিই
##িললাহি
বনানী
গণপরজাতনতরী
##বাশী
##নাকারী
১৯৮২
মাঝেমধযে
ডেঙগ
আনোযারল
পরিনত
আরমান
আহমমদ
##ajpur
কমরেড
পরিচযে
উপনিবেশ
মেদ
গোযাল
আরোহ
বহিরাগত
শাসতর
মেঘের
পষঠার
##ফটের
মঞচের
দষটানতমলক
পারলামেনট
হৈ
##বাগে
বালিযা
##গরির
মদরার
ঘমাতে
কষিবিদ
এনারজি
নাটোরের
একনে
ফজলর
হাইডর
নিরমাতারা
গরেট
গজরা
dinajpur
pk
লাশটি
রমনা
##50
করবান
মধযপরাচযের
ঝলে
ভযেস
জঞাপন
##৯টি
পেযা
অবির
তাফ
ঝরণ
অনপরেরণা
বিকশিত
দেশজডে
##বিনে
করোযেশিযার
অংকের
পরসেসর
লাখো
আগার
পরণিমা
রপালী
ধারণার
মেহেরপরের
যোগদানের
##চকে
শরেণীতে
মাইক
চযানসেলর
বিবাদ
সেমিফাইন
গডি
মেই
মজাহিদ
##লিংক
##ভাষী
ভরপর
ডরাইভিং
বহিরভত
আশাবাদ
সমরণীয
07
রোগীকে
হেলপার
এট
##দোষ
কাময
জাহিদল
করছিলাম
দডি
সনতরাসের
অশভ
শৌ
##পনথি
আপেল
১৯৬০
করমের
নবাযন
##বারই
ভাগই
নিলেও
অরথনীতিবিদ
অসামপরদাযিক
উমম
ভিজিযে
##গতিতে
সেনারা
বইতে
উদযাপিত
west
##োপক
##কষণিক
##ভেনট
সাপের
কারযকার
দিঘ
জনপদ
জিএম
ইনিংসের
সেইসব
৯০০
##চনের
##তারকা
লেডি
তরিকল
অধিদফতর
আশীর
শীল
পরিহার
১৯৮৪
##েসা
পরবাস
এডকে
কথোপক
##তাও
লাইবরেরি
##িকোর
নিট
##ফিউ
শতাবদীতে
ভোজ
##িমার
রউফ
ডন
নাসরিন
সথলে
গোযা
বাডিঘর
চালকদের
ছাতক
দেশগলোতে
যানবাহনের
উদযোকতাদের
ভেরি
রঙগ
গনাহ
দোস
##িলে
##লাযেনস
বিশঙখলা
সবতঃ
আলাইকম
পরতযাশ
বলেট
রাজিব
সংজঞ
পাইক
কাদির
##াইলে
ছাতরনেতা
ঘটানো
##low
জবাযের
সংবেদনশীল
দিযেছিলাম
১৯৫০
মানিকগঞজ
গিযা
ডিএ
চশমা
##দিনী
ভেজে
মজিবনগর
##ফটি
##ানতের
ইনভেসট
নিরলস
শিউ
উট
কীরতি
১৯৫২
শিকষাপরতিষঠ
##কণঠ
##মেলায
ডেট
মছ
পরজাতনতর
##তবক
৩০টি
বরাদার
হীন
থানাধীন
আপাত
সাংবাদিকের
ডকমেনট
সপরে
রাইট
মই
পরচারে
রিসি
##পরিকলপ
মাসক
কামালের
সমভাবনার
##ধবে
বযাটালিযন
লাক
##মারের
সাইদর
গমন
##ফলক
##int
সরিষা
হালনাগ
পরতিকল
এঘট
লাগান
পৌছান
ডেকস
ভারচযাল
কোরসে
পথচার
পরচারণায
বিদযৎকেনদর
রিযেল
##বেলের
শতাংশে
চযানেলের
মোললার
ডেমো
টরেডিং
সমদরে
##ঙখল
পরসিকিউ
ওড
##মানড
##বীপ
জেতার
##ina
অযালার
বিশালাকার
সেনাদের
আলতাফ
আরেকট
ককট
##ারথীর
##কলপ
##oth
লইস
নিবেদিত
continue
মেখে
কমনওযেল
পরাসঙগিক
তোকে
নিরদেশনায
সবাসথযকর
ঝিনাইদহের
পিছন
সষটিকর
আইনান
চারজশি
হতযাকানডের
খেলোযাডের
শভর
##৬টি
রেলের
##দাল
হাতেই
অতল
নাইকষযং
28
##eet
চাইলেন
বিপিএ
পডেছিলেন
তলবে
বিনয
ফেইসবক
গযার
পডাশোনার
নবীর
হযাম
##ular
দেশনেতরী
উঠলেন
ততীযাংশ
dinajpur24
থাকব
গাংনী
##ারো
ফারমে
আমর
পরবেই
জননী
১লা
জডিশিযাল
##ফিযা
কোরসের
যথার
##ডেল
ইনদোনেশিযা
আসক
খেতাব
উপসথাপনা
মোক
পিযা
##বাগের
থাকতেই
##িনারি
মহিলারা
পাযসংকরানত
বলেননি
নিরজন
##টারির
পরসাদ
ভালই
next
সতীরথ
সমদধি
শনেছেন
অসথিতিশীল
##াকাটি
##চিক
বযাচের
সমাজকলযাণ
মধযয
কওমি
মসললি
কথাস
শোর
##ণযের
##২৩
বোঝানো
করিমের
মতযকালে
অপচয
বসবাসকারী
##তবধ
##বোন
##দধির
সকাই
পরজনমকে
ধরমনির
হাসির
পরতিষঠাবারষিকী
সজল
যাতরীর
##িমের
##মযানের
এনেছেন
নিচছি
আনত
বণিক
সখে
ইউপির
##ivers
নিউইযরকে
৬ষঠ
##কিউ
টরাইবযনালের
হাইকমিশনার
লাত
জনমত
##িসকার
মডে
সবেচছা
##বিসি
বাথ
বেগন
সনেহ
অজঞান
##বালের
##কতায
ভীতি
##11
সীমার
চাঞচলযকর
আনদোলনকারীদের
##শালার
##ঘাটের
২০২০
হারনর
খাইযে
সাইজ
কাঞচন
##নাদের
##বিরতি
মেষ
##চরণ
উচচতায
গাজীপরে
##াইজেশন
##দরিক
কৌশলগত
অশানতি
##ভরম
মবারক
reading
সরোত
##িযেট
##বিষযে
শিরীন
##ake
ধানমনডি
পাঠয
অমল
##so
বাথর
আফস
হযাট
##মেনটে
##পনায
সংসথাটির
পরেরণা
আকতারের
আশপাশে
##ভাবনা
hel
লেখকদের
##উনডের
শিলা
জাগরত
সমপাদিত
উচচশিকষ
ফখর
অসাধ
এখানেও
খাবারে
বোট
##চলা
##োপযোগী
আসামিরা
##যিক
সরবকালের
শখ
##শতাধিক
##গরহণের
সংশোধনের
বিএফ
##ars
জাপানে
##বিচার
গভীরভাবে
সরো
মিযাকে
ছডানো
সিটিতে
মারধ
নবাগত
##পরার
সাজাপরাপত
অযাকাউনটে
১৯৬৯
সরযা
##বযকতি
তরণীর
বযযবহল
কাযদায
##বাইট
১৪০
পরতিবনধকতা
পোষাক
তারকার
মেকআপ
মলে
লিবার
কিশোরদের
অযাপটি
##নীর
তোমায
দেবতা
বিনোদনের
##ঙকান
কযালস
নবনিরবাচিত
অতিথিদের
পরতিপাল
যোগাযোগমাধয
নাসের
বেলজিযামের
ফেললেন
নামাজে
ইমার
মানিযে
লাভজনক
মিসেস
##হজ
রোনালদোর
গরাস
মাদকাস
মতযদ
বিচছেদ
একসিকিউটিভ
অনধাবন
50
আমদানির
gu
##ালান
সাতকষীরার
বিঘন
বসতত
আযাতে
সপিড
সাধয
কাচের
##চারযের
চযামপিযনশি
রঞজ
জাতক
ফলাফলের
but
বরড
পরযোজনের
##ডটক
36
১নং
৩টা
কাযসার
কযামপেইন
##পরিবহন
চযাপ
##hi
তারকাদের
আবি
অপরকে
চারিদিকে
পডছেন
জানাচছে
ফযেজ
মদয
##মখর
##olo
শরৎ
মানষটি
পরহর
বিভিননভাবে
বকসের
বিচরণ
পাহাডী
মেলেনি
ধরমনিরপেকষ
##olk
ভাঙার
শাযেসতা
রোদে
সরবোততম
হালনাগাদ
লিস
তালেবান
বিশববযাংক
জাবেদ
রানি
পিপলস
করমকাণডে
খলিফা
net
ডিএস
গেজেট
কেমিকযাল
সবেচছাসেবী
##তাবসথায
আনবে
তাত
জনশকতি
শাহেদ
১৪৪
সৌনদরযের
উপাতত
অসন
facebook
পাণড
আলাইহ
বিসরজন
##করযাট
##মযী
ভৈরব
রকেট
##িনিং
পারটিতে
##োনায
বিকাশে
জিজঞাসাবাদে
৭টার
অভিযোগপতর
ওপরের
আললাহকে
##পথের
গরাফিকস
উকতি
##ধনের
##জীবনের
টেনডার
কযানসারে
সামদরিক
চাদর
মেযেটিকে
ইনডাসটরিজ
ডিজাইনার
কনডি
রীতিমত
খানেক
##ঞজেল
মযাজি
##uss
শরীযত
মোদীর
সাধারণভাবে
তাকেও
সমীকষা
চষ
পিল
নামেও
rec
জোগাড
কভার
রাষটরে
লাগলেন
দমনে
yout
##যেশ
উপসরগ
##roid
পলাসটিকের
ইলেকটরিক
পরযালোচনার
জোনের
সামলাতে
##এসডি
মধযরাতে
পডালেখা
##গরাহ
রাখছেন
এজেনস
##েশান
##টরো
ভালভাবে
লযাপট
##১৯
পিলার
##গারড
সভাক
সমযসীমা
সবচাইতে
ver
##রান
##আললাহ
বিরোধীদের
অশব
##বাইক
mov
নমন
মেযেটা
সাখাওযাত
বসবাসের
সাহাব
অটট
পনথা
পিকআপ
রাজিউন
ইলিশের
রকষণাবেকষণ
##দরিদর
আবাহ
গরভে
##শালা
সকট
portal
উকিল
##ংলা
পযাট
##৮০
সাবস
শেযারহোলডার
কেল
মওলানা
রিভিউজ
যথারীতি
phot
পরিকষ
##তিযে
##গোষঠী
আলেক
পাগলা
ইসলামা
পিএইচডি
রদর
সাথ
অবলমবনে
রেডি
রযাং
বিপিএল
##ঘণ
##টিভির
গলশানে
আঘাতের
##ood
মামনর
সেগলি
তলব
কমিশনকে
সথাযীভাবে
##সফর
##লাদি
সবৈর
এহসান
সিঙগাপরের
##িনট
জিললর
মিশরের
27
সেশন
সমাজসেবা
##তরক
##লেটে
খবরটি
লিসট
হাছান
ফলাইওভার
পরতিষঠানগলো
মিথযে
ঝকির
পরিধান
আপত
##বাদীরা
টাইগাররা
দেল
রাবার
মোসাদদেক
শনলে
##সমহে
নজরলের
পরসততকার
যকতরাজযে
অরি
শিলপীরা
বডই
##ark
আসামিকে
সবচছতা
##ier
min
বিশববযাংকের
সাশরযী
সমকাম
এভার
পরশাসনকে
26
মশলা
১৯৭৮
ভমিকমপের
নিরি
১৯৮৩
বেসট
হাদীসের
##কলাপ
সিদদিকর
বনড
গণেশ
মহাকাশে
সবাসথযমনতরী
eng
অনার
দকষিণের
##োহ
##খনি
সিপিএম
কেও
খোযা
##রাগী
##gh
গযালার
শেখের
পরশনবিদধ
এপরি
অপচ
ইরাকের
অচল
জযনত
তাব
রাতরি
##পাকষিক
যের
দাঙগা
##জজবল
ঝডের
সাদদ
##োটিক
মরহমের
সিআর
মতল
যেখানেই
চিকন
ছবিটা
গরতবের
মোহামমাদ
##বিদয
কইরা
শিশির
##লৌ
আশবসত
পরিশোধের
শিরোনামের
##গোর
##পদে
পঙগ
নজরদার
##ull
বিযানী
##তাপর
##সৌ
গোতর
মাগর
ঝাক
জোটে
খাওযানো
৫টার
লোকজনকে
পরবাসে
শরীক
১৯৮৮
বিভরানতি
কোত
পরণীত
ডোমেইন
অপপরচার
টেকসট
কাতারের
মতযবারষিকী
কষিপত
কমপলেকসের
অসতরোপচার
শাহী
জাগো
গারল
এবিএম
শাহজাদ
দরশকরা
ঘাড
ফরমযা
লযানড
পরাপতবয
সারবজনীন
কমবল
পরতযাবরতন
ফলাফলে
দরগনধ
টযলেট
জিপি
ইততে
ফলাইটে
##ধায
বরষার
পরণব
দবাদ
লীলা
##ামন
রাশিযায
##ৎসব
অনষদ
অসটরেলিযান
ধলো
মসণ
কাহাল
আইও
##ইসি
কালেক
ধারাবাহিকভাবে
##িজম
৬টায
##যানসের
দাতা
লাগলে
ভগছেন
বাঘের
মাতরই
এককভাবে
##জিলা
খরচের
আগসটে
ফাইনালের
লতা
রিপোরটারস
গনি
publ
বলতেই
চাইলেও
বাহলয
ধরমঘ
হতাহত
লোগ
নাটকীয
সইডেন
মরযাদার
পরতযেকেই
সেনের
ভানডার
একাডেমীর
পডবেন
ভাবছে
mp
##ছক
##ঙকিত
অবরদধ
চিনে
লিপিবদধ
এটক
নীচের
ফোট
১৯৭৬
html
সামলে
উজজল
বেডাচছে
চোপডা
ভাগাভাগি
শানতিন
##েলিত
আছেই
টযান
সেবক
জেট
জারমানিতে
intern
মিমি
##করমীরা
pe
১টা
বেইজিং
কলের
তালি
##চকর
পটযাখালীর
টিকিযে
যেযে
##টিরও
##বদধি
##জাব
শহীদের
ইনদিরা
১৯৮১
মাইকরোবাস
দিনম
##ঙগায
ষোল
ঢাকাঃ
বোযাল
ইনটারভিউ
সংকষেপে
আবরজনা
একতরফা
will
চনারঘাট
কলাসের
জনই
পরতিহি
কেপে
করণফলী
dail
ইমতি
##াপতর
লেফ
জস
##ণিত
মনটা
দযেক
গণহতযার
করে৷
সকলার
বরিশালে
ধনে
থাকাকালীন
সামাল
পচা
লোকমান
দরশনের
শীষ
সপত
ককটেল
সেটে
যম
অযাকস
শফিকর
জহরল
অডিট
##বালা
উপগরহ
মধা
অটল
##ানতিতে
সবশেষে
বাচানোর
##বিংশ
রাইটস
রেসটরেনটে
শারদ
সেভাবেই
আরসেন
নিউক
টযাকসি
বিপরযসত
নিতানত
শামিল
জিডিপি
মরব
পরকটর
জনমদিনে
মলা
##যাকট
এএফপি
mon
কোলেস
দীঘ
১২৫
ছাডপতর
নৈশ
##নতী
##ফাস
চলাফেরা
অবহেলিত
দেখো
সিআইডি
##বিজ
বিজঞানীদের
তও
##টরা
##ঈল
করমান
##দেরও
##রাস
##োদিত
বাগেরহাটের
##পেশ
নেইমারের
##ভোজ
রহমানসহ
##রাজ
চাওযার
শিকষাবরষের
চাদাবাজি
##িনো
তবর
সারওযার
আহলে
##form
ফারজানা
যাননি
##িরাতে
পরফেশনাল
এরদোগান
মযারা
অনষঠিতবয
কোমপানিগলোর
আরজ
খেলেছে
পরদানে
##ভকতি
##হারল
আলমকে
কসবা
রাকি
ডিফেনস
টপি
শংখলা
ছাতরীরা
##ঞজলি
##খাত
##78
কেটেছে
গযে
দবাদশ
##াজীবন
বিনিযোগকারীরা
কড
দশচিনতা
মোদির
অরাজ
উলকি
ফেলল
আইএসবিএন
loc
##হিতা
হারান
রাকিব
গরহণে
সপনসর
গাইবানধার
পরকাশনী
আলাদাভাবে
##১১
কতক
##মরযা
পদতযাগের
হিংসা
কমনওযেলথ
দবিতীযত
ডেভেলপার
মজর
##জনদের
শাও
মারশাল
গরামীণফোন
পলিজ
বনদযোপাধযাযের
ভোটাধিকার
##তদের
মতিঝিল
লিখেন
##কিংযে
op
উলামা
যাহা
##ভেদে
পোহাতে
ফটিক
জনমদিনের
শযামপ
খরিষটান
জিহ
বসবে
সপরিবারে
তৈরীর
##শিশ
উডোজাহাজ
বখাটে
মযাপ
যেখান
সেকটরের
##কলার
##ধারিত
ভরত
অনাকা
নবীনগর
পরিবহণ
##ফফর
বঙগা
পরাদেশিক
পরসততির
সজাগ
##লিটি
তাতেও
সইড
ঘেষে
##cr
পরসথ
কাজই
##মপন
বিজযীদের
পরদরশনীর
খাটি
এনওসি
##োগানে
চাচছে
পঠ
##সমপনন
##cl
চদ
চেযারে
inst
আনোযারা
##ননত
দষিত
boobs
লাফিযে
দানা
##ফরে
রেগে
ওযাক
আখের
টেকনাফে
বজল
##লেব
মারটিন
কলপনার
মিডফিলডার
জিএস
সংগঠনটি
পরসতাবের
##সতাদ
জালিযাতির
বজ
##অন
##যাদি
এতটক
বারি
বিকষবধ
সোহরাব
##পশন
##চাপা
ছেলেটা
আইসল
##পেন
##co
শংকর
মধযপরাচয
ইযাহিযা
এগারো
##করাই
বজরপাতে
সভাককষে
একদা
সরবাতমক
##ালযের
##সচক
উততোলনের
back
পরবরতন
##নিরদেশ
##করিয
কাযেস
মিলছে
জাহাজের
##াটের
দিবয
বিনিযোগকারী
##মিস
##কৌশল
##টেসট
সষঠভাবে
ফরিদপরের
রেখেছি
কিশোরগঞজের
যবতী
মোসতাফা
বেডি
বহবার
del
হযায
রহসযময
ইলিযা
সলাই
বিতা
এতই
##obor
পরতযাবাসন
বকসে
দরগাপর
##ঘোষিত
দৌলতপর
##গরামী
ইযাক
একসট
##নিরভর
আনদোলনরত
নিপীডনের
##ty
ভমিকার
শেরপরের
ওলামা
আজো
সাইজের
শামসর
হকার
বযতিকর
তীরথ
grou
##পকষীয
টিট
আতঙকে
শীরষবিনদ
tech
ইযাছ
##ited
চলো
ছডায
লেজ
হলিউড
উপকলে
মানসমমত
পতিন
পরিমিযাম
নিছক
মফিজ
##দাদ
সারোযার
পরকট
লঙঘ
ছাতরশিবির
শেরপরে
চিঠির
তোমাদেরকে
কারেনট
বদরদদ
ডাচ
সেনাপরধান
লেফটেন
##েটর
ভাইযা
ওযাহিদ
##ان
ছযজন
গীতিকার
সবিধারথে
সতত
গরভা
জাযানট
ছিট
cap
##বলীর
তাপস
সজিত
মহৎ
এতিম
ধসর
বনি
##পেনড
##কষনিক
মাকস
##থিল
সততার
গরতবার
তারিক
ডেলিভারি
মলতঃ
রাইফেল
বযালট
আইজিপি
গঞজ
শেক
পরীকষারথীদের
চলচচিতরটি
১৯৬২
সংঘের
আগরহের
মনকে
ইংলযানডে
সপারি
অকাল
পাযরা
পরতগাল
সতী
পরমো
করীম
পাটো
কযামেরায
পাঠদান
শাহা
নখ
হাহ
সটোরেজ
উইল
বাপের
মাগী
##ানিতে
ঘটলে
খাবেন
পরলে
##টিসের
পাবো
ভাবলাম
বিপণন
বাধযবাধ
জিতেছেন
এনাযেত
সোলার
নিরদোষ
##সঙগী
দাদার
সেদধ
ভাট
##মকা
জানো
ভিকষা
মানচিতর
##জীর
##মেক
ভরি
##তোরা
মহিলাকে
মিরজাপর
vo
অনচছেদ
হাটহাজারী
su
##ফায
##পিছ
৮ম
##সড
সবনাম
##গিরি
চেকপ
অগাসট
##িকোণ
সননযাস
খাজা
ছোডা
পদকষেপের
রযযাল
গেরি
##চরি
সারির
খরিষটাবদে
ঝো
রখ
বযসততা
##িকারী
ফলশর
নিজেদেরকে
2014
মেহেদি
কমা
হাপ
##বেই
শকতিকে
ফযাকটর
কষটি
দারল
ধাম
অবসথাতেই
ডেমোকরেটিক
কযানটনমেনট
ঝডে
নিকটতম
হতেন
সচকের
তিতাস
দষকত
এপরিলে
হারিযেছেন
##াইযের
রাহমান
নারকেল
এরইমধযে
ততদিন
কেনাকাটা
নামও
বানিজয
১৯৮৫
পনরাবততি
ঘাত
বিও
পরদরশনের
বদরল
আববা
পলিথ
সরেফ
সটেডিযামের
লাব
১৯৮৯
##ভিক
সেনানি
এনটারপর
ভিযেতনাম
বাচচর
পলাবিত
ভিততিপর
অবতার
রাধ
চাইবেন
চোদা
##atch
পরশংসিত
রিচারড
হাজতে
ঘোষের
ঢোক
গয
##লিও
##ings
ভালোবাসে
কাঙকষিত
২টার
পরতযাশিত
কযামপাসের
আরজেনটাইন
হামলাকারী
ফেবরযারিতে
পাঞজাব
##দিনা
সবাচছ
বিবাহের
ডরাগ
ভাবছি
১৯৮৭
ফরী
চযারিটেবল
বেঙগালর
##পরেমী
সারার
পোনা
নিরবাহ
কলমে
অপহত
খেলাফত
অসবসতি
গরমের
দারাজ
মোমিন
নারাযন
চাপাইনবাবগঞজের
বাশি
অধযা
খোসা
কমায
মাদকবিরোধী
অকটোবরের
আলামত
শরেনীর
ঝিল
##বাজির
বাঙালিদের
ফেযার
সযানড
গহবধর
সহানভতি
পশচিমবঙগে
ইজতে
গরতবারোপ
অভিনযে
১৯৭৯
pk10
ভাসানী
dicks
ফাদ
##ged
##লাবাদ
আইনটি
আইনজীবীদের
android
কাকা
চঞচল
ঔপ
টরাসটের
ইছ
কোনভাবেই
##সিযাল
##ধারণের
##সফরত
হযার
থাকলো
এমএন
ফেলি
##েযে
##গেশন
ইনশা
নামেন
চাচছেন
দবিতীযবার
daily
সঞচার
ছোটবেলায
##ax
##গরীয
করমকানডের
গদের
ডিভোর
দীপা
দখলদার
বিলমব
##ীণ
##hy
আইনানগ
##পরসাদ
কামরান
গবাদি
##িনস
মনন
ততকষণে
##টকের
সমকাল
পথেই
রহসযজনক
মিম
অযাথ
বিতরকে
সিলিনডার
কোনটি
২০১৬ইং
টানতে
ed
may
সবীয
ছাত
মোস
গোলটি
ফরেম
বযাবসথা
নানারকম
সবারথের
##নিও
##মপতর
সতরীলোক
##ual
গালা
মযাগ
ফযাম
খালেদার
ফেলছে
১টার
জেতা
আরদর
##চিতরে
##পতিকে
সমতিচার
পরচারণার
দফতরে
আকষেপ
উকি
হকি
##িরবা
##নেছা
previ
হেফাজত
অদরে
নিষেধাজঞার
পরিচরযা
সেনটিমিটার
po
চীফ
হিমা
ডরোন
আনিসর
##বযাক
ঢাকাসহ
##গঠনের
সহযোগীতা
ইমতিযাজ
সারজারি
মাহফজর
##বিকা
পরামরশে
অভিশাপ
তযাগের
সডকটি
ডিউটি
শরীফের
ফিলিসতিনের
একচে
পরকোপ
পরোগরামের
রিটারন
মাঝের
নরজজামান
সবাকষ
পলটন
কাকর
##সতরে
যেতাম
সেইসঙগে
রাসলের
##নেই
লিঃ
পরেরিত
সঙগীতের
জালিযাতি
দটোই
এধরনের
শযটিং
##mail
##ামোগ
পরাণিসমপদ
মিরসরাই
সীমাহীন
তডিৎ
##১৮
fir
চষা
রপা
##ফী
নডে
দেশবাসীর
বিপদের
ধরষক
মানবে
একাদশে
গরহের
আমারও
##রাগন
হেযার
বিহারের
আতঙকিত
##সাধয
##যামতের
রচনার
পারবতী
১৯৬৬
অরথাযন
##মকতি
টাস
আরটিক
যাদব
পেযাজের
উদধারে
##শাসিত
উদযাপনের
উদভব
শিকষকতা
বিনষট
উদবোধনের
09
##খাটো
উদাহরণসবরপ
১৮টি
##anc
গিযেও
সাইড
মিনহাজ
##সতায
মিলস
ডিএনএ
ঘটল
রাজকমার
চেযেছিলাম
##সীম
চলনত
নানদন
করণধার
আচারয
##কণ
মাহাথির
বিষযটির
ফারমাসি
আসছিলেন
মিটিযে
আশিক
40
অসৎ
যোগান
আমিরাতের
উরধবতন
kolk
দিনভর
tra
ইনন
ফাসের
বিবরতন
পরবক
ঝকে
বাংলাদেশেও
তদারকি
##যরথ
ইউনিক
সনদরি
##পদের
অগরগতির
নিরম
আসতানা
##পনিক
বাডিটি
বিপরযযের
বদরদদোজা
পরণযনের
নীতিনির
##হীনতা
যানজটের
আফরোজ
সনতষটি
ছানা
ডাযেরি
has
girl
রদধ
##১৫
##ীযান
ইলাহ
##তবেও
ভিজিট
ভমির
মতাদরশ
বিশেষাযিত
##মাতরিক
কনযার
সফিযান
বযাংকগলোর
সংবাদমাধযমের
যথাসমযে
লিফলেট
গরীন
অপছ
নিষকরিয
univers
##ভিকষ
মানষজন
হাসযকর
জিনিসের
সাদদাম
বযযের
ইচছক
ঘটিযেছে
ইসহাক
সামিট
##ডটকম
লইযা
golpo
act
ইরা
এগলি
##ds
ভালোবাসেন
xxx
চারচ
কমিশনারের
চালাচছেন
##রিম
মোহামমদপর
int
রটিন
জঙগিবাদের
সংগহীত
বযাটালিযনের
রাবি
বিশর
যাইহোক
সাধনা
ভেদ
আভি
ডাযাল
গনতবযে
ওহ
সমপরন
কলিনিকে
ইজতেমা
সেটিং
##পেপার
রোম
বদধের
##itt
বযাংকটির
bla
উপজাতি
মতবাদ
খরিসটাবদের
দপ
বরাশ
বোরহান
মানষে
পরাসাদ
কোলেসটের
ইকবালের
الله
##শৈ
অভিজিৎ
##তাক
##ys
পাটের
অপরিস
হইপ
০১৭১
চলাচলে
##৬০
রাসতাঘাট
বসর
ভাগযের
ঔপনিবেশ
পরকারের
##পরবণ
আসিযা
নারাজ
পরযকতিগত
কাটানোর
অকষম
দাযিতবরত
বযসেই
ফটেজ
সেটির
রোমাঞচ
লায
পরিধি
##িকষত
বযাস
সংবাদমাধযমে
ধোনি
##করী
বিরতির
কষেত
হিলারি
২নং
##ণীয
কেপ
ইউকর
পেনস
##সাৎ
ঘনটায
##লম
kolkata
গচছ
মনসী
শাসনামলে
হবহ
পেইন
কযাথ
ইনডিযার
আনষঠানিকতা
সাভারের
পাজ
##তালে
নেটওযারকের
সবকিছর
অসতি
গরীষ
ডেভ
##অক
চাইলেই
ছবিগলো
সিঙগাপরে
সেলসিযাস
কাব
সবত
আগামি
ওযারডপরেস
উখিযার
গণপরত
মাপের
পরিকলপনায
মোডক
লোহাগা
চারটার
বচচন
এমনও
##দেবী
এশীয
থাকবো
##ঘটন
আহরণ
কযারিযারে
আবিষকত
আশির
##14
ডেস
শাকি
##পষঠ
মিশনের
গিটার
সজজিত
নীচ
হেনস
##তিকরমে
আপততিকর
গেরিলা
০১৭
দিগনত
ঢলে
টোযেন
এআই
নিরদ
চাবি
৭ই
মকতিযোদধারা
আমনতরিত
ফাতি
অবসরে
দরনীতিবাজ
ইদরিস
##সীর
অধিগরহণ
কযাপিটাল
সনতরাসবাদ
কযালসিযাম
##কথা
আবেদনে
আসবাবপতর
করবানী
দশা
দবিপাকষিক
বোঝে
বরধমান
অলৌ
রেসতোরা
টরাভেল
her
গানধীর
মেকসিকোর
##সাব
পারিশরমিক
কমিউনিটির
পলাটফরম
শনানিতে
##বসিত
##িংযের
নাইকষযংছডি
##ফরি
জানালার
ভাইদের
রযাঙ
##বযবসথাপক
sms
##িকারক
##সংখযা
থমকে
সকরি
##কিম
তানিযা
বঙগোপসাগরে
সারাকষণ
যৌতক
রাজবং
জানাগেছে
টিপে
লেখাটা
সটরাইকার
নেতাকরমীকে
সচেষট
ফাজ
বাদি
বিপততি
হংকং
##জানে
ওযাজিব
কারযকলাপ
##গরিম
02
যৌনতা
শিকষাগত
ইতিপরবে
যনতরা
বকিং
পযারিসে
পরেকষাপট
##min
জতো
##তবছর
উদভাব
সাথেও
তলছে
ফাইভ
আজই
জেদ
previous
উমার
ষাট
##80
##িনর
সখবর
নেপালে
মহিষ
মরিযম
উমমে
মীমা
##মযা
পলট
অনপসথিতিতে
ছককা
##aw
##১৭
সরেনদর
রযেল
বরতমানের
সটরিট
কোহলির
বিধিমালা
বিমো
খোজখবর
সওদা
নাসা
ফতে
পররো
##িনায
##enc
সফিযা
ইটভা
তরম
add
টাইগারদের
অনিশচিত
বনধনে
##ানিযার
অনরোধে
কৈশোর
আদলে
হাদীসে
অভিভাবকরা
ভৌমিক
ধবনি
##সানের
রাজন
সমপরণরপে
মখযমনতরীর
##amm
জাতিসংঘে
আশীরবাদ
##াযরা
##াকরি
##ions
পৌরসভায
বালযবিবাহ
দেখেনি
বাসতবতার
বাশখালী
নিধন
এসেই
পরাজযের
##যানত
জাসদের
বাংল
##কাট
এমবা
বাডিতেই
আমপাযার
মহকমা
বিসতর
মিঠন
অপরপ
বোমার
পৌছলে
করআনে
কানাইঘাট
29
ঢাম
চকতিবদধ
এযারলাইনস
পাশচাতয
পাতি
টঙগি
মানষও
কযাডেট
রাইস
নানদনিক
৭ম
##বসম
##পোরটের
চেল
আসামের
ভলের
কলাসিক
ওযেবডেসক
পরামাণয
ভরণ
##মনগর
বযাধি
চেযেছি
হাদিসের
চপচাপ
গরামবাসী
সাংবাদিকতার
রেলসট
এজাহার
##ামখী
চাঙগা
##ari
জভেনট
রওযানা
ভিকটোরিযা
আযরন
##সেনা
ওযাজ
ফিউ
গণের
##ানদি
দিনগলোতে
পরতিষঠানগলোর
গৌরনদী
##ject
##রিজ
##পালং
নৈতিকতা
মঘল
হেলমেট
জবালানী
গভরন
অযাসিসট
ছেলেমেযেদের
বযতিকরমী
##শট
কোযা
মহাম
##বদয
নিরবাস
##ভিযা
##কষের
##মেলো
এডকেশন
ঔপনিবেশিক
গের
ধরণ
সমপরণভাবে
##row
কমবেশি
বত
ইসলামপর
বোলারদের
দশটি
হাওডা
ভের
##বাসতব
এনডর
মযাসেজ
##নিষট
##ors
পরতারক
রযটার
ভকতি
##এমইএ
##শবাস
##পরতযা
এনিযে
##ামোগত
মিশনে
ডিসক
মধযা
বিষযকে
দেখব
এবারই
সংগরামী
সরবশরেষঠ
গমভীর
পারফরমেনস
31
পরতিবাদের
হতদরিদর
এনওসিএফ
day
কণা
অজয
রফতান
পামপ
was
সাইদ
একাউন
##মাতা
থাকলেই
সারবকষণিক
অনেককষণ
জেরজালে
হাউজিং
কমই
ওযযার
রসিক
কাদা
##যোদধা
##ধির
পিছনের
সেভেন
এমতাবসথায
তৌফিক
গণি
উজজীবিত
ফাহিম
অগনিকান
##সিফিক
বাসসথান
জাযগাটা
##গোষঠীর
চারজশিট
বরাদদের
আমেজ
দাযেরের
সাবমের
তপতি
ভিপি
চেইন
##০০০
নিখোজের
গাবত
সরেজমিন
chatt
অপরিসীম
##বলা
জযদেব
উনমাদ
ctg
##িপত
এবিষযে
নযতো
পরসকত
##ধাও
হজযাতরী
ঝালকাঠ
বিআরটিএ
খরীষট
এসই
রাণ
বদধিমান
লিখেছে
ডিজাইনের
যাতাযাতের
হিংসর
ছললাললাহ
##আত
যবকদের
টিকা
এলেও
অতিথ
যনতরের
খশী
১৯৬৭
আখাউডা
##লীতে
সেবাদ
ষোড
একটার
##বিট
বেঞচে
সরকারিভাবে
একসচেঞজের
জাননাতল
পিনট
উদবাস
জাহির
কাশমীরের
##বলমবীদের
##pe
দরতবে
খাতায
নিঃস
পরতগিজ
টোযেনটিফোর
মককায
বিহীন
খাবে
ভিততিপরসতর
চওডা
মিরপরে
##কেশ
রাদি
চানদ
রেলওযের
চাচাত
নৌবাহিনীর
##ষটে
##aria
2012
##বাংলার
##গেটিভ
কারযদিবসে
জাগিযে
পরিকলপিতভাবে
হাযদরাবাদ
বিতরণী
ভটানের
দেশপরেমিক
##মাসে
আমনতরণে
শারদীয
##িতামলক
নাযে
শবদটির
কযেত
সংঘবদধ
কাজকরম
##তযাগ
##ement
গঙগো
সরোযার
বারধ
হেয
যনতরাংশ
খোজার
একাততরে
কথাসাহিতয
##৩৯
মেযরের
সনদরভাবে
৭টা
উদবে
নারসিং
##কিত
আযনা
কমিউনিকেশন
উদাসীন
cla
আচমকা
বিলা
গণশিকষা
থামা
ইনকি
জানিযেছিল
শরীলংকা
আফগানিসতানে
বযাগে
##ঙগীর
মাইজ
##paper
ভবনটি
অকষয
বাণিজযে
লেফটেনযানট
বিংশ
অনিল
সাতজন
ঠাপ
অনতি
শিখা
##লাযমান
sm
##ধবনি
গোপালগঞজের
##দৈর
নাসতা
চাননি
##style
##ালীয
সমঝোতার
ro
বিম
নিরধারণের
রেফারেনস
ফেলো
হাদিসে
রেজিসটার
ভিততিহীন
মেধ
ঠোটে
##অর
সঙগীর
##গালা
ধরমকে
সমমখসথ
লন
##ডহ
অভিবাসীদের
আফরি
পরতযেককে
কটি
##োলে
চব
সমবোধ
রাখলেন
ফরযা
কিক
##ডিন
পাঞজাবি
ভোলার
##33
##আরের
নযাদিললি
সহজল
উপনযাসে
##সতান
শেযারবাজারে
চাদপরের
রচি
##হানা
ফারসি
অযালমিনি
কারাবনদি
উপনিরবা
নিঃশরত
অযৌ
চারপাশের
##এমএম
##পততির
দরতই
##সীমার
আবিষকারের
আলেকজান
আসলো
মিঃ
##এক
##রিজম
ফরসা
গেমসে
রঙে
শহরত
উপরনত
ঝিনাই
তাড
##ভারতীয
অনিরদিষট
দেশবাসী
সতযজিৎ
##জমাট
sw
হাউসের
নিলো
শিলি
ইযাবার
এটিএন
যাতরায
মতলব
ঝকিতে
সীমাবদধতা
অগরিম
টিনের
##থীরা
উপশ
##ung
##ife
##ববত
##মপির
ভিআইপি
সমালোচক
জাননাতে
বসানোর
ফারাক
তারানা
ফলোরি
আতমসাতের
##বিভাগ
সাহার
ঘেরাও
##55
অজহাতে
যাবেনা
##দীতে
পরতিনিধিদল
পনরম
একরকম
জলি
আইসিসির
রাষটরাযতত
এতেই
একধরনের
কিছকষণের
সাহসিক
ডলারে
লেখাপডার
গীতা
ফযাট
উদভত
বেশযা
##000
##ool
বযবহারিক
##মালায
শরীরকে
পারলেই
##হাদের
ককষের
বানিযাচং
অতয
মনষয
দজনই
টডে
ডজন
##উনস
ভরমণে
##াতনামা
##জাগরণ
##ana
বিললাহ
মেটা
সিজ
নরসিংদীর
##পোরটে
আমিরল
রাজকীয
নৌবাহিনী
শিশসহ
এলেই
##গডের
একি
উপচে
চযাডা
জিরা
সটরোক
পেত
মিসটার
##জেড
sec
মঠোফোনে
কসংস
পোক
সহজলভয
hist
##ষটরেট
##arn
কোমপানিতে
রাজাপর
মিছিলটি
বলত
অভিনেতরীর
শঙকর
##বাত
মেরিন
##ভাষায
জনমান
হাসিম
দামী
পচি
##ogram
সবল
সবাগ
তরিদেশীয
bra
অকল
##১৬
কিংস
পরিলকষিত
পেশাজীবী
সাতকান
af
জরিমান
##সমযে
চরা
##পরেম
জারির
পরদানকারী
সপরিচিত
pop
চিডিযা
##পণের
##ভারট
গাইতে
রাববি
পরেমিকার
অসসথতা
বাউনডার
আতমর
আযারলযানড
শেরেবাংলা
##খাল
সেটিকে
১৯৭৭
জকি
সমমানে
ইনভেসটমেনট
##মনডল
মজিবের
##গোনা
জাহানারা
হাদীসটি
রইলো
পরনে
লযাবরেট
##তাজ
নিরা
নিরসন
##ারাতি
১৭টি
সারভিসেস
বিষযেও
সামযিকভাবে
চটরগরাম
এনওসিএফপিএস
মানষগলো
তাওযা
আবিরভত
নিরদলীয
টাইট
##ারোপ
বাঘা
আইকন
আহা
দবীপপঞজ
সকেল
ইযাং
হারটের
খিচ
সাধারনত
এলোমেলো
সাইদল
শোভন
নিরাপততায
বিশলেষকরা
সশাসন
জাযে
জমজমাট
আসতেই
জযার
ভযের
সটযানড
দাডান
কাচামাল
মযাল
কনফি
পরনোতারকা
##গোপ
ভাতি
টেলিকম
##গনের
##মিশ
চিকিতসা
fun
ইসরাইলি
কশল
##amp
ইরানি
নাজি
কেযা
রাখায
মদিনা
কোরআনের
সটিফ
পনয
##কতিকর
কপাল
gen
##াযান
উননযনমলক
বাজিযে
উপকারিতা
if
গহা
সাবান
মখরিত
পযাসিফিক
ফলশরতিতে
লঙগি
শীতকালে
posted
এইবার
##ধারায
আশি
উধাও
আদন
আকডে
একাধারে
৩৫০
মাইলফলক
পিপিএম
ফাটল
দিনমজর
কলাপাডা
ফিলটার
তাণড
সবিধাজনক
কমারী
নৈরাজয
সমপরীতি
ধারন
ভিসার
জওযান
১০৫
##ication
সিসটেমে
সতা
পৌছালে
মালে
মসতাফিজর
অজঞাতনামা
উদভাবনী
বাচচারা
রেঞজের
আটককতরা
ফিরতি
পরদাহ
হাউসে
রাতর
##যালার
##োকল
ভালোবেসে
কামডে
চিনতাভাবনা
টানাপ
বনধকে
পদমার
আইনী
সামরথ
গোযে
রাতারাতি
নতনভাবে
গলপটা
##সিডি
রগ
##কোপ
করের
আতমসাৎ
মহরতেই
নযটি
উততরণ
আরেফিন
তাহাদের
জাজিরা
ডাম
পরসতাবনা
ঘোষণায
সতনযপান
##োনের
##িসম
দরনত
নামছে
সমনবযকারী
জেসমিন
পেপে
গেইট
কানাডায
##ফটে
হাঙগ
ততকষণ
দারজিল
অপারেশনের
কযাবল
বাহির
মিথন
টরাসটি
অধিনাযকের
জাহেদ
অযাপের
করণেল
বোনকে
অনেককে
##une
কাবা
গরতবপরন
ইসটারন
বাজা
মাউ
দাবা
##টাইম
tweet
কযাটরিনা
পারকিং
শযতানের
##ফরমে
অটি
নিযমিতভাবে
মাদারী
পরতিবাদী
বেগমকে
ইনটেলিজ
##লালের
অনযাযের
রাবে
আললাহতা
যায৷
নিরবিঘ
ওল
ফরমাল
out
গিযেছি
মহারাজ
উযে
ফলপরস
মনোহর
মযাজিষটরেট
##মাপত
##বহির
হাতছাডা
জনমবার
##কতারা
সহসরা
নিউইযরকের
বাযে
দোর
বোলড
কোণে
তাসকিন
##ri
হোসট
খোকা
ওযাচ
বিনির
গাছপালা
নিবনধনের
সবাচছনদ
অবরোধের
জনিত
কেই
trans
কষটকর
জাপা
পানের
নিরমাণাধীন
আসামীদের
খলিলর
কোযালিটি
ফরানসে
হীরা
অমস
বাংলালিংক
রেফারি
পাশা
##িকেটের
মামার
কযেকজনকে
এলাহ
সাউনড
নিকো
হযালো
কতদিন
গরেফতারি
পনরদধার
মাহফিলের
রমন
শরীনগর
সবৈরাচার
ঝডো
লাঞছিত
ভিডে
দণডিত
সিঙগেল
শেষম
অপরযোজনীয
##জাতির
গলপটি
আলাইহিস
##22
##ধরণের
তিরমিযী
ইকো
সবাধীনভাবে
গারডেন
কারযকারিতা
সমযকার
আহতরা
লিচ
অরধশতাধিক
সটিল
বোক
ভতের
##ৌ
অসপষট
ছোটগলপ
##চছল
মাঝেও
রপর
ভিতরের
অনবদয
কামড
পরথমারধে
##ep
অজসর
হরতালের
সালাহউদদিন
##17
খেলছে
শহীদললাহ
দসথ
##19
পরতিকতিতে
সগার
কেহ
লাগাম
নেগেটিভ
সবশেষ
হিজাব
##দবয
বেচার
টিস
বাকা
মসলিমরা
আচরণে
##পারটি
##এমসি
কডিযে
নিলামে
নিকা
বিসম
islam
অসনতোষ
কযাশা
নীলফামারীর
##৫৫
গযাং
##ঘডি
কারচ
সিনধ
তিনটা
২৫টি
এইরকম
##সারস
বাদয
##লাইটের
অপেকষার
সেনটমার
গিযেই
মজাহি
ছিদর
সপরশকাতর
##cc
গেটের
দবিতীযবারের
ইঞজিনিযারস
ফিজ
যীশ
বিশবকে
হাজারেরও
##ষটিতে
দসয
##খলে
কলযান
চারজনের
##air
##গরভ
নগ
সেনগপত
সলট
বাধের
তনমধযে
ডিনার
##সতম
পরোহিত
বিশবাসযোগয
পরশিকষক
##সতি
পরবাদ
চোদন
মতর
পৌছানো
দীরঘসথাযী
##োসিস
অযাটাক
ষোডশ
মহাল
##সটাইন
সেটিও
মাথাবয
হাবীব
সিএ
মহেনদর
chattogram
জনমবারষিক
করনার
ইনফ
##াইজড
মালটিমিডিযা
বাহবল
মেহেরপরে
অসটরেলিযায
করিশচি
নিউজের
পরচেষটার
খযাতিমান
আবেদনপতর
চরণ
শরীলংকার
উনিশ
##বিধির
##পসতবক
মালদবীপ
৫শ
##করমীর
রোজগার
সবনামধনয
বহজাতিক
৫০টি
মভ
ইনজে
ফরিজে
আহবানে
local
##থাই
ইযং
উললাস
নিরমমভাবে
ইনডেকস
##তালি
##লকে
##টেইন
অপরতযা
কীটনাশক
##ওযাই
নামটা
##ছিনা
##গরীর
##চাপায
শোকা
দরগাপজা
শকরা
সষ
ছাদের
বহিঃ
##পারের
পরশনই
আতন
উলম
পকষানতরে
পষপ
##ষটিক
এদেরকে
এমদাদল
জেলেদের
পরিযে
##বিলায
ততটা
তাগি
২টায
##পদক
##গরো
হযাওযে
##লেজ
ঘটনাও
##ভাইজার
গোড
তাডাহ
youtube
ইদানী
##ma
হাজি
ইনফেক
##োচিত
##ert
সংবাদে
কমিললায
গদাম
ঢামেক
আরকি
সিরিযাস
বইমেলা
বেসিস
হইযাছে
মেমোরি
##বিএ
কামনায
কালপনিক
গগ
বেতনের
নিযমের
সাবল
নারাযণগঞজে
##bo
বযাংকগলো
পস
সাবধানে
টরানসফার
চাষাবাদ
গেইল
লেভ
মেযাদী
আতমজীবন
মিথযাচার
অনগত
নারিকেল
পাঠযপ
নযাযবিচার
করমকানডে
মাশরাফির
mic
ততো
##ঃপরকাশ
##চডে
এশিযায
মাথাপিছ
পরবাহের
সইজারলযানড
met
টযেনটি
##বারথ
পেরেছিলেন
তাইওযান
##চলিত
কপির
ডিএসইর
দবৈত
জেএমবি
##ীমা
ঘোডার
বেহাল
সৈযদা
১৯৬৫
কনফারেনসের
ah
সটরে
৪০টি
সইস
অনবে
##লাইজ
জনযেই
##বঞচিত
আরনত
একনেক
ফতো
উদঘা
কনে
পরসিদধ
song
ইমান
শনলাম
##email
পারলামেনটে
গযারে
মেমোরিযাল
##ারথীরা
ডিপো
পটিযা
বাধযবাধকতা
সেলে
এনটরি
##view
সোনিযা
চালককে
##িতবের
৬টার
##২৬
জাগে
টযাংক
সারবভৌমতব
বিভাজন
নাটযকার
উদদীপনা
কেলেঙ
gmail
##ফিকার
পাগ
আলোডন
webs
টোকিও
আচে
মযদা
ইচছার
মনতরিসভায
##ধারন
সরবভারতীয
তরণের
##মাই
মিলনের
শীতকালীন
শরোতাদের
সমাদ
সইচ
##ateg
সেমিফাইনাল
মাগফের
পরাযশই
হালদার
ডিপারটমেনট
খোলামেলা
mil
ওপারে
কচছ
বযবসথাও
সথানীযভাবে
একগ
পারদরশী
মনোযার
মজিবল
উপাদানের
সমীকরণ
অলৌকিক
sch
পরতিজঞা
বিজঞাপনের
অগনিকাণডের
কডাই
কষধার
শিলপা
##বহিরভত
মাওযা
##তবিক
আজহা
আরেকবার
কযাপাসি
অপরতযাশিত
আলর
ওযারকারস
##ীবীদের
আরম
কেরান
বিলাসবহল
বাংলাকে
দরততম
খেটে
কিশোরীর
##বিপর
কাধ
পৌছেছেন
যোনি
ফেরে
তেত
ফোলডার
##ful
el
গাটটা
ছিদদিক
ডাযাগন
উৎকষেপণ
যথাযোগয
অসবীকতি
সংগরহে
এরিযা
পরবদধির
মযাজিক
সঞচালন
##এমএল
পরবনধে
পিটিআই
আমরাই
মোকার
জাফরললাহ
##ডকে
আশঙকায
মসলি
পরিতযাগ
দশযে
ফেললাম
হতযাকারীদের
দেযালের
পিকে
হাটার
দষটিকোণ
শিথিল
বরাজিলিযান
কাসটমার
মনোরম
##তপরব
আরকাই
মযদান
কালিযাক
রচনায
কতগলো
##মোহর
ইরফান
নিরবিচারে
পথচারী
নসরাত
ঘমা
##মেটিক
চিতরনাযক
ইদানীং
##োধন
বদলা
শিরিন
বাধাগরসত
ডবিযে
অমক
টরযাক
জরায
অনতরবাস
জলাবদধতা
##হরী
নিমিত
##াদান
পেযারা
##বদদিন
মনোযোগী
বীরয
পিএসজি
গহার
কোতোযালি
বিযানীবাজার
মাজহারল
সেদিনের
ভলবেন
মজাদার
সাকষাতের
টাসক
মহাদে
চিপ
দৈহিক
আতংক
কলিযার
গদে
দিচছিল
##ble
বইছে
বিদরোহীদের
জালালাবাদ
সপাই
মোসতাফিজ
দফার
##ঞজর
আফতাব
নালিতা
ফৌজদারি
তাগিদে
কোযান
গণমান
বানর
ওযালপেপার
রাশেদল
আপা
কনটেই
পরাণহানি
জনমা
নেতরীর
ইসলামিযা
অনকরণ
##সটাইল
##শীপ
১৯৫৪
খনির
ছেলেমেযে
বঝবেন
করমকষমতা
ইসরাযেলি
বেগে
##বযসী
আতরাই
মগন
##াপনন
অনযটি
বিনযের
মহাবযবসথাপক
##ানটি
গোশত
হদরোগে
##চেতনতা
ধানমনডির
tweetemail
ঈসা
ছোটখাটো
ভাসিযে
সাবমেরিন
আটলান
হামলাকারীদের
রংপরে
রিসে
পনডিত
বিসিবির
উডাল
অসাম
১০১
##ধরী
বছরেও
ডিভাইসের
##বিসিসিআই
কযালা
জটিলতার
গবেষকদের
ছোটদের
অনম
বিশবজিৎ
জামালপরের
চাইনিজ
##৭০
মঞজরল
শিলপপতি
থিও
##উনের
দবিপকষীয
black
মাউনট
##ode
পসতক
##ton
##িকষণ
এভিনিউ
ফজিলা
##ষঠা
টিলা
উপরি
পরবীর
##ips
##পরিকলপনা
কদিন
পরতীকের
গরামা
##বিদযালয
জাযেদ
কাঠামোর
আরনতজাতিক
##ভরা
শরদধার
সংসপর
মহানগরী
অনলাইনের
বিরিযান
গতবছর
অসকার
##সিট
অনেকবার
খাটো
রযাপিড
অনরাগ
সরযো
কৌতক
করমানবযে
মাখন
খনিদের
স¤
##রায
##ভিচ
##েকট
soc
কঙগ
##fer
নবাবগঞজ
সথানানতরিত
বরিটেনে
##াহে
একাতম
রোকন
কহ
দলিত
ফজরের
বিজঞাপনে
সমবোধন
গভীরতা
##কনঠ
কখযাত
সনদেহের
পেইজ
সরযাসত
বিরাজমান
##২৮
সারভ
সারভে
##চরচার
পরযবেকষক
কবরের
মারকা
বিললাল
উপপরিদরশক
যেমনঃ
উঠেন
দিনেও
অমন
##ামকত
সননিবেশ
যৌবন
সউ
টকট
রানারস
আকরমন
বযাটসমযানদের
শাহপর
নেতসথানীয
অযাকাডে
হিজরী
আগনেযাস
সপে
তাইতো
আতমীযসব
বেডিবাধ
আসমান
তাহিরপর
সরের
##ভবনের
অমি
শিকা
ইমামের
##াসম
এসএ
সিদধির
পোষা
হতাশার
সামিল
পরতীকী
মহাজোট
চেহারার
পরতিসথাপন
গহসথ
কাজি
নেননি
নীলা
১৯৬৮
ঊরধব
এইড
অংশটি
সেপটেমবরের
১৯৬৪
দরশনীয
##ভরতি
গিগা
এএসপি
আনশ
পরোদ
##চিনি
নাচের
পকষেই
বাকিরা
দততের
তেলাওযাত
রমিজ
মযন
কাটছে
অলস
কোরান
এসএস
হাওযায
আফসোস
ঝট
quest
বথ
দইদিন
সমমখে
আইসিবি
সবাগতম
করেছ
বাইপাস
রোপণ
টেকটি
গণযমানয
পরজঞাপ
sam
লঘ
উইথ
কণঠশিলপী
অনপম
লোগো
##৯৯
কযেকজনের
ধারমিক
##টেকনিক
মনোজ
ভাঙগন
##াহীন
পরশিকষন
অজহাত
চিতরনাযিকা
কবলিত
রপগঞজ
গডেন
শতরর
এযাডভোকেট
সংগীতের
##বতীর
ধরব
পথিক
শহরটি
পনেরো
অহে
অংক
##দদী
আকনদ
সইজারলযানডের
টেই
দীপক
মসতিষকে
অকত
ভোটাররা
কেরাম
##কেনদরিক
ঝিনাইগাত
চলক
মাহে
আপে
মিডল
হেমা
সোনারগাও
নডা
নাবাল
##নীত
জানাযায
লঙঘনের
##সীন
##খেলা
করারও
পালং
রাজনৈতিকভাবে
##াকো
অনিযমিত
মাযেদের
কডিগরামের
ur
##বিএস
মোকাবিলায
সপরিমকোর
লেকচার
আরটিকেল
চরে
উপজাত
অপরী
উইং
এহেন
গই
জযেনট
ফরয
ছেডা
ভলতে
নামাযের
মরক
জলফিকার
##কীর
##চিযা
সবজনের
জীবিকার
##জজা
আসতান
নগরে
##রার
##ফলল
ছাতরকে
##ove
লকষণীয
মারামারি
এগোতে
##ভীতি
খশির
##জাদা
##আরবি
টরেই
হচছি
##৬৬
বেলে
এফবিসিসিআই
আলাপকালে
ধামর
ইসতাম
যতদর
লেনদেনে
নানদ
হাসনাত
১৫ই
রাষটরভাষা
সিলভার
পরিশেষে
বিনতে
মিসর
ভৌগোল
##les
বাটনে
কিছদিনের
2013
মদরণ
পরতিফলিত
বছরেই
ভীড
জযেলার
ইহদী
##ভম
নডাইলের
ইদানি
বিএসসি
বষটিপাতের
val
এযারপোরট
mus
ইটের
মোমেন
##বেরি
পরিচালন
পথিবীকে
জসীম
বাধন
আরাকান
##বযবসথার
শাহাদা
বিনযাস
বিশবাসঘাত
সরষটা
জেলের
আউটস
খশ
বিচছেদের
পোপ
কাউনটি
ধরমাবলমবীদের
১২৮
ফরানসিস
চষে
##play
##ডিকে
##মপাদ
দারজিলিং
মাগফেরাত
ডল
##ভস
ফিলডিং
কমলাপর
ইদ
কবরে
সারথক
##িরার
রোগীরা
অনেকাংশে
##মাম
পাহার
পারলামেনটের
মাদকাসকত
বিমল
মসতফা
উদবেগের
have
##থিব
##িলা
##লত
ইনডাস
এনি
##াজক
আলোচক
লিখি
সাননি
রকষণশীল
পরাত
সরমপ
করেন৷
##মোহ
আদিবাসীদের
লঙকান
গরামীন
ধরমপরাণ
একটও
সচরা
##ভাসে
অনবরত
চারজনকে
এনটিভি
ধত
ফিড
তাততবিক
বালর
সততর
অযাকসেস
ইনশাআললাহ
##মতের
##na
নাহি
বাংলাদেশীদের
আঙলের
হালযা
জাই
হজব
মাতাল
চোরাচালান
##মনদির
কোরিযান
একসেস
নট
কশ
##ভিলি
ফেনীর
সিগনযাল
##60
##সিলে
নারগ
শিলপমনতরী
রেসতোরায
বিবিধ
বযবসথাকে
চোষ
পলিস
জেনেছি
নাযেক
আপিলের
আফরিকায
চকলেট
আবেগের
গনতে
অবিরাম
##বিউন
পাহারা
##জরিত
অপরীতিকর
সচরাচর
রাতরে
##খানের
বযথার
সহকরমীদের
বহতল
ফন
মনী
##ানিউজ
করিসটি
কোটায
কেনে
##সবরে
phone
বনা
##ঙগনে
পরিতরা
হলরমে
শাসিত
সারারাত
মখটা
মেযাদের
ভঙগিতে
##ru
##েনদরনাথ
অযৌকতিক
ভাঙতে
first
মকট
সরাইল
##ica
নেপথ
সংখযাও
তীবরতা
তপ
##টিএ
করাকে
ডেটিং
১৯৩০
গদয
লাকস
মিলের
বদলের
পরিপনথী
খাসোগ
ভাটা
বিরদধেও
##পকরিযা
জলদসয
অহংকার
##াতল
##ange
##ike
কষোভের
sk
খেলাধলার
university
##চছবি
নাকের
শরিয
##its
যাদেরকে
হিজরি
জঞানী
সংগীতশিলপী
ওডনা
##বডে
আমারে
##ভোগী
ওঠেনি
বহিঃপরকাশ
##মিশন
চাচছি
মযাডাম
##ঙঘ
বংশধর
হেনা
পেযেছিলাম
নিযত
ছোডে
ভোলটেজ
সতমভ
অমত
জীবনাননদ
তততবের
সবতঃসফরত
##বনায
বিষযটিও
মেঝেতে
hy
today
টযাট
##বানে
##চিতরের
মিশরিত
সিরামিক
গৌরীপর
হজের
১৯৬১
ইদানিং
বলিযে
কেএম
নবগঠিত
নিকটে
কাদেরের
ইভেনটে
তাডিযে
আসলেও
খটি
জোসে
বাহন
শারীরিকভাবে
শযামলী
দেউ
বাযার
##েষটার
##ose
ঘডির
##১৪
##বাযোটিক
মমবাইযের
আযম
ঝি
ভাবার
আজাদের
বাহিনীতে
সনদেহজনক
নাইজেরিযার
পরবাসীরা
১শ
মমতার
বরষসেরা
বনদোবসত
সিনহার
##বোরডের
work
মনসীগঞজের
কোনোভাবে
পলাজা
এযাপ
সৌজনযে
##ডেড
##খনড
মানষটির
ভমিতে
রামকষণ
##সঙগত
রকিব
আটা
উনাকে
##িদা
আহাম
হঠাত
ফজিলাতন
উঠান
কেনদরবিনদ
##মরষ
দিকনিরদেশ
কষমতাযন
সমতিসৌ
যদধাপরাধী
##বরগের
##সাইকেল
যোগযতার
মারধরের
ফারমাসিউট
বরহমপতর
কাপরের
শেফ
ঠোটের
অযালমিনিযাম
##মবরিজ
মালিককে
মিরপরের
অভযরথ
oct
একইসাথে
পরাণবনত
ডানা
বযপারে
##যনতরের
##সততবা
ফরিদা
জনাইদ
ডেমোকরযাট
কযাথলিক
কফ
বিশলেষক
##girl
##ডিবি
পাচটা
খরিষট
##মাসের
অপকরম
mag
পেতেন
জেডিসি
##বততির
reg
বিএসএমএম
হককে
তরণীকে
##জোডা
ইনসটিটিউশন
অবসরের
লিখছেন
ধরমাবলমবী
পলিটেকনিক
ধল
##তময
সমাগম
ডেনটাল
২০৩০
দরলভ
খাতনের
জমিযে
তামিলনা
রাদিযাললাহ
ওসতাদ
##ছাতর
দাপটে
দিশে
অনষঠেয
খোদা
মহানগরের
ওযাইফাই
ঝালকাঠির
##fuck
পিযার
নদের
নবান
##বাযে
দেরী
ধরমঘটের
বহর
কোমলমতি
তাহাকে
inf
অভতপরব
মহোদয
som
##ya
ফলযাশ
দবিতীযারধে
৩নং
##োগলো
১০ম
যেমনটা
শবদটা
কটটর
করদাতা
##গলোই
গোডায
কাননার
অনসারীদের
কষদে
নামকরা
কমিটিকে
ছেলেমেযেরা
হাতা
##কষাগ
সংবাদপতরের
বেলন
খাপ
মযর
##তনতরে
গরহনের
##াও
দশটা
দেশেও
তলেছিলেন
রাষটরপকষের
##হীনতার
কনসালট
##বিএল
বোতাম
dec
খাদিজা
কেরা
সতি
##ale
ইজারা
সংখযালঘদের
ইযথ
নমনীয
বিএসএমএমইউ
লঙকা
জানলে
মোহামে
পরতিরকষ
##বিশবে
অকষরে
##েনটারি
দেবদ
১৮৪
বাডাবাডি
##বিদযৎ
কেলেঙকারি
বাজপে
নাযিকার
বংশের
গযনা
বরষে
সহনশীল
পোলটরি
করযের
পডলেও
টোল
##গডে
##হরা
##hor
##ভাষার
পাডের
টটল
দরপতর
মিলিমিটার
আলীম
সমপকততা
ডিসটরি
##ামতো
কোক
বিকষোভে
##সযা
শিযাল
গনা
বরাবরের
বিসতীরণ
##কষয
সংগে
করমচারীর
গযালারি
বিকরযের
সমপাদকীয
উৎসাহী
সিএনএন
আতমবিশবাসী
set
গটি
##চছেদে
সদঢ
হঠাৎই
ঠাট
আগৈল
সমালোচিত
হালি
ইশতে
##পালের
সিপিএ
চারলস
বরোঞজ
বডির
পরাগ
তারপরই
জনপরিযতার
কনসারট
মেথ
বিকেলের
হাইসকল
রকষিত
stud
পিকসেল
ফটোগরা
পদার
##িতো
সিদধারথ
শোযেব
অহেতক
##পিও
সপিনিং
এখনি
গোলডকাপ
আশাকরি
দশযের
কলাযেনট
এমপির
লেনস
##িসটিক
সটাডিজ
শাহাদাৎ
##ষটিকে
পরকরিযাজাত
তলনামলকভাবে
বাথরমে
আরামদাযক
##গডায
ছবিও
চাযনি
খোন
32
খাদযা
কাঙখিত
নয৷
সবরণা
রংযের
গোলাপগঞজ
অদর
গারলস
##২৯
লিজ
কনঠে
ফরেকস
আছডে
আনিছর
চেস
মেটাল
বলিষঠ
অপসারণের
cent
আমতলী
##ভিযার
লাইফসটাইল
##sw
ভিননতা
তরিপরার
fil
পরেকষাগ
চারকলা
ইচছাকত
ঘমানোর
##পাটের
ফোনটির
ঈশবরদী
কযালালাম
ভলাদি
##নারি
গোছ
ইনসটাগরামে
যৌনা
আহমেদকে
পরমাণের
অধীর
১৯৫৮
##বরতীর
ডারক
করেতার
পরতিযোগিতামলক
সাবিনা
আঞজ
##৩৫
ইউনিসে
অলিমপিকে
high
ভখ
আসামীকে
##কোট
##টালে
হেরেছে
উতথাপিত
দীরঘমেযাদি
শেযারহোলডারদের
তলি
##30
##টম
পরেমিকের
কতপালং
এজনযই
ধস
কিনেছেন
##জরের
অসমাপত
##পরিচয
মধযপর
উরবর
কনটেইনার
তকমা
পটা
রটের
রোপন
আসনটি
ঐকযবদধভাবে
গরনথাগার
##বরষণ
বিরোধীদলীয
পরতিদবনদবিতায
##med
কিছকষন
লোভে
ঝরণা
voice
##যেতের
লিটল
চারপাশ
পরসরাব
গলিযে
খাগডাছডির
উইকিপিডিযা
৯ম
হতযাযজঞ
সইডেনের
সাংবাদিককে
গহায
php
##গময
##থানে
##াকরানত
মেনন
অমসলিম
আহার
দিতাম
কতবদিযা
করোম
হীর
১৭৫
রামপাল
হাওরের
কনক
কষতিকার
সদসযবনদ
আননদবাজার
সচিবের
তরযী
চিরকাল
সাতকানিযা
##গাং
বরিফিংযে
হাহাকার
red
ডিলি
##বীদের
সামনত
দাপট
তারের
দরপণ
##ons
বাসসটযানড
যকতফরনট
##উলের
উদদীপ
গলোকে
বিচছিননতা
##পতন
ইবনল
মোগল
সরসব
হোমিও
টোট
তসলিমা
অযাথলেট
##তকের
##ানন
##চাডা
রাঙামাটির
পরলোভন
আরয
নাসিরনগর
আধারে
লল
হাডের
বিকষোভের
bn
##পিযার
ফেলেছি
ইউনছ
দানের
১৬৪
তাৎকষনিক
অকসফোরড
অভযতথান
ভাতের
##বাসি
চযন
কযাফে
দিশেহারা
##িকসেল
##লিযায
সচিকিৎস
এলএন
চলল
হাউজে
নাইন
হিমশিম
সথিতিশীলতা
pm
##ভাবিত
ডাকতারদের
সেনস
অধিবাসী
ইকোনমিক
গরহণযোগযতা
about
চলায
##বারী
পরষরা
ঝলক
সংযোগের
ঘমনত
রযাল
কোটির
নেভি
থাকলাম
সারাজীবন
##সবল
##২৭
##ст
টরাকে
ঢালাই
##নতরের
##উজজ
##দৈরঘয
sa
মদদ
অনতরের
কৌতহ
পালানোর
##েদল
পরযকতিতে
##মাদের
কমবো
##দারী
মযারাডো
অগণিত
আগৈলঝা
মারপিট
নেই৷
গোযেনদ
রাজনগর
##দোযান
মনিটর
ছনদে
জনমনে
তিথি
kn
আদালতকে
আমিনর
ইযেমেনের
রিসিভ
নাকে
লিট
পিট
##িকলপিত
সেকেনডের
হেই
##ণাম
মাওঃ
##app
পাটোযারী
##টেকস
সমপরসারিত
উচচারিত
পরাপতবযসক
ঝোল
এইখানে
অযথা
##উনে
তাহারা
শকরাণ
হিস
শেখানো
##ough
জযাকস
জটির
সবরণপদক
##িকরণ
দবীনের
টিউমার
play
##দকার
হযেছিলাম
পলাগ
টেলিফোনে
##টরোর
রাসতাটি
মেযাদি
বঙগাবদ
ঘষে
লাগাতার
##বিদদের
ইযাছিন
##ঙগলের
তোযাক
পরতিভার
অরথেই
bol
##শঙকর
অভিধান
ভিজিটর
আশলিযা
১০৪
##গানের
ফিরছেন
বযসততার
তথযে
দরশনারথীদের
##lop
লাতিন
রাবেযা
সবপনা
##পতিবার
বিতাডিত
এএইচ
হউক
মাতব
##যাং
##আরসির
লেনিন
কোটার
আদিতয
কাননায
আইএসের
car
##াপাডা
নিমনচাপ
কষতিকারক
বঞচ
##কিনি
বিদর
##নিষ
সননাত
সবাদের
ফটপাত
দাডাল
অডিটোরিযা
আসতেন
পরশরয
time
রেহানা
ফোকাস
দষণের
##কিলোমিটার
##াসমহ
শিকষাকে
উভযই
একতা
আসকত
উৎসবমখর
মধযসথ
নাগর
লিনাকস
আমিরাতে
উদযোগী
অংশগরহণমলক
মককার
জমক
১০৯
নাইজেরিযা
খাদযে
আডডায
নাযিল
পদা
মহামমদের
কলাই
##69
##ডিক
গেটে
##দধেয
সফরকারী
ইনডিপেনড
ঊরধবে
পরোকষভাবে
আদনান
একলা
দিনাজপরে
ইবতে
সাজানোর
ভমিকমপে
##৩৮
হাযাত
১৭০
মযনাতদনত
ইননাল
এটিও
করিসট
মদী
রাখতেন
রিফাত
হতযাকানড
##াহত
কাপডে
শামিম
সশরম
পযাভিলি
গপতচর
শরোতা
উপপরিচালক
##৩৪
পরেশ
জানাযা
মযমনসিংহে
ইউনেসকো
বেশীরভাগ
মিনা
বাকিদের
শানতিপরণভাবে
##বিসহ
##জেল
কষেতে
##সই
##বরী
মেধার
কতজন
অনযাযভাবে
শাশডি
##িমায
মৈতরী
জরিমানার
##গনি
এনাম
পেনশন
##লীয
গতবারের
পরিশরমের
কথাসাহিতযিক
##তনামা
করপোরেশনে
পেতাম
কাজকে
গালে
বসলেন
কনড
ভাডাটিযা
খেলোযাডরা
fucked
অসতিতবের
আগরা
দিপ
মংলা
অনভতির
সরকষার
##চৌ
ফারিযা
বাহাতি
হতবাক
অযামবলেনস
সানত
অনসর
অভিযকতদের
##শক
2010
সেতটি
সবযংকরিযভাবে
তিকত
##দাযী
##োকে
তোফাজজল
ভেবেছিলাম
এনএভিপিএস
##মনতর
দরপাল
যাইতে
রখতে
##কসিন
বিদযালযটি
শেযারিং
শতাংশই
চকরবরতীর
ওখান
বানো
তরসকে
ভলাদিমির
অরধে
##দিকের
বণটন
ঘটার
##দদার
##াজনের
##ঞচাই
মানসিকতার
ঢাকাই
বেপারী
ভৌগোলিক
বেধ
আদতে
হেরো
##লযা
নিরনতর
করমশালার
##পরণোদিত
dog
নিযাম
সপষটভাবে
কোনা
১৯টি
ভাণডার
বিরকতিকর
চষতে
সযাল
রাও
##সতত
নিতেন
সমতিচারণ
##ংসন
##ঙগির
উদযে
পরসাধ
বনধতবের
prot
তিনি৷
ev
লোন
##সপন
করমকার
রাবী
জরজরিত
bu
##কতব
হাডি
দতাবাসে
সংকো
চেনে
পরিচযের
নাজমা
উযেফা
কারল
পেচিযে
ডাইন
##ফিস
##বংসী
টরেলার
গরাউনড
রেজিষটর
ফযাস
বেবি
ফেসটিভ
অভাবের
rsquo
চাষী
ষোলো
##যেডের
নাগরিককে
আবেদিন
লজজায
من
রমজানে
ডাকতাররা
টরিবিউন
ছাতরা
আসতো
আগরাসন
##ভরানত
ঘমো
##চেন
১৪২৫
সরবসব
##hed
সোর
খোজাখ
cre
একশো
ছালাম
তাইজল
লেখিকা
##88
কাভারড
অরন
যগানত
পেটরল
বষ
রিভার
শামসজজামান
মানোন
rel
সিংহভাগ
ফরিলযানসিং
হাজারী
দিবযি
ভেস
দবারে
আকাঙকষা
সাযে
থাকতাম
সমযমতো
অযাঞজেল
রহিমের
ডিসটরিবিউ
##ize
সারিতে
ভাষণের
পদারথের
অপছনদ
ban
অনপাত
মাগরি
সননি
টাকাও
যগল
সবকটি
গরাময
এমরান
পষটিকর
full
##12
সগনধি
এঘটনায
##লেখার
উভযেই
ছডানোর
তবরানবিত
নলক
ডিল
তাজউদদীন
মেগাপিকসেল
এতিমখ
november
বডাই
পিরিয
##গীত
বারই
ছরিকাঘাতে
##দরী
পরিবরতনে
##ipur
জেএমবির
আবত
উততেজনার
শানতিনিকে
বযানডের
হাটের
পারে৷
আশগঞজ
পারশবে
সৈকতে
ভাষাকে
click
জানত
সকমার
নেমেছেন
জনেই
what
##ফরেনড
খেলবেন
হেমনত
ঈমানদার
দঃখিত
ইউকে
কমতি
হাশেম
##গাডী
পরতযেকে
তরা
রাজসথান
আলোকচিতর
ছাতা
আগনেযাসতর
ইউনিভারসিটিতে
পেনসিল
##াহা
চিতত
ফেরাতে
##দিযার
##পাচার
##ord
মসলল
নিমনমানের
##াযনে
উৎকর
শবাসরোধ
সেকেনডে
খত
##পরানতে
##atur
২২টি
টরামপকে
দারচিনি
রিসোরস
বরষায
হিজডা
জাননাতের
মযার
নামান
gre
সধী
সতবেও
দইজনকে
জোহর
জামাতে
মসজিদটি
পেলো
এমনিতে
মহাপরিদরশক
ফযাকটরি
বিটক
বযাঙকের
পলিশও
আবদার
##পণযের
##ays
বলগিং
৫নং
জনসন
ঠেকিযে
##ঘণটা
##াকল
পারছিলাম
যোগসাজ
##কোষ
আগরতলা
##মেয
##লিমেনট
ফিজিও
বিজিএমইএ
##জোট
সননাহ
সাজঘরে
বাদামি
জিযারত
help
শটে
কটাকষ
গজার
##গঙগা
গোদা
গোলম
চাকমার
##দিতে
১০৮
উসকে
বরত
##যাযনের
পনরগঠন
বযাড
এমপিওভকত
ভরতকি
##িননদন
ইযাসিন
সকাউট
কারণেও
বিরোধীরা
এখতিযার
বরজোযা
ভালোবাসায
রাইড
পরদরশনীতে
##ফাইড
মাগফির
আইএম
তিনটে
পডানো
কেবলই
খজছেন
এযাক
কটির
##োগরাফি
##রিশ
জনমবারষিকী
গণে
সকলছাতরী
ঘোলা
বৌদি
বেশিদিন
সাপলাই
সংকীরণ
দৈরঘ
শাহাদত
নজি
২শ
জযোতিষ
একাংশের
বিদরোহের
##লকষ
পরতিচছবি
সষম
##োলের
সেদিক
অনতরবরতী
মিলিটারি
তঙগে
নফল
কাপাস
পরাইমারি
কযালিফোরনিযা
ইনসা
সপিন
সাহাবী
গণতনতরকে
মতিযা
মনতরনালযের
আসমা
মেটরোর
ওযাকত
চাচাতো
mu
##বারি
উপকলের
লেগেছিল
ছরিকাঘাত
পচিশ
##েনাতে
ডবল
কযেকশ
সেটিই
বারধকয
ফারমাসিউটিকযাল
করোধ
##পরাযণ
আরোপের
নিরদেশিকা
ভাগযে
মেশিনের
গযেশবর
বানোযাট
ছৈ
মহাখালী
অযাপলের
কযেকদিনের
how
দযার
লবন
ওযারনার
জাহাজে
কনফারেনসে
ছদম
##জাবে
করিবার
৪৫০
দোকানদার
যকতিতরক
জনাযেদ
সাদিযা
বলতো
জমাট
চালালে
আদিম
লোহাগাডা
আনদোলনকারী
কণঠসবর
ডিলিট
বাহর
##lect
anal
মহাবিশবের
ডোর
রেষ
এইডস
বাহযিক
কোমপানীগঞজ
হাউজের
পদচার
নিশচ
আনতরজাতিকভাবে
পরশনোততর
সমাবরতন
অরধশত
অভযরথনা
সবাযতত
আগমনের
সারাদেশ
পালাতে
##মেইল
সিজার
##ster
সমারটফোনে
১৯৫৬
জঙগলের
জমকালো
##ফফার
বলকে
সেঞচরির
বাংলানিউজ
ফলেল
উদধারকত
চরমপন
কলযাণের
ঝরনা
আউটসোর
রাযপর
##শোনা
মাহববে
সাবলীল
কোপা
অদময
অনাপততি
রাববল
চাহ
ছবিটিতে
তামিমের
নীরবতা
চেহারায
বারা
##ানিযা
শরদধেয
টাইপের
জিনিসটা
##চিনতা
মানবসমপদ
ধলা
বিযার
##দীনের
##ঘনটা
উচছবসিত
দাউদক
তোযাককা
জলাইযের
মনতবযে
দেশপরেম
রপরেখা
এব
মজন
##যাসিক
বৈষণ
সাজার
কিশোরীকে
দষটিননদন
রিযালের
ইনভেস
পলিশিং
পরামরশক
শাযখ
সেশনে
ফটিকছডি
ঊন
দেখতাম
অধিষঠিত
ইলাই
কারনেই
রেমিটযানস
এরাই
##িনাটি
অযানিম
মাযানমারের
ধরি
মতামতের
পরকীযা
##পোল
সমতায
##াতমা
করিকেটাররা
##নানের
বিভেদ
ফলেই
cum
যৌতকের
পরষকে
আনতরিকতা
নাবী
##নীতিকে
গণজাগরণ
তথযমতে
মেশানো
বরেণয
go
##বাযের
বিদেশিদের
সবভাবতই
ওযারি
কাবযগরনথ
উবন
চলেন
বরেন
চারটে
পরযবেকষণে
##ين
কাশিম
হাইসক
who
হযানডসেট
##তমানের
মৌমা
১০৬
নিউজকে
##গলোতেও
উদভট
এসডিজি
##মগধ
করসিং
সটেইন
বককর
##দেবীর
##বিদরা
গোপনীযতা
বালাই
সেগলোকে
ফিরবেন
দামও
বামপনথী
অনতরা
১১৫
ছেযে
চববিশ
##িছ
একীভত
কযাকাটা
যশোরে
ফযসল
##শনি
##োয
পরতিদান
লাঞচ
পরাচয
বযাংককে
##ঞচির
১৫০০
ভবিষযতেও
##me
রাধা
বাসনা
ফিতরের
bh
পরাণি
নাত
আপোষ
নীরবে
উচছবাস
ইখ
edu
উলটা
দেরিতে
ভাটার
১৯২০
##stem
খাওযাতে
রাকা
বরাবরে
আলোকচি
বৈশাখের
দরভিকষ
আইসক
হাঃ
অনেকগলি
ঘাটের
ইভান
গজে
সমষটি
এসকল
জানাবে
বিশবসেরা
একাকার
বযসি
fe
##৩৬
হযান
নভো
ভোটকেনদর
list
জীবনযাতরার
অফিসারদের
##ভরে
উইম
উনম
সেনাবাহিনীতে
কাশমির
##বলির
সমপরি
সোলাযমান
সনতানরা
ফতললা
অডিটোরিযামে
অরণয
আংটি
বডদের
বিচারকের
ভাইরাসের
পযারিসের
ঝে
দধে
চলেছি
রাফি
১০২
কমারশিযাল
বরাহম
বসলাম
ওযেসটার
পাথরে
##গস
##১২
মৌসমি
মোতালেব
জাদঘরের
লটের
সতেজ
লাগছিল
##ham
সমবল
নিরগত
wind
ইনসটিটিউটে
##পরযনত
##লাইসিস
মাহমদের
##con
বিশবখযাত
পেযেও
##েশনস
টাইটেল
লিগযাল
টপকে
মহামানয
আলোকপাত
কিংবদনতী
ফিলিপাইনের
যগানতকারী
ওলড
জিক
ভাবল
হরদ
দবিমত
গঙগার
বৎস
##মরম
##সারী
টরাইবয
মহামার
১০৭
##enn
##েনেজ
##বাধিকারী
উঠি
১৩৫
খোনদকার
পারিনা
পরজা
দরগত
সমরথনের
শিখিযে
আশান
ইযো
রজব
পরতিভাব
নাসার
মোজাফফর
##ভাঙগা
টরফির
ছাডেন
##যানি
একসপ
পঙ
##িসতানের
লেকের
জাতীযকরণ
জিননাহ
নাজন
বৈষমযের
মাখিযে
tv
মৎস
মোখলে
##েসার
হলিউডের
our
##িনদর
ফারহানা
১৯৪৫
ob
হাতেনাতে
বিদাযের
অধীনসথ
সটিফেন
##জেলা
sur
হোলডার
কেনদরিক
অবহেলার
গোপালপর
কিসতি
##মণডলীর
পরিপকক
রত
##40
সরকারও
ফেভার
##আরপি
অরথমনতরীর
কমারের
mo
৪নং
গযারানটি
শিপ
pay
গভ
ভঞা
##icle
অবাধে
##জগতের
সচিবালযের
গরীষমকালীন
টরেনটি
রিসোরট
কাফির
পরশনটা
শাসকদের
ভাইবোন
##চছাদ
লেখন
পশচিমের
ডরপ
সফররত
একশের
পযালে
রাকাত
রির
গতান
বডড
বলেনি
ইনজর
উদঘাটন
সবরে
সবাবলমবী
সচকে
পারলো
অবমকত
চৌকি
তিলা
ফরেঞচ
সওদাগর
year
##পরতা
পরবপরষ
ফরিযে
ভরমন
ননদন
##পদী
সবহান
##েকো
মিছিলের
সতো
##াহী
বযকতিতবের
কমেডি
রাহাত
পিরোজপরের
সলাত
ভোটারের
সৈনযদের
বিনদমাতর
মকস
##যানার
##ories
ের
রাষটরপকষ
সফটওযার
পষপসতবক
er
##وا
##istr
বেদনার
উপসথাপনায
##ককষ
সকলেরই
ডাটাবে
ফোনটিতে
কেলেঙকার
ter
রঘ
##ললা
টাইবরে
কটকতি
একাডেমিতে
##ওলা
আটজন
নেওযাজ
মযালের
ঘনিযে
কাউকেই
কৌশিক
আনারস
পরবাঞচলীয
সিসিটিভি
##সবের
১৭৮
অনিশচযতা
##খডি
সাভারে
##িসথ
ইযাকব
ঠেকে
##পতের
মরতে
##ime
গেমসের
টরাইবযনালে
দেডটার
আদরশে
সাওতাল
দন
##ফোডিল
পরোগরামে
গোযেনদারা
কংগরেসে
বোলিংযে
ফযামিলি
নিরবাচনেও
বইমেলায
বযসসীমা
##পালন
মাহমদললাহ
পরবরতিতে
অসনত
বেশিই
সেনাপতি
রাষটরপকষে
টাচ
ভাবনায
bar
##কষণা
বিকরেতারা
মেদিন
##শীলতা
ভাবতেই
আইপিএলের
ফরনটের
খেলছেন
ভগতে
কথোপকথন
##জিনি
##শীর
করাসহ
##ony
হইচই
ইলিযাছ
লাথি
বরষপঞজ
এযানড
newspaper
পরতারিত
সরঞজিত
page
বাষ
তলেছিল
##ভরষট
##বদধির
দপচা
করেসট
মেকান
এসকে
নিযনতরনে
means
##ов
বিশদ
সিদদ
রিও
খিলা
জোগান
পালক
আকরমণাতমক
##হায
বাংলাদেশসহ
উঠলাম
ইহার
উজান
গমের
মিসরের
কেরিযার
অপচেষটা
পনরমিল
##বশত
##েসি
আলটি
বডলেখা
লেটার
##abad
চাকরীর
##রস
মখসথ
বাডলেও
মোফাজজল
টেকনোল
ইশার
সাঙগ
সেজ
##ণডাদেশ
আবাহনী
কারার
অতযাচারের
নেতরকোনার
এজেনসির
আবিদ
দযাল
ষাটের
২০৪১
বডপকরিযা
##ade
হারডওযযার
বদধিমততা
ধবস
##দীন
##لا
উমমা
ঈমানের
বেষ
বিশবযদধ
ফরাসী
চিনির
দমকল
##৩৭
পরতযেকটা
সিনডিকেটের
নিরাময
ভেনয
রেমিটেনস
ইনজেকশন
অনষট
কমের
তলেন
##ছটি
কারী
শাহজাদপর
একমাস
জানাজানি
ওদিক
সতবধ
আমিনের
চারদিন
কানড
পরশিকষিত
মোটরসাইকেলের
##গরাউনড
নহে
##বিবি
দরন
##ওযারক
ফটোক
টাযার
হরণ
অভিনেতার
##শাসতর
তীরবরতী
পরতিভাবান
বছরেরও
পাননা
লোম
উপাধযকষ
১৯৬৩
মঈনল
##press
##মারস
ফেবরযারির
মিডিযাতে
অযাকটিভ
দরবততদের
ইফতারের
আছাদ
কৎস
##gb
দরভাগ
বিসকট
মনতরীদের
পাপের
কোরআনে
##ীনের
উডতে
পরিহিত
##জারস
আলোতে
পেযেই
সপারভাইজার
ভিকটোর
আউটসোরসিং
কোনোর
যতনে
মধযপরাচযে
ফেরেশতা
ইনটেলিজেনস
##টমেনট
এডঃ
পযলা
আউশ
av
##কষেত
পোড
একসপো
টাইটান
বাফ
কোণ
বিভাগকে
ফিলিপাইন
দিবো
শেযারপরতি
অঙগসং
সমীকষায
পরিমানে
সংসপরশে
অচেতন
আবব
সনদপতর
বউযের
রসের
##গেটে
কিশোরের
সরবদ
জীবনটা
শরীবর
গতানগতিক
att
মোকতার
শনেই
মোটরসাইকেলে
আডাইটার
কানেক
##তরিশ
পডত
##বোধের
বেডাচছেন
##শচিত
##ater
বিকরেতার
ওজ
দশে
সওযাব
##৯০
মাসদা
আচরণবিধি
শনযতা
গণফোরাম
##বাম
সননত
বিলম
মেসিকে
দীরঘমেযাদী
দরপাললার
বযাটে
##চিবের
বিরকতি
এনআই
মনোবল
অলআউট
ইডেন
লযান
চিকিৎসাসে
শাডির
দরযোগের
##বিবে
মাসবযাপী
পরানতের
ছিনতাইযের
his
সদে
পরশনটি
নীতিমালার
মহললার
ডরেসিং
##সালে
মাটিরা
রকতকষরণ
উপসহ
বনদে
##গমন
##এমএস
সতপ
##বৈচিতর
ছাঃ
সথানা
সাজাতে
মেডিকে
শাকসব
টসে
টেপ
কাটান
বরহম
সসমপরক
পবিতরতা
##ডিশ
শোনে
দোষীদের
সযাটেলাইটের
ডরাগন
যতর
উদদিনকে
বেলট
অরপ
জীবনযাতরা
ইজজ
কারগো
আযতনের
##ution
কাটায
শচীন
কোষের
সমপরীতির
নিমনে
বেলার
বিকল
##ен
জযাকেট
ঋষি
কারযা
দইজনের
##সটন
##কোটি
দরভোগে
গোবিনদগঞজ
উপনীত
দোষারোপ
che
##তাযন
##ower
লাযলা
আলোকচিতরী
মেদিনীপর
ওযাট
সমপরকেও
কবিদের
শিকড
সাইনবোরড
লাস
##hman
##াজনিত
##umb
বিছানার
##খিল
##নেট
গোনা
জাযগাটি
##ows
ডেনমারক
চকো
বযাপারেও
জলজ
সপারের
আনদোলনকারীরা
দঃসাহ
top
বনধতবপরণ
তডিঘডি
এনটারপরাইজ
ভাডার
দবারসথ
সমমানজনক
produ
2009
রপতানির
বযরোর
##দধের
##মেজ
বসেছেন
##আরআই
অজিত
দাবিদার
নিযোগে
এলইডি
নানামখী
গরামীণফোনের
থামাতে
এলার
##থেরাপি
পলিথিন
অবিশ
আলফা
ভারতবরষের
রেজওযান
সাধনার
লাহোর
গযালারিতে
কোলা
সংগঠনগলো
লডে
উননতমানের
উপসথিতির
ভিডিওর
serv
বযাকরণ
বিকির
রোহিঙগাকে
##িসার
থাকো
রেকরডিং
সমপরসারণের
নারগিস
ধামা
##রণীয
##তলের
##পতা
##পিসহ
বলাউজ
সীমানতর
আতমজীবনী
চারে
content
আইসিইউ
অবমাননা
##সিযা
শকতিতে
সংসকতিতে
##ফিলড
আভ
৩শ
টেলিফিল
নিখিল
মেরামতের
১৯৪৯
সহযোগীতায
মহসীন
এপরিলের
ভাঙনের
চিরতরে
ফযাসি
গাবতলী
##oll
বগডায
কিরণ
চাকার
##তিযা
অনধর
বলট
form
কদম
ঘটানোর
তথযান
যদধাপরাধের
মানবেতর
##15
সতনের
একাততর
কযাটাগরির
ওয
##হারের
##জোড
উরগযে
পেযার
এমআই
##গোডায
ঝকঝ
##ণির
##নেসা
##কষিক
মানবদে
সথলবনদর
##এসে
ফিরেছে
ইনজরির
ধনট
এলাচ
বযাংকার
ফেললে
দমনের
জনসবাসথয
ইনডাসটরির
##োটের
##পরাণী
ভগছিলেন
system
খযাতনামা
##ালিতে
##সামগরী
জডানো
ভোগানতির
আগরাসী
অনতঃসততবা
যেটক
মোমবা
engl
থি
##পকর
উপসাগর
নিজামী
পরযাক
সমযকালে
পরসতর
নাগরিকরা
দিদারল
বারসা
আযহা
তোরা
মধস
ডেসকটপ
##সমযের
একেকটি
জেলেরা
অনিরদিষটকালের
##13
সষটিতে
মেলবোর
##রমের
অপবাদ
গিলে
নজিরবিহীন
জটিতে
কামিজ
##মাধযমিক
আলতো
মানষরা
বঝতেই
##arta
খটিনাটি
bj
ডম
ঘটনাটা
ধাওযান
কনিষঠ
##তীর
বিশলেষণে
ভযালেনট
রপার
হওযাতে
ডাযেট
২৪টি
উপসথাপনের
##বিজঞানে
ফলযাটে
মাথাবযথা
ফতোযা
অঞজন
মযাথ
এফবিআই
রশিদের
##েসের
আনাম
##দাকে
ফটবলারদের
সংসকরণে
আমদানী
ওরে
##বিতা
হোতা
নিঃসঙগ
পিতাম
মকতার
##সমপদ
দেবের
মানহানির
শিহাব
##ins
ইভটি
অটোরিকসা
বারণ
উনমোচিত
পিঠের
পষঠপোষকতা
ইনকিলাব
সালামের
একদমই
##পিস
আমারা
লালা
সাধারণের
বাজেযাপত
বিজঞানে
টোযেনটিতে
শাহের
সমনের
রহমতে
হাওযার
ইমরানের
কযারিবীয
পরতগালের
চৌরাস
কলিনটন
sci
##ta
সাফা
সারজেনট
কমির
ভাসতে
বাছাইযের
আশানরপ
দেখবো
হইছে
সমননত
দিবা
এমএস
সথানানতরের
ডেথ
ইনসযরেনসের
##োদর
অলিভ
##tion
আগলে
আসেননি
টিআইবি
over
রবির
##যোগের
সকিল
অজানতেই
নিরভল
বিসতারের
নিষপততির
eur
শলীল
সজিব
ভরানত
মাজাহ
দেশবাসীকে
১০৩
আনদরে
অট
ওযারেনট
জেরা
##বেষী
##জিতে
##ৎসরিক
লযাট
##নতির
##বারতায
গাণিত
বাথরম
চেঞজ
কারওযান
সরাতে
লজজার
##ালিযা
নামবারে
পশচিমাঞচলের
ছটতে
বম
পরতিপকষকে
ধাতব
বিসমিললাহ
##16
সহিহ
তাকায
মসি
ঘনতব
দবনদবের
##মিতা
##বসতি
##গাডি
ওযাং
সলভ
ঘরেই
বাচচাকে
সবভাবের
অনড
##তনয
যেমনটি
সাধিত
অবমাননার
সকেলে
##বশয
জনপথ
গহবধকে
হযাটটরিক
ইহর
কারপে
পরথমদিকে
কযাসিন
##ision
আযাতের
অগো
আদরের
##ধরষ
গাজর
পরসিকিউটর
অতিথিরা
সারটি
বোযিং
led
বযঙগ
##টেবিল
শরতা
##সিতে
##েলর
মারকায
##eral
সেচছ
বিচারাধীন
দাযেরকত
এইচআই
জরিপের
একরামল
বেহা
ঘরানার
কালচার
সিংহের
হাওরে
আলামিন
আইনজীবি
নওযা
##যেনের
##বাবা
আসলেন
রেললাইন
নীতিগত
##িটেশন
দাহ
মদের
সপোরটিং
ইতালিতে
তাৎপরযপরণ
অদকষ
বেডানো
##েশবরী
উচচশিকষার
ধামরাই
উৎপাদনকারী
১৯৪৬
রবের
সিমপ
করাইশ
চযালেঞজের
দাশের
পনরনির
sing
চডায
জাযগাতেই
জটিলতায
ইজার
##তবনা
বিলটি
##oss
পটি
বদন
চললে
১১৭
##শারী
offer
মীন
কিনডার
সামস
সযোগয
বিনিমযের
পাততা
##এইচসি
বঙ
উইকে
সলোগানে
মনোনিবেশ
ভোগানতিতে
পরাচীনতম
##করিযা
মিডিযাম
গরতে
বরান
সেইসাথে
তিবব
নেতাকরমীর
##শবরী
##সাইড
হেরোইন
গনয
নিষঠা
পপি
অঙগরাজযের
##ণিক
জীবদ
##ery
সেনার
ফাতে
##কিপার
শাহবাগে
ডেলটা
আনাস
ধরল
উপাচারযের
কাটানো
##শবের
##ধানো
ভালোলা
পরিচালকদের
ডটকমকে
##সো
##নিকে
মানষটা
সেনাবাহিনীকে
ওবামার
কলিং
করসফ
##োসহ
##মারচ
বঝায
##osh
নেপথযে
খরা
সমযকাল
সমযসচি
ফরমযাটে
##বিভাগের
##সমেনট
রনির
কযটি
সংজঞাযিত
##লেমান
শেন
দেবাশী
বোধগময
শরাবণ
মহাক
নামঞজর
নরওযে
সোহান
##ations
এলএনজি
মাগফিরাত
story
ভিকটিম
##ংসনীয
গডায
##দমন
বিষের
অভিমখে
রিযার
পাঠের
সিনেট
১৯৫৫
পাঠাগার
জোক
##ধরি
অনেকখানি
তহবিলের
উদভাবিত
##িসিযাল
থাকেনা
মাইগর
করমি
উপদর
হোসটিং
লিখেছি
##চীর
##kh
সবখানে
বইটা
বোঝেন
সরদি
গরো
সরবনাশ
দিতো
##বিং
অভিযোগও
##শিলপের
গমব
চিনের
বসেছিল
গোডার
পষঠায
mob
সেগন
##দানকারী
উপমহাদেশে
##ron
বিচারকদের
##ফিট
পরতিবনধীদের
বাঙালিরা
আরকাইভ
কোযানটাম
রাফ
মাহাবব
তখনি
ডিপি
আলমগীরের
করিকেটারের
ননদিত
ইউজিসি
চোষানো
ওসব
মলযসফ
পরজাতনতরের
কলমবিযা
নাগা
##মপট
সপী
পডতেন
বিনিযোগে
আনাগোনা
লকষমীপরের
অলিম
অনদরে
গেথে
সদসযসহ
দোহাই
ডযাফোডিল
ইকর
##গাছি
করিবেন
১৯৫৩
বসল
সংসথাকে
পরাককালে
সেমিসটার
lim
rah
কষেতরের
ঠিকমত
পণযে
বরাস
দঃখে
60
##baria
পলান
##নাথের
##ভযাস
হেলালদদীন
মাহমদা
শিকষাপরতিষঠানের
পব
জানাল
এলিজাবে
সরোতের
di
কনের
পদমরযা
ইনফেকশন
বব
বছরও
নাহলে
অার
মদরায
##gress
##রিক
##দবনদ
পারাপার
বডসড
সঙগত
##মণি
##মহলের
এডিটর
চিম
কামরা
কোমপানিকে
সিএস
পরশংসনীয
ফেসটন
রাইডার
tagged
##াসনে
কোষঠ
নিশচিহন
পরযবেকষ
wr
বিদযৎস
##ানতরিক
কেনাবে
কালিযাকৈর
অযাডমিন
কসংসকার
##উজজামান
পারথিব
বইটিতে
মদিনায
হশিযার
বাধতে
কলিপ
ভটটো
উহ
টথ
##দাতার
বাৎসরিক
উচচপদ
##শাসক
দিরাই
রিযে
##ইযের
কোরিযায
দিললী
কিচছ
রমেশ
উপসথাপিত
কেরানীগঞজ
ধোযার
বশে
##bad
##ology
jan
##ামাটিতে
জির
শরিযা
বানদার
ওযেলস
2011
পযাড
কোতোযালী
সহসরাধিক
bank
তাবলি
শরবণ
সেনে
অতিষঠ
ফোরজি
পৌছার
জৈনতাপর
বিশবমানের
পযাচ
সিদদিকীর
গঙগোপাধযায
ভিল
মকর
##ভজ
##ডিনে
##পরণের
শোকে
##stars
মফতী
ডরিম
ওযেসটারন
##77
জননেতা
মরখ
২১টি
পযেনটের
ফাত
একটিতে
পেপ
তরণরা
আকষর
##োগরাম
আলব
ওযাদদ
আলীক
অসমপরণ
##থনের
অনলিপি
পরীকষারথীর
জযামাই
মসলিমের
পরেন
পরজাপতি
কিলো
ভেষ
##হরি
নালা
নামই
পরযোজনায
পরতিবেদনটি
বাযোমে
আইপিএলে
##বযাপি
##নগরে
রযেছি
গাফিল
জোযারের
ডালিম
নিমজজিত
সিনেমাটির
##দনগর
পরযাকটিস
ঝিম
ভগছে
সঞচালনা
জলাশয
ফাযদা
##কটে
এমবিবিএস
উপতযকায
আনশকা
মিঞা
##াতিরিকত
সমকালীন
১৭৭
হরষ
সিংযের
অযানটিঅক
জবাবদিহিতা
অযাসিসটযানট
উদবাসত
hard
রাশ
গাযিকা
##পাটি
টরেনড
কালচারাল
##পরেমীদের
ডরেস
##তরণের
সবরণাল
সোসযাল
brahman
##uc
অসবাসথয
ভযভীতি
##ছবি
লিভ
খামারে
চিৎকারে
সচিবালয
ছককায
35
অশাল
এথ
##হযা
ইসমা
দাযবদধতা
মাথাটা
সিরাজদি
ডিভোরস
আপেকষিক
পঙক
##জব
মেসারস
##জিবি
দাবান
নিমনলিখিত
শটকি
লসকর
সাবি
অধযাদেশ
##দেও
সিলভা
মনাফার
নানদাইল
wom
##বানা
ছেলেটির
review
ইচছায
লিল
আগামীর
শরেয
##আগে
ডাকতারি
নেশায
ইততেফাক
থাপ
গরযাজ
ফক
সদি
বযাঙ
আনছে
##োসটের
সথবির
ওযাহে
##আরএম
রশমি
ওযেলফেযার
ان
কাতর
পরসকারে
গহকরমী
চোরাই
আযান
দোকানপাট
##গকে
নিতেই
পারফেক
##মিতর
সমযকে
পদপরারথী
রকতকষযী
দীরঘকষণ
সফরকালে
সনতোষজনক
##ংশের
ষডযনতরে
##কলপে
mast
মোশত
ডিজেল
চেনেন
৬নং
লাগত
##বেনা
সমপরককে
বরগকিলোমিটার
##পাই
খবরটা
নিমনোকত
##াযত
উদযোকতারা
মেহমান
cock
ভাতার
লয
রাতভর
চাষিরা
কিডনির
পরিচছননতা
groups
মেডিকেলে
আমম
কষিজ
বেচাক
বদলাতে
অনধকারের
অরগানাইজেশন
##ীনস
ঢাকাগামী
ইশারা
হামিদের
বাকিটা
##গাছের
খাওযানোর
categ
ইউরিযা
রহিমা
ঢাকাসথ
মালদবীপের
bas
গরবের
##মীরে
##ator
রকতপাত
আতঙকের
নিঃসব
তাকাতে
brahmanbaria
অনী
টরণাম
অপারগ
অসমমান
সথগিতা
রযটারসের
##65
বরগনার
পরথাগত
মানসমপনন
মখারজি
অনিক
সরত
মাসদর
আফরোজা
১০০টি
বিধবংসী
সথানটি
রাষটরদরো
লাগেনি
সমিত
ফরাস
বাডাটা
international
অশেষ
সবসতির
display
ঔপন
গাদ
আজব
উততাপ
সনিশচিত
রপের
##ীগলোর
আকল
কামিল
ফেইসবকে
বিআইডবলিউ
কেনদরিয
উজির
##ওযাশ
কাহার
আহামমদ
##সরি
অনেককেই
হাযদরাবাদের
ফাজিল
bre
তৎস
বাকের
##বিষট
মনেই
হতযাকাণডে
বসাতে
মলান
হোসেনসহ
##ute
অবিচার
আশরম
আলাল
আখি
best
পালের
তৌহিদল
##গরাহী
দেবাশীষ
মীরসরাই
##গরম
দিনগলো
হামিদল
পোসটটি
গলক
##বকস
##৩১
আমমা
চমকপরদ
question
##িকেই
বেজায
কারযকলা
বাণিজযিকভাবে
রিযাদের
##চারি
কলঙক
ভমিধ
##গাজী
##ground
##44
খোচা
199
ওপার
জযেন
##ভানস
একটির
দিনটিকে
অসবাসথযকর
সালেই
সমানভাবে
হেনরি
jul
উঠতি
ভারতীযদের
সোনারগা
photo
হিলি
সরসবতী
লাদ
শেষদিকে
সটরেস
সমাজসেবক
নেযায
টেকনো
##সমদধ
যগোপযোগী
ফযজল
ডাকতে
নিতানতই
টাল
সোল
চাইল
দেখেছিলাম
##দশায
hum
আবিসকার
পরেরন
অযানি
হাথর
সরবজনীন
গঠনতনতর
অবকাঠামোগত
সৈকতের
রিপ
হেদা
rep
লাইবরেরী
মসললিদের
##চেল
মসকোর
রাসেলের
আকরষ
আরিফর
সিগারেটের
মাখা
##কাও
পাসপোরটের
নিপীডিত
জাহাননামের
অতযধিক
লাও
টি২০
ওযালি
##বোরডে
নবজাতক
কেলেঙকারির
অরপিত
মামনের
কৌশলের
পরজেকটের
তিম
পরডাক
রাউনডের
গলযা
পযানেলের
পরিশোধিত
শরণাপনন
সরানো
কাটাচছেন
বিসিএসের
ইযাম
করছিলো
আসকতি
হরমোনের
আসতানায
গীত
##লাখ
আরতনা
দঃসথ
গোসব
অকারযকর
##let
হিনদরা
ফটোগরাফার
ভেটের
শৈলক
রাজপথ
মকতিপরাপত
হাতছ
##ইর
তালকদারের
ঈরষা
##ফাদার
##োটা
জেনারেশন
ভোররাতে
১৯৫৭
ইসটবে
আটককতদের
নীতিনিরধার
অশালীন
রাববী
কণঠকে
author
আইএফ
গাউ
আগারগাও
উনাদের
হরেক
অরথহীন
বিজযন
##দিম
সোনাই
ইনটারফেস
বাচাও
ইমো
##িকসের
২৩টি
জনমগরহণকারী
অমলয
পরাইজ
আগনেয
বজরপাত
অহি
গিরি
সাফার
সনদের
ফেলেছিল
পযসায
পীরগঞজ
##াসনের
লাঘ
সামছল
চারটা
অনসনধানের
আঠারো
আরোপিত
রপালি
##চালন
তরমজ
টিযার
শখের
##োগরা
হাটর
গরামবাসীর
বাডিযেছে
bi
টনি
মশর
বযো
কেবিনে
মালয
ভাগনে
সংখযাগরিষঠতা
নিরবিঘনে
খতম
শরতের
পরিনটিং
সসথতা
উততরাঞচলের
মারাতমকভাবে
আদমশ
করমবিরতি
মাদারীপরের
কপিরাইট
খলী
পরবাসীর
পনথায
করিসেনট
soft
এনডরযেড
টিচার
মেযেটার
পরণোদ
পরিকলপনাম
উপসথাপক
##দবীপ
রামর
##ইসট
করীত
পডেছিলাম
সথাপনে
শারির
বিপিএলের
বজলর
সানতবনা
ভালবাসেন
popular
fl
##নবী
নামানো
মাদকসে
sl
নডিযা
বলছিল
গরজন
et
##ঋণ
সটীল
গাণিতিক
##খাতের
নিরসতর
শরাবন
বরিফিং
ram
##ns
পরতিবার
##টকই
মনডলের
ববি
অটোরিকশার
লেখালেখির
##গলাস
উদীযমান
ফরিদল
সইডিশ
ইতালীয
##গাহার
ভমিহীন
ধাবিত
গিগাবাইট
##oot
একসপের
গোলাপি
বসনতের
আচছনন
ইযান
##তমা
##পিন
##নতন
##সমাজ
চমবন
হেফাজতের
বলগারদের
তিনটার
কযাশার
##que
অরধেকের
কারলো
পজিবাজারের
পরযটকরা
সমপরিমাণ
নাছি
উচচপদসথ
তারকারা
সিলেক
বেচা
বাইবেল
ভোটিং
এজেনডা
##মিলিযে
##টরিযা
##ামাতর
জবলছে
##াভি
হামলাকারীরা
জিনস
বিষণণ
শাকিবের
সমাদত
দাউদকানদি
pan
##হতির
চিটাগাং
bb
ওমান
##মহি
আরএসএস
উপকমি
ছডিযেছে
সাদাসি
word
ভেল
সমাইযা
##ধারীদের
খেযেছে
মেসেঞজার
love
টিলার
কষীণ
সদীরঘ
অকলানত
শিকাগো
##চছিলাম
##িযেনট
বছরগলোতে
করমকরতাসহ
বখতিযার
ঘণয
##বহাল
উঠেছিলেন
এযারটেল
চকরিযায
ভালবাসি
article
পরতযাশীদের
##াজল
দরগো
ছাগলের
হোসনে
কোরীয
##িযাহ
আনদাজ
নরজাহান
answ
ভবিষযদ
জযাকসন
পতরে
##ইনের
সরোতে
জিলা
real
বানদরবানে
থারড
শেষমেশ
key
##িনহো
জনপদের
আইনজীবীর
লিক
ঘটিকায
দেওযাল
শাহিদ
##amil
সৈনযরা
##ঘরি
বরাউন
মোম
সরবতরই
ঝকঝকে
অঞজ
সালি
হাসানকে
কাওসার
পটাশিযা
গরীক
বরধন
পিযং
##সালা
অরথনৈতিকভাবে
##আপের
পিআই
ls
উহার
এরও
রমযান
বযাকতির
মলল
সটযামপ
old
##লজি
##দেহী
সাইযয
পতাকার
বিদযার
অঙগল
##bang
সরকারই
##োননত
সানরাই
বিধানের
সারকেলের
করমকরতাগণ
কমপো
সংকচিত
গোযাইন
নিরবাসিত
লঠ
পরশানতি
পরতীযমান
কযাব
লাখেরও
##শরীর
ইরানে
ঘরাণ
##কলি
##ese
উপডে
মরগী
মোহামমদের
কাশমীরে
কষযকষতির
দিচছিলেন
মাধযমেও
জানিযেছি
যদধবি
job
পিডিএফ
একবারও
deve
##রব
##নযতম
২১শে
পরশিকষণে
##সমহকে
মমরষ
##মবক
##লন
লাইলা
টিসয
আসথার
ভালবাসে
নিতাই
ধোকা
লোভনীয
সমতলয
bit
দিনও
##টাইমস
পাবলিশ
ইনডিপেনডেনট
##মনতরণাল
পিটারস
৫ই
নাবিক
নিগ
সবচে
রাজপরি
চাইছি
১২০০
##জীবি
কমারখালী
সলতানের
##তযাগের
দেখেও
শিকারের
there
রিলে
অনসারীরা
অসঙগ
সোযে
ডাযন
পারছিলেন
ওঠান
রাজনীতিবিদদের
ma
উহা
##োগা
মতযকে
সাধবাদ
উততরপরদেশের
pass
সষটিকারী
কপর
করমসথল
ধরমপর
নবজাতকের
নিরিখে
দালান
##ird
লযাবরেটরি
উপজাতীয
##nd
কাঠমানড
কিলোমিটারের
নাযকের
সবৈরাচারী
life
যশ
ধাপের
করিশচিযানো
##ততার
##মিলা
ভালোভাবেই
শহরকে
শৈশবে
আরাধয
ইতালিযান
মকসদ
শণয
##৪৪
##ইউজে
কলোজ
১১৯
কাটিযেছেন
সংকরাম
বরফের
##গরেড
ডাইরেক
চযামপিযনশিপের
লণঠ
বাংলাদেশিরা
মযাগাজিনের
raj
অই
নেচে
##ature
উচচমাধযমিক
দৈতয
মিসবাহ
গবেষনা
মানায
আটলানটিক
##যক
পরল
##গরহের
থাকাটা
পাযতারা
যগানতরকে
চকচকে
অযালকো
পতরিকাটি
##ীনসতনী
মারি
রিপোরটঃ
জাদঘরে
খাশোগি
ফাদার
সিকস
আরথিকভাবে
আতমীযের
যকতফরনটের
ইভটিজিং
##মলযের
বারানদা
অযাপারট
রিপোরটের
শরীফে
১৯৪০
পিতাকে
অহর
রসতম
হৎ
##ীতা
পজিবাদী
চডাও
##ission
রহসযের
micro
পরোদমে
সপতাহেই
পষঠপোষক
##দব
জিপ
বিসিসিআই
##ভাবনীয
##ীকরণের
হিমেল
লযাং
যাহোক
করমজীবন
##বিদযার
সংসথায
তিসতার
এইচআইভি
কটন
খরিঃ
পনঃনির
##মথ
##৬৫
মধপর
বৈরী
##সংগীত
জলাইযে
নিকষট
ভগোল
##জারভে
বেশিকষণ
পিকনিক
ডিএমপির
গঙগ
টরেনট
খেলাটি
খরব
চযামপিযনশিপ
অনশীলনের
মোছাঃ
অভাবনীয
জারী
সলমন
সবেদার
দাশগপত
লিভারপল
বেহেশ
##েশা
##নাযক
##সটান
উচচতার
##কটরেট
##হীনতায
গাজার
সসংবাদ
দোসর
##বিপরবি
ভেষজ
ভলি
মামী
দেখালেন
##দনীয
ওপরই
পকষপাত
নিরমানের
তিনশ
##বানধা
মরার
সটপ
##কোযার
দরভোগের
##করার
কযাস
উৎকষেপণের
##েত
নিরমাণকাজ
লগইন
##porn
দাযভার
১১৮
বাহক
সরদারের
কলারোযা
করবানীর
বযকট
ভাঙগার
ফিফার
লেগেই
ইসলামাবাদ
করিনা
চিকিৎসকেরা
পরিবেশনা
খাযর
তাকালে
নতবা
সরাহা
কোলেসটেরল
##িসিকে
অযাপে
##জিতের
peop
তানি
মতযদনড
পেশী
মিশেল
জকিগঞজ
কযেন
ভঙগের
##jee
##োযান
আইভী
উততরণের
সিটিজেন
ঝামেলায
##যযা
নাবয
বযাঘাত
হিসাবের
এলাকাটি
উমমাহর
##বামলক
মোনা
##িকাকে
##দেবের
সারে
রোহিঙগার
কলোনি
##াললাহ
##পাও
পনির
##owgirl
নীতিতে
পথকভাবে
উসমানীয
movie
হেস
ভিডিপি
নিরীকষার
তবককে
পষঠপোষকতায
অনাকাঙকষিত
কষির
লিবিযা
এবারো
##রাহয
গেযেছেন
নিবাস
মিলিগরাম
ইলেকটরিকযাল
বনযপরাণী
বদিউল
ফরিলযানসার
ধনা
আমবিযা
ওযাদা
জাতীযতাবাদ
গরাহককে
##মাবেশ
গেমিং
হরাযরা
টিএসসি
পরিদরশনের
বযাকতিগত
33
pers
##লাকত
সষটিশীল
কোং
রিচারজ
ফিঙগার
80
##রোগ
##ভিষ
ইনটি
পরণালী
সষমা
bjp
ডেসট
##াতা
জবরে
শিখেছি
বিতত
তাবলীগ
ছাযায
গোম
শেখর
মযাচেও
এগলোকে
আনষ
ফরাই
mark
##ষটমী
মহললায
ফসলি
ডাযরিযা
##টোন
##সমপরণ
##ise
বিহারী
##ildo
ইলাইহি
ইঞচির
শিং
কযারিবিযান
পাগলের
রহের
আশিকর
পাকসথ
ভটট
নামি
দিশা
জিভ
ধোনির
অভযতথানের
যকতির
সতরকতার
##ents
কবরসথান
পঃ
শভা
আলোচনাস
ঢালি
এজেনটদের
ফেভারিট
aw
পরাসত
জানালো
সরানোর
শরমার
মহাসচিবের
ডরেন
সকরিপট
পাচজনকে
##টসের
কিমবা
##সংবাদ
পরিবেশগত
##ives
উপারজনের
খপ
চিনা
এরআগে
চারদিক
কাটাকাটি
এফসি
ইযেমেন
##ani
মনোনযনপরতযা
মৌলবাদী
অসতরসহ
দঃসব
যতরততর
49
সনমান
পরিবেশিত
সারকলার
background
নের
নালিশ
##ভযান
শরফ
মানিকগঞজের
পরহরী
বিবরতকর
##াখ
মহাতমা
পরশাসনে
হযাকিং
হচছিলো
কযালিফোরনিযার
##লাভের
অরবিনদ
সংবাদপতরে
হযাপি
ওযালটনের
অকষত
জমিন
ইনদো
১৪ই
এডমিন
দকষিণাঞচলের
চটি
##ما
##গরহন
কবিতাটি
মিনিটেই
পরসততকারক
##ভঙগি
কোনদল
টারন
তৌহিদ
যমজ
নযান
ফনট
অবাধয
##বিযে
পরতাপ
আরটস
১১২
একবারে
বামন
ছার
টালি
##বালে
দেখেছিলেন
১৯৫১
ইডি
দেশই
জামিযা
##াধিকার
গালিগালা
ভিযেতনামের
ঘটলো
পাশব
কবিরের
টরানজিট
মীমাংসা
এযাস
মহাদ
সকিন
inv
ওরাল
চিরসথাযী
কংক
##জক
##মনার
সবনিরভর
তৈলাকত
কতিতবের
##কাহিনী
##ঙগলে
জানলাম
বাসদ
অনষঙগ
অযালো
সবীকতির
নৌপরিবহন
নিরধারণী
শতরদের
pres
বকা
১টায
##ঠায
সেফ
ইঞজিনের
সেচছাসে
##her
চলত
যারাই
গরেপতারি
বাজানো
মাটিরাঙগা
গনড
করতন
হাজীগঞজ
লাখাই
বালিশ
det
ননযতম
পরবব
ফিলিং
কষমতাসীনদের
সকে
ভেডা
বোঝাপ
নাজক
মেজবাহ
জবরদ
নবনিরমিত
বজে
ততবাবধ
পরবাঞচলের
সিপিবি
বযালেনস
##দিরা
##ould
বাঙলা
চিতরশিলপী
##পতযের
আকতারকে
দিকনিরদেশনা
আকষরিক
মাছি
##চছেদয
ধরষিত
সিদধানতকে
৩৬০
med
##ঞজিং
##মিঃ
ধরলে
সারের
আকবরের
উলামাযে
ডাযাগনসটিক
##কমের
##45
নাসর
bab
লিখছি
মাযেরা
অসাধারন
##সটা
মহাদেশের
##োলাই
তিনদিনের
বোকার
##ther
##িসচালন
ভরাত
খজছে
ডেনমার
আষা
টযানারি
শযাল
মাতরাতিরিকত
এইচটি
কঠোরভাবে
মলযবোধের
##বহা
তৈযব
শাহন
বসছে
##কলিন
সাহেবকে
ঠাটটা
মদি
শশী
##লামি
##ফরমার
যৌনতার
পরকরিযাধীন
##বিশব
কপিল
aug
##বরিড
##ভেঞচার
উইমেন
##ানসই
পেটরোলিযাম
সীতাকণড
বিচলিত
##দাম
##ানিজ
তলছেন
রিকর
indian
লিওন
নেশার
সকোযাড
জাভা
ভেবেছিলেন
অনশীলনে
উপতযকা
##চান
##োসের
শযামনগর
##টিনে
##৭৭
টইটে
দনিযাতে
ফটোকপি
বিহ
সিভি
আইরিশ
এগিযেছে
election
##োগানের
বারনিকা
##খিন
রাখতেই
##ots
সমদধির
সফটওযযারের
ফরাঙক
চযাডাঙগার
লিললাহি
জানতো
সমযেও
বিডিআর
কালিগঞজ
মাকড
##বদধতার
গিযেছিলো
##পযাড
khobor
শরিফের
থেরাপি
নাজনীন
##যাতে
বিততব
গলফ
##িতাকে
মতবিরোধ
বাসতবিক
জিজঞাস
পাখিদের
হসেন
থাকলেন
শিবলী
সামরাজযবাদ
file
##ঙর
অনযভাবে
##চাষ
নেওযায
মাতিযে
##বিলিটি
রমানা
##মীন
পরেসার
মিশরীয
উইনডো
কেউবা
মেলাতে
ডিভাইসে
কটা
##66
দিনটা
##ডারে
কাঠগডায
news24
সবক
techn
গরভাবসথায
মাউস
আজগর
সংসথাগলো
সরবসমম
লটপাটের
সঃ
মানানসই
আমাদেরও
কাহিনীর
বিটিআরসির
বিবরণী
জারসিতে
থিস
কাভার
##িকাঠ
##ীরাও
##কলসিভ
গডফাদার
কাউনসিলে
সঙগতি
ঔপনযাসিক
লাগায
আইসকরিম
সেলের
বলয
রপসী
জিহবা
ইরাকে
english
জনপরতি
করমকরতাবনদ
পকষকে
কালভারট
বিনাশরম
arch
বিটকযেন
ধমক
নববরষের
এসইও
ভাতিজা
অভিবযকতি
আবধা
ফরেনস
এতগলো
বরণিল
রববানী
মধযযগ
লযাটিন
খদে
চবি
##টিআই
##বহারের
##শালায
রিযাজল
আইডিযাল
জোসেফ
করিযার
১১৪
হেপা
রকষারথে
অমনি
##ces
অযাকট
অনাস
সদসযপদ
বোঝানোর
কোসটগারড
ঘের
পতরপতর
ইলা
বিকট
সযোগের
গিন
নিযেছিলাম
কষিক
তথযসতর
নৌযান
গাজীর
ধবংসাব
দাডালো
চেকপোসট
রাজবাডীর
ফটক
##ামতি
দরহ
কালকিনি
জনত
সবমিলিযে
তাহলেও
তদবির
##ঞচাইজি
শনন
##চট
আপনিই
ইওর
পরজঞা
বইগলো
১৩৪
##িকসেলের
class
sol
কণড
৭নং
এসটেট
দরকারি
পাচজনের
lsquo
ফিনি
##ভষণ
সাদশয
পারবতীপর
তপত
মোডের
সতযকে
সানতা
account
##বরধন
ভেদে
শিলিগডি
উজা
কফর
দোলা
বামে
আমতয
বলির
লযাপটপের
হাফি
##পনথীদের
অপরা
আনতরিকতার
বেকারতব
সখয
দরধরষ
গণধরষণের
তীরের
##ংগে
##যেসট
একপাশে
মলধারার
উঠবেন
বাসতচযত
আফরিদি
পরিকলপনামনতরী
রসে
##ock
জাতিকার
পরতযাশার
ভেবেই
টাওযারের
পরভাবশাল
দরভাগযজনক
watch
এমসি
চাদাবাজ
এলজিইডি
এরফলে
##মদী
পরবীন
##যাতল
দারণভাবে
শরমজীবী
পাঠযপসতক
বাডডা
##েনডল
পরতিবেশি
কযাপসল
এবাদ
##ামিন
এযারওযে
গাডীর
বেকিং
মানষগলোর
অরথাত
ইতোপরবে
১৯৫৯
আতমরকষার
national
নারীসহ
ঝিনাইদহে
জলপাইগডি
সমসযাটা
সচিন
গহে
গেমে
##ফরমের
চযাটার
নিবনধে
জগদী
করিযেছেন
শটিংযের
দঢভাবে
অতরকিত
সহপাঠী
##পশ
জানালেও
উইকেটর
সরবজন
ছাতরছাতরীরা
কসাই
হনী
##70
শিরক
ঘরম
অনাদাযে
সযাব
১৭৯
ফাহাদ
পই
##পরেশন
##গেই
করিবে
সংগঠনকে
রাহলের
কোতযালী
রোমাঞচকর
##শযের
কেবিন
১১৬
যেকোনও
বদধিজীবীদের
ফসফসের
জেনডার
##খোর
##যেলের
মিউনি
তথাপি
উডি
##লেহ
এসেও
একাদশের
ভোগেন
বামপার
সহিংসতায
আছাদজজামান
cal
বেযা
তললাশী
আজমল
ভোদা
অতলনীয
নহ
সাযেম
পাখা
ডরাম
##বিনিউজ
ভাগযবান
সমালোচকদের
উবনট
মোমবাতি
নিরল
রিফ
##টাইটিস
নাটকটির
পনরদধ
পরতিকতি
ষটেশন
রজনী
সটের
##লিঙগ
ভেদা
শনিযে
চাষি
মদরিত
চৈতর
cor
জেনি
##বারা
মহাজন
ডিবির
ধারক
ফেঞচ
##মহলে
অবযবহ
ধামাচাপা
৮নং
##মেলার
##যানসিযাল
শিডি
জামাকা
বিশবাসকে
pornstars
অযাকাউনটের
দাডালেন
চিকিৎসাসেবা
##পরিনট
দেখাই
##কানন
শরেষঠতব
মাতাম
##ীদেরকে
যোগসতর
কষিমনতরী
বাঙগাল
##yc
##করিন
শরীরটা
মিনারের
মজমদারের
জিনিষ
দরবরতী
সোফিযা
পিকচার
গেসট
বাকারা
একন
সেকয
বঙগবীর
সরকারবিরোধী
সংঘাতের
অসতয
নবে
সহা
বাসচাপায
##সারি
##alth
##ললাহি
হাইড
টাকাসহ
গণসবাসথয
##ital
হাইবরিড
শামসন
শবেত
সানাউললাহ
লটে
পেক
নিরবাচনি
রিলেশন
ইহসান
গনে
বলছিলাম
ভেতরেই
শবাসকষট
হাতছানি
##তৎ
শিকষাক
আধনিকতার
ডাকাতরা
সযানিটেশন
বযাচেলর
##ral
রকতদান
পযারে
বাচানো
রনা
সবিধাবঞচিত
রাননাঘর
অবিবাহিত
dildo
উদযানের
চাচার
সজনের
মসতাফা
অসি
ঐশী
হতযাকারী
কযালরি
এযাম
কোসটার
যৌগ
শারশা
সকরিযভাবে
সিডনি
সাফাই
অভিভত
রাষটরপরধান
সবাগতিকরা
পরবস
##বহারা
চাউল
বঝাতে
ঈদকে
শতরতা
সটারটআপ
উৎকরষ
##িকেন
বরজনের
১৬ই
ফিলিসতিনিদের
জাযেয
রোদের
সাহারা
শাহান
পশচা
পনরবিবে
বৈশিষটযের
বদলী
জাসটিস
কষমতাধর
বীরশরেষঠ
তওবা
বাউনডারি
website
ঠেলা
পথিম
ইহরাম
নিহিত
আসব
আলহাম
ঘরছে
পারবেনা
৭৫০
উপকারি
সংসকরণের
জিবর
তেতল
মানবজাতির
গডেছেন
ডাসট
##সটের
##রেটর
ভযালেনটাইন
জীবদদশায
রাখল
পদবী
বিকলপধারা
পরোডাকশন
##গণে
বাডলে
পথচলা
খডে
##ানতিকর
##বেলে
##পরাস
##কাউনট
##জনার
ইসলামসহ
ফাটা
দাডিযেছেন
সাধক
সারবিকভাবে
হতাশায
##ied
##করতার
পরিবহনে
আলিফ
সংকলপ
আরাধ
অবিচছেদয
আঙগলের
মতযদণডের
আরাক
বরাতে
লযামপ
পরেকষাগহে
চডানতভাবে
দেখেননি
ইনসটাগরাম
eb
name
বিকতি
শামছল
সযোগও
পরেরণের
বিপলসংখযক
##উদদিনের
congress
show
উনারা
##চনদরের
সাকষাতকারে
মহাজোটের
নেদারলযানডস
গাদা
রচয
সমাহিত
ধরবে
ফেরান
বিহারে
ডানে
##জিকে
আমেনা
##ara
১৪৫
পরজঞাপনে
কপার
##কচি
##বাদন
আষাঢ
দসত
রিলি
##সকি
##৩২
পাচে
টাইবরেকারে
##গরাফ
##চড
কেদার
নিরদেশক
গং
##করড
ধরলাম
গানগলো
##পোকা
পীনসতনী
ইনসল
অরথবছর
শিখর
শপ
তোপ
অভযার
##এফের
এককে
অনদানের
বসতিতে
পটভমি
পরাঙগণ
শাইখ
##খশি
##চনীয
##পরিকর
দরীকরণ
##বিশবের
জনগোষঠীকে
তনময
পরিতরাণ
সাংহাই
থিযেটারের
হাসেম
ইজতেমার
বিরিযানি
শিন
সিকত
##বযাগ
কযামেরন
সামরাজযবাদী
নডাচডা
অরে
##কারখানা
পজিটিভ
মিউজিযাম
টেনশন
অবহেলায
জারনালিসট
##ওযেট
##সকরিয
অসহযোগ
عل
ইমদাদল
মারসেল
মযাসাজ
লাইস
চিরির
সফটওযযারটি
ধবংসাবশেষ
##ওহর
রাগী
বযাগের
গারডিযান
sun
সথলা
হাতটা
ছিনতাইকারী
বিরতিতে
উততরার
দেবতার
মহাসাগরীয
ধপ
দিযেছিলো
মাইকরোসফটের
পাশচাতযের
৯নং
লকানো
ঝেডে
##ঝম
##েষঠ
আসানস
অংশই
##চচা
১৪৯
অগরযাতরা
গলাচি
মঠোফোন
ছেডেছে
চাঞচলয
##দাত
##টাস
##বাহিক
খাদযমনতরী
অনভি
ভিটে
জিযাসহ
গঠনমলক
পরযবেকষণের
শাযেসতাগঞজ
তাণডব
##land
কিঃ
শেষপরযনত
price
পদতযাগপতর
সমানে
নেকস
##সথার
ফিরছিলেন
মকতিপণ
রেকরডের
ফারকী
ইলেকটরন
হিমালয
span
জবলনত
থরিলার
থাকাকালে
পদসথ
nb
ছডাতে
অপরাহ
শাহবাজ
ছাডবে
চারট
ডিসটরিক
অধিবেশনের
শামসদদিন
উইলিযামস
অসতরোপচারের
পরতিরকষামনতরী
##িনাল
##ততীরণ
হতাম
অঙগলিসচালন
অজি
বডা
শৈলপ
পরতিযোগীতা
##জমক
তৈমর
ডাযাবেটিক
##নিশ
১৩৮
মাইকিং
সটাইলে
ইউনেসকোর
নকশার
ধসের
যজঞ
বরাউজ
সিনেটর
মনোনযনের
বাদামী
গালিগালাজ
lez
##যাকস
##তিযাক
অনযজন
রানেই
পরাণহানির
শাহিনর
চেম
১৯৪২
পরাইভেটকার
হাবীবললাহ
##ইযং
অংশকে
পানছডি
বঙগমাতা
অপশনে
people
##নটে
কোলড
##মললাহ
pat
হাসিন
শরমিককে
শকনা
ঐশবরিযা
ভযার
ভাদ
##দিস
সিঙগ
টরেডার
sal
যিশ
##বরতনের
##ene
##পরণা
জীবনা
খরিসটাবদ
ইবাদতের
ছডাচছে
লোহাগডা
সংসকতিকে
আনন
ছাটাই
পিপল
মরশ
এতকষণ
কাকডা
আলেকজানডার
সথানাঙক
develop
কংকরি
num
অধিবাসীদের
নকিযা
অনবেষণ
ভগরভ
##তিন
##শাকে
ধরলেন
কালিহাত
সটযাটাসে
লেবানন
কদমত
text
##বনিযা
সরবহারা
পাদদেশে
##রাটের
লাগোযা
উৎকষট
গরেফতারকতরা
বোনদের
বযাকআপ
যোগাযোগমাধযমে
সরকষায
মানয
কমভ
চকোলেট
করছ
তারণয
বিকষিপত
হসতানতরের
খতিযান
যাতরাপ
লোকেদের
সটোরি
উপকরম
অধযাযের
পরবলেম
নিরদেশনার
সনদরগঞজ
الا
লডতে
কেশবপর
মনতরনালয
সমপরদাযকে
সবযংসমপরণ
রেশিও
গগলে
##জেনের
মেলাম
বেত
দিনকে
টেকনোলজ
সরবদাই
চণড
নেল
পচে
অনদিত
সমাজতনতর
মেনেই
পপলার
##দগধ
ইনপট
পরেছে
রাজধানীসহ
তাপমাতরার
নকষতরের
সটেইনলেস
##¤œ
মিজ
দেখাশোনা
##বিধায
নিযমান
আলির
আনছার
রযেছে৷
অপরতল
১৩৯
কচকা
মিউচযাল
হানে
অসটরেলীয
বাহারি
ভণড
##লযে
##ষধি
রাগে
##দনায
##যাকচার
পরিবেশক
সামপরদাযিকতা
হোর
##দকে
নিমনরপ
সশানত
রঞজিত
##গহ
##রণের
আইজ
শিপন
##মণডল
##টরাকশন
##ফরের
ফরমলা
##ograp
##বারগের
##ভাণডার
নামী
১১তম
কলাউড
পদারথবিজঞান
এদেশ
বাটি
তাইলে
হওযাটা
ফরেশ
পরশনগলো
##lah
নানন
অগরাহয
সেনটমারটিন
রীত
##গাস
##de
একঘ
ডাইরেকটর
##যনি
##পরযাযের
##জিযান
ওযাহ
জলপর
পরেসিডেনসি
বেগবান
আযারলযানডের
দপচাচিযা
##দলে
##ামাক
সনধে
prem
ঝোপ
##ভাবী
সৌহার
৩২টি
অকে
ধিক
ডিও
অশিকষিত
##ডিএ
পরকরিযাকে
কচযা
খতিব
সঙকটের
শিবের
পরসেন
আটকাতে
##বিনযাস
##গযা
##দযের
##চম
সমীর
##পরতিক
##গেজ
সচেতনতার
ভৌগল
পাঞজাবের
men
রাখাল
গোলাপী
চাপাতি
সষটিকরতা
বঙগভবনে
##চরযের
সঙগীয
##উম
নাভি
##তবপরণ
অসতরশ
রাজজাকের
পাডকোন
mp3
বলায
##দেন
##শাম
পরতিনিধির
আতত
##লিট
থাকেনি
চরিতরটি
ঢাকনা
##phone
কোষঠকাঠ
অসব
তৎপরতার
বযাটিংযের
ননদীগরাম
নববইযের
জযদেবপর
fin
মাযার
##িকরম
সামল
গতবার
আনতরিকভাবে
কলিনিকের
পারভিন
জডেই
সাইফললাহ
পরতিবেশীর
লিফট
বিএনপিসহ
ফেলবেন
কাশিমপর
চালকরা
ধারণের
মিলক
ফোরামে
টরানসপোরট
##ne
##ওযারী
খাটিযে
ফিরলেন
সমসযাগলো
রিসেপ
মধসদন
ঢোল
মফিজর
##তযকত
##টটায
মামলাটির
আযত
শহরটির
পযাটারন
পঞচাযেতের
আরদরতা
সরষটার
২২০
ছাতরশিবিরের
লকো
নাদিযা
##বীহ
সরবশকতি
##ative
নৈতিকতার
শোকাহত
জবি
##ডাউন
দিনরাত
view
চলি
বনটন
চারবার
হসপিটাল
মাতববর
আবরণ
ইবি
বাংলো
আসামীর
মোতাহার
জিহাদের
উসকানিমলক
লৌহজ
##ধরমের
##সঙগীত
ওআইসি
উৎখাত
বোঝাব
মরিচের
##াইজার
তোদের
শেযারদর
রকষক
সেদিনই
আমানতের
ইসমাঈল
ঘরপাক
সতযাযিত
কওমী
অযানটিঅকসিডেনট
মিক
সারদা
ফিরবে
কযামপেই
কলমবিযার
##ca
##vel
মজত
০০০০
##সেস
ভারতবরষ
মোরশে
শোনেন
ওযাহেদ
ঝম
##বরণের
##ডাবলিউ
দেখভাল
সেলিবর
##সংশ
মনদা
##সনতান
বসতির
2008
##ভিষিকত
ফরেন
নিশচিতভাবে
মহিবর
নগরবাসীর
ফযাটি
আমে
নযসত
##বযবস
শিলপকে
২৫শে
অজানতে
অলিমপিযা
##মহিলা
পটাশিযাম
খরশ
গরেপতারকত
মনোজঞ
মিরর
বখারি
জনপরতিনিধিদের
##চরিত
##শাললাহ
মাওবাদী
বরিটিশদের
style
কারাদণডের
নাডতে
nar
ধমকে
নিসা
পাশবিক
ফারকের
চরচায
খাতকে
লিখিতভাবে
অনবাদক
দমদ
##br
পারসয
পিষট
মৌলভীবাজারে
তৎপরতায
পরট
লিটনের
সহযোগীরা
গাজাসহ
জঞাত
চোরের
ওপেনিং
ছদমন
লকষযেই
চিরনতন
অগরহ
সেদেশের
হাজারে
খামারের
##উপ
inc
শবেতা
শলীলতাহ
বলতাম
বরাক
খাচছেন
পরণতা
মঠোয
সশাসনের
চোরাকার
log
##১৩
মিষটির
সননা
##হাইড
হাইডরোজেন
একখানা
সাবের
মতত
বরিস
##গণকে
ফিতা
অসটরি
গাথা
পাঠযব
তরটির
সংশলিষটতা
আসামে
সনযাপ
অবদি
আযোজকরা
সেলিমের
কোমরে
আরজি
##মিশে
##ets
খাইরল
করিসটিযানো
দিও
আশংক
ভিততিতেই
বেরিযেছে
দণডপরাপত
সরিষার
এমবাপ
উজাড
##ভোট
পাতরী
কষণের
পিবিআই
হসতকষেপের
শীতবসতর
ফটোগরাফি
##32
লকষী
মাততব
তযাগী
অবসাদ
সকালেই
পডালেখার
পরিযাঙকার
মনসিগঞজ
গামছা
বিঘনিত
জগদীশ
নসর
শনা
বিচি
রাউ
##থিও
বসবেন
কতখানি
মনজরল
বরাদারস
সবাচছনদয
সেকযলার
কষা
তিলাওযাত
answer
সিকান
চেচ
উপরই
##ush
মনীর
বঝবে
নিউর
দানব
দমকা
সতের
##খযায
জনমসথান
কইজ
লালপর
পলযা
পযসার
air
cam
ty
##ালযে
বিদযাপী
এফআই
##ভেরা
করকট
১২৩
বদধদেব
খেযা
নিরদেশিত
চাকরিজীবী
ওসমানের
অসহয
খাজনা
শাকসবজি
##জিনা
সামসল
মরতির
যাতরীকে
আনসারী
শরেনী
যোগাযোগমাধযম
সীমানতরকষী
হদার
##শযে
পানামা
দরতগতিতে
সৌনদরযয
ছোলা
##কষণাৎ
আতমনি
ডটকমের
ধরমানধ
groupsex
আনষঙগিক
জিস
##সমে
করণের
##যারস
অধযাযে
পরাণীদের
তরণীদের
কষমতাচযত
একদিনে
বেকসিম
##ংশা
##বেশী
জনসচেতনতা
ডাযমনড
আরোহণ
দোরগোডায
নিরলজজ
টরিক
বালির
সবপনকে
সইমিং
থাইলযানডে
রাণীনগর
এডওযারড
টরাকটি
def
মারফত
videos
জিডিপির
ধরষিতা
##ka
লিংকে
১২৪
জামাযাতকে
সিআইডির
লোকটার
জিতেছিল
ডানহাতি
উজজবলতা
লযাঙগ
##টিভিটি
বেধডক
কেনদরটি
তরকারি
গহিনী
##কামনা
অধযযনরত
চিলি
##উইন
##ধারীরা
ঘটান
গরভপাত
লিবারেল
পারমিট
দিতেও
জাপার
কোচবিহার
90
এবিনিউজ
চরের
##ense
চালিযেছেন
gl
ঘাসের
হচছেনা
সিপিআই
মেটানোর
সহেল
সটিকার
জঙগীবাদ
##ারাও
রেইন
##ীকা
পরতিবেশীদের
অনসনধানী
করদি
##লোন
বানায
হেভি
জমাযেত
২৭টি
কমানডের
পরাইস
সরবসমমতিকরমে
সারজার
চমেক
হলদে
অফিসারস
দাতবয
লোডশে
কঙ
পষটির
##ডাও
কমর
জেএসএস
হিনদতব
তণমলে
ফরেনসিক
৪০তম
সকরিনে
কষধারত
windows
বিততবান
ডরাফ
জাভেদ
disc
টেকটিউনস
##লিকে
দরখাসত
##বদলের
গনধে
নাজিমউদদিন
কযারে
করযা
##পরো
##ডারসন
সচেতনতামলক
রাজনীতিকে
শরীযতপরের
আলার
লিখলেন
সংগঠনগলোর
রিকো
ওসমানীনগর
তথযপরযকতির
অকসাইড
##মিনালে
একসপারট
দোতলা
মিথযার
সংকরমণের
শিষযরা
সদরপর
যাতরাবাডী
ঝাউ
##লজ
##ডেম
##ীনগরে
বনো
বরাঞচ
পনরবাসনের
ভকতের
খাগডাছডিতে
বিলমবিত
যাপনের
সবাধীনতায
ফারমা
পরকরিযাটি
বিভকতি
##ussy
অরনত
বিনিরমাণ
##লেশ
##পরবের
নিলেই
##এফআই
কষতিগরসতদের
গৌরবের
চেমবারের
##মতয
##84
##োহা
শহরগলোতে
২৬টি
##টিভাইর
press
দালালদের
৮ই
সমভাবনাও
##৬৯
যোগী
লালচে
বেডানোর
পরখর
##urn
ভাইযেরা
পাটি
রাঙগা
লেখে
১২৭
ডালে
সৌদির
মেঘলা
গণফোরামের
নিশচিনতে
হেমাযেত
ভইযার
জীববৈচিতর
##সলভ
কেজিতে
কযলার
ইযরকে
আলীকদম
জলো
চকবাজার
বিকরেতাদের
আশচরযজনক
mobile
চদে
সজান
পরর
খাও
জাকজমক
prof
নমর
পরণয
লমব
##দটো
আমারই
চিনতাধারা
##0000
##জমের
বাতেন
পারছিনা
পরযোগে
ডিসপলের
চমত
##বযানড
##bal
রোভার
উডনত
রোনালডো
কতোটা
কযাসিনো
হজে
##যাকে
সমানতর
ওপরও
অপটিম
জানাযনি
মনতরণালযকে
অতযাবশয
under
enter
ফরেনডস
##উনিসি
মোহিত
অনতরঙগ
##খালীতে
সিনা
##োধয
##লেনদ
সামাজিকভাবে
জডিসিযাল
মোডানো
চাদাবাজির
শিকষাপরতিষঠানে
এএইচএম
মশরিক
সদরঘাট
রেজিসটরি
বাগি
লালমনিরহাটের
mah
সতরমতে
অনযানযরা
ফরমযাট
সথলাভিষিকত
উবার
ভব
অরণা
##যানডেল
অবযবসথা
##ware
আপস
##বোমা
পেছানোর
আফসার
আকতারজজামান
##ober
মঞজরি
হরিপর
সংশোধনীর
আতমীযসবজন
আকরষনীয
বেবী
রোটারি
ইউনিটির
পরকলপটির
হসতকষেপে
হিড
ইনোভ
জনমায
##চযতি
ইযরকের
##৬৮
পরতিও
হাসিল
কযাম
ফরমালিন
সপি
বাকর
##োগরাফ
রেওযাজ
যোগা
এডানো
সাফলযে
নথিভকত
গণধরষণ
##নামা
##চকরের
নিভ
আইনসটাইন
হাইপার
গোলাগলির
পরতনতাততবিক
টঙগীর
##গং
রাউটার
হোসটেল
পরাধীন
ওযারেন
ভাবীর
any
আশরযে
হাসিমখে
গমবজ
দিকটা
দোহার
রেসপন
হোযাই
apps
মাইনাস
অগণ
সমভরানত
গরাজযে
শরমের
তললেন
শাবন
শীষের
সেটিংস
##হানের
##বাতি
লটিযে
##তারের
অসমের
১৫৫
##ра
বিদধ
নিরভ
পানতা
গোলাকার
টযরিসট
টিসি
##লিমি
কাড
ভাডায
ডিআর
লেজার
নিউমার
গিফট
34
ভখণড
নিরপরাধ
##ডিএস
সহনীয
মডেলিং
পরগনা
আইসলযানড
লেই
##াতিক
সহসর
মসক
লাগতো
এতোদিন
mam
##গেন
টরন
জাযেজ
ভাইজান
পতরবধ
পরিসর
সাজিদ
they
উদদীপনার
অহরহ
আমাদেরই
কনযাকে
সটিভেন
লোকসানের
ওযাসিম
তলন
তালেব
রোস
##টজ
১৩৭
সঙগীতশিলপী
লোডশেডিং
২০১৮ইং
হযরানী
কেনদযা
ঘেটে
তেতলিযা
##ites
নিকাশ
বঙকিম
গিনি
করজ
জাফল
বযাংকটি
চালাবে
wik
##90
আরোগয
মেশিনে
নিপণ
সবরণভমি
পথিমধযে
টলার
টাট
ডের
অনপাতে
ret
মলতবি
সথগিতাদেশ
##হাকে
সবের
##পেজ
বদধপরিকর
লাগলেও
বঝানো
একচেটিযা
পনরমিলনী
##লল
সিটে
##কালিন
টযরিজম
কাচামরিচ
পারাপারের
নাযেবে
পং
পরিমল
##টিংযের
আননদময
উপনযাসটি
কনটরাক
##সাহিত
চযামপিযনশিপে
##যজঞ
বাটার
আলবানী
আনান
হচছে৷
মহেশপর
কাননাকাটি
ছই
##এবং
সনধি
তারার
ফটপাতে
সবাগতিকদের
উইকেটরকষক
নযানো
দিকেও
##ঘরষিক
সলিপ
ডযানিযেল
পরগনার
মাঈন
ভারজিনি
আগরহে
আসামীরা
কাযদা
ভন
##но
তাবে
##work
##হিতার
পডেই
এসেছিলাম
জেনেও
সটরাক
win
গতকালের
পরোফাই
অপকরমের
##ঙকন
ইউএসবি
ওমরাহ
সাইকেলের
উদযোগকে
জনসংহতি
পরোগরামার
ইদরের
##ধাপ
##জনম
আনীত
বিএনপিতে
ফারনি
তরিশাল
মোশতাক
##রিং
##দরনাথ
##ডিযায
সরেশ
রাজসথানের
পোকামাক
ইভা
##গরভে
পরসারে
জীবনেও
share
ছোপ
সংসথান
##arch
আযি
চরমোন
##বাংলা২৪
ahmed
আচছাদ
গলেন
আপনে
মোহর
বাপপী
৪শ
কারত
টারমিনালে
milf
চডাই
উপসচিব
সেজনযই
তামান
##দীপত
অনতরভকতি
বরেকিং
খিলগাও
##সঙঘ
##কালাম
গিরজা
##হযাম
বরীজের
মাছে
ডিফল
দাযিতবের
সহযোগীদের
পরযোজিত
পিযংইযং
একঘেযে
ভলিউ
হবিগঞজে
অবিচল
চমতকার
##এমের
শিলপকরম
মারচেনট
নানক
৪৩তম
নবেমবর
উক
পোকার
কবিগর
নিরধারণে
যনতরণায
ধনক
হাওলাদারের
গণপরিবহন
সাংঘরষিক
##ালিটি
শযামপর
##মানি
অবলো
দীরঘতম
শোষিত
নিরধারন
শিবপর
পানে
আলাপচার
আরটিজান
ইজিবাইক
দেডশ
কেশব
রফতানির
##টানি
##রেখা
খাদযশ
পরতিবেশীরা
সদরশন
সমালোচনায
দৌডা
পযাকেজিং
ভগরভসথ
সমানতরাল
ʱʱ
ঝামেলার
মিশরণটি
বোটা
##চালকের
সকাউ
রাজবংশের
খাযরজজামান
দেখলো
আপনাদেরকে
কবতর
বিদযাসাগর
থেকেছেন
বেটে
সমসযাটি
হিটলার
##বীপের
সমদরবনদর
ফাযারফ
অযালবামের
রপকথার
লেগনা
বযাডমিন
রমর
বযাটারির
অধিকত
আদমদী
##হারড
নিরযাতি
cowgirl
ge
##বাইল
ফাটিযে
পারফেকট
এযাল
ঝোক
##mm
জানন
জাহিদর
জিএসটি
পরণোদনা
tem
##তাজা
সংযত
##alk
অযানা
টরেজার
##যট
শরকরা
##ছাতরীর
মিলল
হোছ
বাকসে
উততরবঙগের
ইনসাফ
কারিনা
দরবলতার
ছডাছডি
চটটোপাধযাযের
থেকেছে
বরমন
কেনাকাটার
জযনতী
delhi
বযথায
their
পরবেশাধিকার
নেটওযারকিং
ঢোকে
আপার
সামগরীর
মযাচটা
পেরেছিল
কষকলীগের
১৯৩৮
অটিজম
##ঝাই
##রেটের
##বিরা
দলাভাই
##মাংস
ততদিনে
কারযকরের
পাচারকারী
মাগরার
পিই
এসবই
১১১
আখেরি
অভিষিকত
চেমবারে
পচন
মারেন
কলসম
ভারতবরষে
ফলযাগ
inform
অনভতিতে
গরাফ
বাটিতে
পানড
char
গোলমরিচ
জামাকাপড
শশা
অপরটি
##াকারে
বসেছিলেন
সমমিলিতভাবে
দাফ
বাসন
দলীল
বিশেষতব
১২৯
মধযরাত
তৎকষণাৎ
শাহাবদদিন
আটো
##ti
এনএস
##idd
বিটিভি
##াদী
মযানফ
নিতযন
টিপতে
সপেনীয
##৪৫
সহবাস
সদহার
পরিবেশনের
ইননালিললাহি
like
নৈকট
একপরকার
দটোর
পরথমবারতা
ফিফটি
মফসবল
হোলডিং
তামাশা
অনীহা
ডযেল
নিরবাচক
পৌছেন
state
শাসতিমলক
ফিউচার
##72
##ون
##aking
মোডল
টিকিটের
সবীকারোকতিমলক
মোকাররম
হোমিওপযা
হেপাটাইটিস
উফ
নোক
বগি
##ae
সরজ
##লাইজড
##াকারীদের
পোলাও
most
দেখতেন
রপানতরের
পেইজে
ডেভলপ
শৈলপিক
##বনধি
##জাতিকে
হিজর
##সানা
##কষিন
দাডাই
##গানডা
মচকি
ফসফস
lang
মযেশ
##দিও
বহষ
child
সাতকষীরায
আভযন
অনবাদের
কাঠি
১৬৫
টাটা
চরমে
হোচট
লাউঞজে
চনদরা
হকিং
##iet
দিনগত
জিনদা
সখি
##জেনসি
রিপাবলিক
কাসটমাইজড
##থীর
##বিততের
বীজের
কানাডিযান
পরতিকরিযাশীল
সেরনিযা
একাউনটে
ফজর
অনচছেদে
আছে৷
আশপাশ
৩০০০
কোপ
বলিনি
ফারনান
##বিলি
বিজেপিকে
সটরযা
পরশংসার
এমস
মিকস
বাণীতে
সিংডা
হাদীছ
নিশচিনত
history
cur
dur
তাতী
গেছিল
নিজামীর
trick
ঘনিষট
##তিকাল
থাকে৷
ছেডেছেন
সযারেজ
##পরিষদের
মিলার
১৪৪০
পরিসীমা
দাসী
কবিকে
##বৈশাখ
রেহমান
পাশববরতী
মানষটিকে
মহাকর
এরকমই
##াকষি
সপরিয
করিক
হালিমা
অবাসতব
##িকন
##নারা
অববাহ
কলহ
বৈশা
আবেদনটি
চযালেঞজিং
গিযার
##কযের
##শিদ
কযালোর
লারনিং
কাপাসিযা
ছাল
নেতান
সহজাত
বিবেচনার
পতিনের
অনষটানে
##গালি
##লাতের
বেতনে
জামানত
##লিকেশন
##কানদা
আইএসআই
বরম
উদী
বেকারি
হতেও
৩৫টি
তীকষণ
ঝলমলে
সামগরিকভাবে
বরেকসিট
দবায
উপকারে
উপরেই
গোসবামী
##নদা
##ঙগলি
হাডে
চললেও
url
নরের
মকা
মিঠা
গাফফার
পরিযজনের
45
গতের
##যমান
##বিদযালযের
খেজরের
কমপানি
ext
তিরিশ
বিবির
দলটিকে
সভাপতিমণডলীর
বাঙগালি
তাআলার
ডয
##োকের
##যাপন
ফেদের
রপসা
৫০০০
সাইফদদিন
রাকিবল
নাজিব
করীতদাস
##36
রপতানী
কটনীতিকদের
মযালেরিযা
সেকশন
সংরকষণে
##াসাদের
ভবিষযদবাণী
মখেই
##ডিনেটর
সামযিকী
##পরভ
নেহাত
আসীন
ভাবছিলাম
গরনথটি
গভরনিং
চেতনাকে
শঙগ
সাদল
করমপরিকলপনা
দইযের
##হাবের
শাহাব
নিমিততে
বাহরাইন
count
সলিম
সবকীয
আপীল
সনতরাসবাদের
জাসটিন
ইরি
ভগে
##আব
বরণমালা
সানজি
আইআই
উততরসরি
আতমসমরপ
ইনজরিতে
মদযপান
right
করতারা
দিদির
পাযখানা
টেম
রকমে
##ress
বেজ
ওযাশিংটনের
তরফদার
মধযাহন
অনযন
##াকাঙ
পরণিমার
আরেকজনের
একশত
নিরসনের
কালজযী
ভযানের
পঙকজ
তারণযের
দরবযের
সকানত
ফরমের
২৮টি
মহারাষটর
রবার
##জাজ
সংবলিত
আপযাযন
গেডে
লোমশ
অগনিকানডের
cour
##com
হলদের
রপকলপ
কিযামতের
মানার
##মিজ
অসহন
##পেকষা
মোকদদ
চদতে
vis
দলি
বযাপি
##ork
মাঝপথে
ডাযে
বঝার
সটোক
সমভবনা
অংশগরহণকারীদের
কাউসার
গণমানষের
বযারি
##ংকায
পাযেল
উলঙগ
চাইলাম
শিকষাবযবসথা
সাইকেলে
মানবাধিকারের
গদামে
মভির
##সতরের
আশফাক
পরসভার
পোদের
সালাতের
বিছিযে
সবাকষরের
ইনোভেশন
লকা
উমমাহ
থিযেটারে
লেবাননের
পথচারীদের
মদযপ
ডযাল
##মাখা
১১৩
তাপমাতরায
মোরেল
বিসততি
পরীকষামলকভাবে
##ফরাস
##ali
গহনা
সিকরেট
চারিতরিক
ঠক
লিমন
##যেনসের
সটলে
অনতরায
আলেকস
জনবহল
##টাফ
সথিতি
পদটি
বহিরঙগন
আরটিসট
বৈশাখে
##ting
একটিভ
বাইশ
পাউর
অসভয
জেএসডি
কলাক
অধিভকত
লৌহ
কষটিযায
ফযানট
##ালম
##দারন
লকষযমাতরার
sexy
october
নযাটো
কারচপি
nor
পরযটকের
মোহনা
নিরদেশের
পরষেরা
stat
বেনি
##বিযাললাহ
চেষটাও
ফাইলের
চিকনগ
data
করেসপন
পরতিবারই
শেষবারের
অসামাজিক
ইনভেসটি
কোলক
ইনশাললাহ
##গাতি
কামান
দামডহ
চানস
সংসথাগলোর
ভযসী
বিবিএস
##সস
ভাটি
অনসবী
পরভাত
সাকষাতকার
মমবইযের
নলকপ
ঐকম
যি
##িকষা
ঘটনাগলো
##ীতলা
মিলটন
রাষটরকে
আটটার
##কোরস
##ঠের
করসে
##রাং
##illa
মিটারের
৫৫০
ইলম
অকালে
পরতিমাসে
সংবাদটি
ওযারকিং
চরফ
অহং
##নযন
শরতি
পরেজেনট
মাহাম
দীরঘকাল
ততীযবারের
ধবংসসত
জাগরণ
লাইলাতল
##সালের
জনকের
##নাশের
সাইমন
জেতেন
উদভিদের
সিরাজদিখান
ভৌগলিক
সিকি
সেফটি
##োটিন
here
হাশিম
একসকলসিভ
কাটবে
গোলাবার
##শরেণী
উততেজনায
শিডিউল
পরিকাঠ
শকতিমান
সবিচার
পরভাবের
আকরষণের
also
রইলাম
গণিতের
আরতনাদ
##কবি
##ানীতে
কাবাব
##ষটের
বরাদদকত
ভৌত
ঘোরে
জোনাল
নেহা
##াহানি
ভেজ
বোম
মাপকাঠি
গোবর
নরন
##সিকে
বনধবানধব
মনদিরটি
কলাবটি
একানতই
সযট
মেথড
বাযোমেটরিক
নিউট
দরগার
গণড
টেলিটক
সশঙখল
code
##نا
শিপিং
এমএম
সটোন
থাকবেই
বরষাকালে
##জোটের
৮৮০
ধরষন
মৌজার
গণাবলী
বেকসিমকো
বযভি
মনোযারা
ওযাশ
displaystyle
fre
নঈ
##িযাকে
চাইলড
বাসতবতায
টকশো
লবণাকত
##ible
যৌকতিকতা
##৬৭
##লপতর
কালবৈশাখ
লিখবেন
অভিভাবকের
কাতালান
পরসপরকে
ফারহান
ফজিল
সরফর
মাননানের
সমনবযের
নিরযাতনে
লঞচের
health
##নস
##শহর
অবধারিত
দরঘটনাটি
সযামযেল
ইনডাসটরিতে
সনিগধ
##হহহহ
ইজজত
মাজারে
তিশা
রাননাঘরে
ভযানে
##শরেণীর
বৈষণব
করসফাযার
##কারজনক
বিষাদ
##ছাড
কলাশ
শনিবারের
গোলটেবিল
২৪০
বেলাযেত
বিসফোরিত
ছোটা
ইথিও
##মনদ
চারজার
ঠিকভাবে
১৫৮
দরাঘ
ওযাসার
হাতী
ফিলি
সীমানায
দীনেশ
গরীষমের
70
use
আচল
চাষীরা
ইংরেজদের
ধৈরযয
ছতরাক
bet
##টকা
যেগলোর
গেজে
তিনেক
রানওযে
তাজমহল
বযাকগরাউনড
##যযাল
অযালেকস
ফরেসট
লিপসটিক
বিভী
মলনীতি
বিলিযে
অনপযোগী
অযানটিবাযোটিক
lt
পরভর
বযাটসমযানের
জনপরতিনিধ
সামঞজসযপরণ
##mp
##ভাঙা
##োদযের
পাণডলিপি
ভেদাভেদ
বনদকযদধের
নিমেষ
##মাটি
জাগা
গারো
বযেট
##ভানডার
পডাশোনায
##মভব
##ium
##ষটরি
মখোপাধযাযের
দৌরা
কারযদিবসের
ভনড
আজান
গোমস
বহমাতরিক
অপরিকলপিত
জিতলে
বিশলেষণের
শাহরখের
পরফলল
যেভাবেই
কমপন
##কলন
##মাসটার
ছটফট
আওযাল
গলোব
##ids
জাদকর
একদলীয
books
বকষর
##চকতি
##থিক
নিযাজ
ফেলেছিলেন
২৩০
মোলযা
শটিংযে
শরাবনতী
অনসবীকারয
##ভিটা
ভারতী
##সেপট
পরথমটি
chr
বরষীযান
বাধাক
কযাডারের
ইউকরেন
দলগলোকে
মকতমনা
সিলেবাস
desh
বযপার
গফরগাও
গণপরিবহ
মেডেল
বলিতে
এলপি
আদরশিক
নেটওযারকে
পারফরমযানসের
দবাইযে
তানড
##wn
অবিসম
চৌগাছা
হালদা
বিবিসিকে
বাকডা
ভেবেছিল
সচিতরা
পৈতক
মযেশচার
##নদরি
হিনদধ
অকেজো
ভায
##বনা
##চকা
##বিহ
খোডা
কানায
২রা
বিমস
শরীদেবীর
##ages
কযটা
ডিভিশনের
##ঝিলে
রতনা
##লাওযার
##বরিজ
আইলযানড
১৯২১
##টকও
জিযাউদদিন
অরিজিন
##ভালে
সামপাও
অবতরণের
##টটিকে
##ামাটা
বরষণে
##পদধ
কোনভাবে
আশেক
##নদাজ
##িরাও
সরবসা
হারাচছে
ধানমনডিতে
উততরাধিকারী
নামানসারে
নিরপায
জোবাযের
উচতে
পরকতিতে
দারিদরযের
হেলিকপটারে
ভেটেরিনারি
call
##বাজী
হাসযর
মিলান
ইমামতি
টিউশন
##মিশরণ
সপীড
রচযিতা
আদার
##বারগে
সিডির
##পাডে
সসথয
হিমালযের
dom
হেরা
মহিমা
২১১
একাতমতা
হনীলা
রমরমা
ঢালী
তাজিক
কাধের
পরাশকতি
আবছার
১৫৯
হাইক
পলাটন
শভকামনা
##িনিরভর
থাবা
মঙগলের
এহসানল
পজির
যোন
অবিভকত
il
বিমা
অফর
বিবরতনের
আগৈলঝাডা
কারলোস
অষটা
##িযাছে
অবযব
বাইকের
খাতিরে
পরতিবেদকঃ
##সাহিতয
educ
##ро
##ামতে
সেবনের
##াপদ
গণআ
অরথনীতিকে
ডেড
শিকারে
জেনেটিক
খিচডি
সানরাইজারস
ডক
পসত
লজজিত
##এলের
এরদোযান
পরসারের
সহজভাবে
রাখাইনের
লিগায
image
চিতা
##লোকে
কিছতে
খেলোযার
কবিরাজ
উদবোধনকালে
সাদাসিধা
টরনটো
##গাই
শেকস
আবেদনকারী
করমসচীতে
উভযপকষের
বউকে
মশফিকের
আইওএস
মধযযগীয
লাইসেনসের
##ric
##কষেতরের
upd
কালেকশন
##we
##ফিযার
##বাবধান
চরিত
আবহমান
ছাপানো
উদবেগজনক
ডিসটরিবিউশন
fol
আরথার
গণভো
পদাতিক
ধরমগর
ধানমণ
বাঘাই
আলহামদল
মযানফযাকচার
##সতে
##জবল
##রাতের
পোলযানড
চৈতনয
অনতরবরতীকালীন
##িকারা
কোলাহ
সবটাই
ইনডা
এলোপাতা
পরতিহিংসা
তাডাহডো
এলিজাবেথ
চাহিদ
তরাগ
##মিযার
কারণও
##ফেট
চাষীদের
মেরদণড
মহাসাগরের
গরতের
বিরাম
পাইকারী
দাসতব
লকষমীপরে
##শনা
ছাযাপ
##বহর
##তরাতে
পরবরতিত
ফাতিমা
##জাকে
একনিষঠ
পরিদ
##ওযাতের
শতরতার
bus
বেকে
বথে
##মোর
মালাই
##াকানদা
৩রা
শিখন
মরগীর
নেপালি
বিচকষণ
সাশরয
নিরলসভাবে
##পজা
পরসবের
##ভারের
সংগঠনে
শবন
##দারা
পডতেই
ফিরছে
ওযাইল
##োপীয
মনতরীরা
বাকবিত
শানতন
বরের
চমপা
মাজে
গেমটি
পাঠককে
apr
##শৈলী
অসনতষট
সহসা
সোশাল
##বোধয
১৪৭
লিখতেন
পৰ
##জিক
কমপা
বোরকা
ঠাকরগাওযের
পাইকগাছা
##ানধ
ঘটক
চিতরকরম
আকবার
sept
চিলডর
লারমা
মানদণড
##যনতরিত
##ভারতী
১২ই
অপরাধমলক
ভমধয
মিলেমিশে
জেলহাজ
তহবিলে
ইংলযানডকে
চাপাইনবাবগঞজে
div
গহি
##ণযে
##ole
বরই
##als
মযানেজম
হদরোগের
শঙকিত
হেলে
##পিণড
##ফোরস
ঈশ
কিশ
সরবাধনিক
আলেমদের
উদযেগে
উডিষ
ever
জই
সধ
অফি
জনযেও
নিলয
পরসেসিং
##আরডি
ভাসছে
সাকষাতে
বযানারজি
ঝিনাইগাতী
তলো
গইমারা
বহষপতিবার
##au
সোডিযাম
নিমনতরণ
##বাডীযা
কঙকাল
ফযাল
ভলেও
আদিল
পাঠালেন
১৪তম
গরেফতারে
ঘটনাই
অগনিকাণডে
পতিতা
উনমাদনা
চের
রাখছি
মলিন
ওযাকি
শাসকের
শাহপরীর
হালিশ
##িকয
জাতীযকরণের
সংখযাটি
টেলিস
সিপাহী
বাযেজিদ
just
গেলা
ঘমে
উততযকত
রকষী
১৯৪১
অঘটন
##ঈনদ
লাফা
টাকাটা
৩০শে
শীতার
তেজপাতা
বহিষকত
##ডীর
পৌরাণ
শীতলকষ
নবানন
##ফাযার
নেবো
সহোদর
শাডী
জিননা
মহাকাবয
ধেযে
আটটা
এডিট
ইযেমেনে
বাংলানিউজকে
শাহনাজ
সালো
পারলার
সইতে
বযাটসমযানরা
খোজাখজি
এমএল
রাইজিং
নাচতে
নিরবচছিনন
সবরগীয
limited
ফযানের
সংমিশরণ
নিরোধ
করমকষম
কষেতের
ফিরোজা
পরবাভাসে
পরিসংখযানে
সরযোদয
sn
মষটি
তাযালার
উঠলেও
মনতরীকে
৯৯৯
লোকেশন
ভিডের
দরশনে
##লিউশন
##ইরা
কষানত
রহিত
দাল
##গব
শরবত
সিও
মিশা
ফাহমি
কোমরের
মেগাপিকসেলের
অনতরালে
নম
বাংলাদেশির
রেবে
বিসিক
সযাবিন
ঝডি
দরঘটন
পলানট
সরবসম
বরেসট
যাদবপর
বারোটা
দেখতেই
তরান
সংবাদমাধযমকে
##িকেও
উদভাস
##বাহি
বিসমযের
হরদের
পাটকেল
জীবনযাপনের
জেরজালেম
doggy
নিকে
কারবো
মানচিতরে
রাখব
জীবের
উভযে
##টেকশন
ছৈযদ
বসি
১৫৪
সংখযাটা
আছো
আশংকাজনক
অনান
শরীদেবী
বরণনাকারী
ওযাশিংটনে
বকষের
live
উটের
##নীতে
পাঠাও
now
রবেলের
আলজের
##ৎসনা
##urb
হাবিবল
গোসলের
আজমির
লিখেছিলাম
তনতর
বরেইন
বযানডউই
সৈনিকদের
অবিসমরণীয
রাখলেও
অপরণ
নিষকাশন
আউটপট
শামীমা
দীপিকার
তেরো
মদধে
##aut
পারছিল
ফাডি
নিরীকষিত
##োলন
বাঙালীর
আনটি
সথায
রৌপয
know
##ওযাদ
বিলবোরড
যানবাহনে
এসিআই
ইহদিদের
পৌরাণিক
খসে
##ঢাকা
##াতাল
পাপন
rem
পজিশন
গজরাট
ধাচের
উততরবঙগ
দীঘিনা
##pos
রসনের
চলাচলকারী
সেমিনারের
মণির
নিষঠার
##পরাপতরা
কাকি
বথা
বিশবচ
উপজেলাধীন
পিছে
বিরোধীতা
start
দিস
বেষট
##angbad
সটেজ
পাথরঘাটা
##কাজে
##লাপর
মততিকা
পরধানদের
ঘটলেও
সাকো
জরডান
বেইলি
polit
মোসলেম
চালিকা
পারিপার
পরতিষঠাবারষিক
পরসতাবটি
উপভোগয
##যগ
##ফেন
পরথার
আবহাওযায
ভিকটি
##ser
##ঙগনের
##হীদ
জেতে
খললেন
আরজেনটিনাকে
টাইমসের
উষণতা
উদদীনের
মভমেনট
##ভিশন
বহরে
বারমা
third
দৌলতদিযা
আইসলযানডের
অযালকোহল
নসি
জনপদে
উদদেশযপরণোদিত
কানেকশন
মছা
##ঘের
##টেমপ
লাঞছ
সমাজবিজঞান
পজিশনে
বরাসেল
তছন
ফিরলে
ভাবিনি
টাঙ
বকশ
পাতাল
বঙগোপসাগরের
করেসপনডেনট
##াজজ
সাদে
ধরবেন
শাহনে
করবানি
##পরযাযে
##যানসে
##এসএফ
লোকটির
পকষই
##পালটি
গহহীন
সাঈদী
এডিপি
লিলি
##াননদের
ফলমল
পোডানো
মানবজমিন
##be
##োসটে
কলহের
আটকানো
lead
পরতিনিযতই
ইটভাটা
##25
নিরৎস
রাইডারস
সিলক
অপারেটরদের
##ডিজ
মনমোহন
সদী
##েনদরিক
সটেটের
১৯৩৬
উমমতের
বেচাকেনা
এলোপাতাডি
power
মলম
উৎপল
বিশেষজঞের
বিবেকাননদ
ইশারায
বনজ
খেলেই
বযসততম
লাইভে
পচাত
##বিনের
##ওযালার
মোংলা
বারসার
progr
##লোল
##ঞজা
কারণটা
টিফিন
জাবালে
পোলা
রামপর
খনী
বপন
বাইসাইকেল
গলপকার
ইযাসির
এনআরসি
সনদরবনে
শরীলঙকায
১৯৩৯
শিমলিযা
ডাকস
পরিণাম
সপরীম
বানিযেছে
১৯২৯
জাকারবারগ
রণবীরের
যথাসমভব
রঃ
##ঘোনা
##ঊদ
একটিও
পরসরা
পরতিবেদককে
খালার
লাভে
হামজা
##িলিযন
তাজউদদিন
offers
মরশিদাবাদ
অযাকাডেমি
##ng
##তরীন
গেটস
কালচে
অবসথাও
colle
##ফাকে
##াকাদ
মোকতা
##পেটা
উততরঃ
শনলেই
শেযারে
ফেনসিডিলসহ
সফিকল
সবটক
সহচর
রাখলাম
ধরমগরনথ
যকতরাষটরকে
জিতবে
খোদাই
দেবর
কাদে
##ডিপির
রাজিযা
ধরছে
শালা
উৎসক
দরযোগে
মনোভাবের
##াতীত
আমাকেও
টরাযাল
পরতিমরতি
মনসতা
পলিশসহ
বিডম
##ope
আনিসজজামান
বিএসএফের
আপর
##74
মিশি
শরীফল
##বততিক
দীকষা
অলং
ভযাবহতা
কাইফ
বরবরোচিত
এভিযে
কাশে
জনমগত
##সমপর
জেনারেলের
মদীনা
##lim
সাইটটি
সনদবীপ
এমপিওভকতির
রীতিনী
রাকষ
জনসভার
অবজঞা
পিপাস
পোলিং
star
উততরাঞচলে
ছতরভঙগ
উরগযের
তাফসীর
গোপ
জাপানী
অযানিমেশন
ছলে
পরবতের
কযাডারে
মহারাষটরের
অসহনীয
অপের
টং
যবসম
##মেশন
##ices
নোটিস
ঘাটিতে
চাষিদের
ডিফলট
tips
জোস
##সমপাদ
##hat
করাটাই
হাবিল
দেওযালে
করিডোর
সাংবাদিকতায
পডাতে
পযানে
নকলা
##over
রকিবল
টমাস
ভরিযে
বিশবাসে
রামপরা
গরিজ
তেই
##সকার
##ঢালা
বিশববাসীর
হনমান
পরিবেশবানধব
হদিস
ফলযাটের
বিএমএ
ছিটমহল
##35
১৭ই
পরকরিযাকরণ
বিধিনি
নথিপতর
pla
লেল
শশর
##গডির
বদধিজী
মিলাদননবী
font
opt
রামগড
অশানত
বজরপাতের
সকোযাডে
ওঠানামা
জাবি
উদধারকারী
পণযবাহী
ভাঙচরের
জঙগির
পালটাপালটি
আলবদর
শসা
তারিকল
কিশোরকে
মিশকাত
গেইম
গভরণ
জেলহাজতে
অযো
হামিদর
উততরায
সবলপোননত
leave
অনপরবেশের
##কডা
বিরদধেই
পরযোজনার
ইতিহাসকে
ডোমার
কামরন
খিদে
আতিকল
এজাহারে
les
বিশবন
দরতবের
বিকিনি
##ঘাটি
আবাসসথল
রোজাদার
##করিপট
চনন
সালিশ
##যেও
##ানোযার
কতবার
নাজিমদদিন
অপমানিত
mot
##76
পরিকর
কমেনি
ডাযনাম
বিজঞপতির
অপরাধীর
পরিপকব
ভষণ
##ডানের
কেমবরিজ
##বনধনের
নিযোগপরাপত
মাওলা
আজিজের
সষটিকরতার
গলাচিপা
বীরা
##75
বোযা
গলিবরষণ
যকতিসঙগত
পরিদরশনকালে
ডাযাবেটিসের
বিকিরণ
জলোচছ
কারাবনদী
মনোনিত
সবাভাবিকের
আউলিযা
মেলান
শলোগানকে
বযাডমিনটন
হেনে
##ging
##োনে
মাতম
বিনীত
ভোজন
নিউমো
রেসিড
নাগাল
অযালারজি
তফা
মসনা
ডাকাতের
##ames
chand
খডগ
সননযাসী
দস
নিকষ
##খনদ
আশলিযার
##outh
নদীটি
সিমেনটের
সকলারশিপ
কডাক
ধবন
##পাথ
শৈশবের
ডিএনসিসি
ইলেভেন
জতার
কীবোরড
মিনিবাস
সনতানেরা
##ister
১৯৩৭
লৌহজং
brow
করমজীবী
অসহি
কনডম
জারনালে
ঘাটাইল
মশাই
উরদধ
বযাকটেরিযার
ফিকশন
শরদধ
কাউনটারে
সেরেনা
মেমবারের
অতিকর
ভস
কোণঠ
বহিসকার
খেলন
নীতিমালায
##elf
এমবিএ
বশচিক
নৈকটয
##হোর
##শরের
পেজের
মহাপ
আমিষ
নেমেছিল
কোরবানীর
পদারপণ
গজারিযা
অাম
আপলত
লেহন
বেকায
লিবিযার
সদীপ
১২১
এতদ
মসললিরা
ja
মেদিনী
মানদ
##গাথা
মকতিবাহিনীর
সবাসথযসমমত
অধিকারিনী
এলিট
##يه
শাহে
মরমা
১৫৭
মাংসপেশ
শিরোপার
ভিভি
বাডান
কষমতাকে
##ote
মঞচসথ
পরশংসায
পরতিহিংসার
গলকোজ
অসতরশসতর
##জরে
বাজনা
আইএ
বিপরী
পজাম
অসবসতিকর
##শাযারের
##দিঘ
১৪৩
শরেণিক
পণরায
তাডাশ
সংয
১৬৭
নগরবাসী
জাতিসত
ফোলা
দীকষিত
সাহসিকতার
পিরিযড
বলটথ
39
লাকী
কারডে
রিটের
গাঙগল
গাযেব
নশংসভাবে
##তরির
দেবহা
মনগডা
ছবিই
##তযয
নিঃসরণ
বদনাম
##বাসনে
ভাববেন
##lease
##দাতাদের
দবিতীযারধের
তছনছ
##৬৪
রাজনাথ
##সিও
সটেপ
ইউনসের
হেডকোযার
উপনিরবাচনে
est
adv
পৌছাবে
##খণডের
অনেকাংশ
mas
রিনা
সদান
ঢাকাটাইমস
আহমদকে
ডাইনিং
হযাকাররা
মযারাডোনা
রজার
সমহে
পডতো
দেনা
কষতিপরণের
##তিকালে
বিএসইসির
গোযাইনঘাট
অফরনত
ঋষ
করাউন
পরযোগকারী
সামযবাদী
দষটিভঙগির
কোণঠাসা
na
এমদাদ
##লপে
মাসউদ
মযাট
পডছিল
ডিমলা
##৮৮
##من
আইভি
খাটের
সালেও
##দারণ
##াপততা
##রথন
নওশা
মঞজরী
টেলিফিলম
গাভী
পিংক
##ষেকের
ওভারেই
ঠেকানোর
উজবেক
নযাক
##ধম
##উডের
একরাম
পরবাল
শোলাক
##টিকাল
##বদী
##োযাই
ঘাটতির
এগরো
##যাড
দলও
অংশবিশেষ
১৩২
আবেদনকারীর
মেরেছে
আবেগে
তামিলনাড
##পণে
অপরতির
##টোলা
##গলিও
এইচএম
বাপপি
পরতিবছরই
##ডামারা
সিকানদার
বিলক
সমাহার
পরিমিত
সমযমত
##ভারে
##হীনভাবে
বরিগেড
দোযারা
রাফাযেল
##পাখি
রিজি
কলেজটি
টারম
৩২০
রাজাকারদের
পরতিনিধিদলের
রোগটি
সীতার
##els
অফারটি
হাথরসিং
ফোস
সগম
৬ই
ভাদর
শোবিজ
সেলিবরে
রেলসটেশন
science
##লেটর
সামার
##কমকত
##বোধক
পরিমাণমতো
সীমানার
পরতযযন
সেচছাসেবক
পারটিকে
ইসযর
তোড
ইউনিফরম
এনআরবি
বরণনার
পরদকষিন
জাকাত
বানিযেছেন
ডিসিপল
আশরিত
##লাইজেশন
september
তদান
##তাত
জনজীবন
##বাসথযের
মহোদযের
পরকাশনার
বৈপল
অপরকাশ
মালটা
জীবনমান
গোলমাল
মিসাইল
ভেলা
কিনলে
কলামিসট
অগনিকানডে
পেনড
রিলাযেনস
জীবননগর
পরমানিত
55
ভারে
গণভবন
দাডিযেছিল
hub
নবি
##বসথান
উততরসর
ফিগার
ভরতিচছ
শিউলি
নাতনি
dire
ভাঙে
কমলেও
কালকে
যাচছিলো
৬০টি
সবেচছাসেবকলীগের
##ডবি
সমতিতে
পিউ
মণাল
অকারণে
##বৎ
পরবদ
সপটে
ডাবলিউ
সৌভাগ
কতই
contain
বারনিকাট
a7
সোডা
সমপাদনের
চিহ
##এলসি
মাশরম
ফাইলটি
ইউএসএ
পেইড
##সেই
##টরোজেন
শোতে
এডিবি
খরিসটপরব
ওযারকশপ
ঐসব
সানির
তৈল
##রিযামে
উদাহরন
ডিভিডি
পীডা
পৈতরিক
সেশনের
##iend
##াযণের
রাজেশ
চোটের
লালিত
বরাহমণবাডিযায
রাজীবের
##ient
##ীমের
##বরপ
খাটে
নযটার
কাজেও
সপতাহবযাপী
জেলখানায
সোনম
পযাটেল
আণ
ইনা
দটিতে
##ঝির
জনকলযাণ
নিরভরতা
বকশী
সানজিদা
মালের
বাডিটা
##বালার
এনডিটিভি
সেরনিযাবাত
লেনে
##ren
সপেনে
শেযারবারতা
অযাডভেঞচার
মোরা
সাবসকরাই
##শপর
সহজতর
সিলিং
##সামাজিক
##চিল
##ito
বকতবযকে
##পোকত
মোরচা
তাহেরের
ঠেকানো
magaz
রাদ
মনছর
##iness
মাইযা
ওঠেছে
##চালনা
পরিশরমী
যদধবিমান
বৈপলবিক
500
পাতরের
##তনতরী
জিদান
ছেলেটার
শোচনীয
নিউটন
খেলেও
সাকষীর
এসএমই
আওতাভকত
গোছানো
টযাল
##বাদাম
লেপ
পরারথিতা
নিঃশেষ
অবযহত
সমাধিতে
পরতিমনতরীর
মাহতাব
নাইম
উপদরব
vol
##দতের
সারিযা
চৌমহ
দীরঘশবাস
টাঙগাইলে
রাববানী
শবনম
পরির
নিরমলে
শাবান
খেলাটা
নডাইলে
নিকোলাস
নেছা
##যনতরণ
রাজউক
সটযার
ভোটকেনদরে
মোকাবেলার
spec
অযামনেস
ভিকষক
উললাসে
নেহর
তথযচিতর
দাযিতবও
পরীকষিত
শককর
ফরযাঞচাইজি
অসঙগতি
মথ
##পাখ
পদকষেপে
খশিতে
অতীব
রিযাদে
ঢেউযের
টাটকা
মরমাহত
##ни
সনানে
সমাজকরমী
বযসকদের
কবিরা
টেরোর
এগোচছে
নাডাচাডা
টলারেনস
##do
বাচে
কারস
কষকেরা
গণপিট
কিসতিতে
তিনটায
অলিমপিকের
ফলোরিডার
মীম
পরষা
কারনি
বরেনদর
মাহাত
sim
ডালের
রাগের
##াপতির
##মিউন
কেভিন
গণক
মেঘালয
জবালানির
বিপিএলে
46
হেরি
পালট
সহযোগি
##বাগি
তালাকের
ডযচে
73
pa
ঝিকর
পমপ
##িনকে
ছিলে
একেকটা
আলহামদলিললাহ
##শিপের
বিপথ
দবিতীযটি
##ship
ঘোরাফেরা
নিশচপ
ভবান
##ীস
বযাযামের
রোমের
##সাধ
বাসতবের
চাকায
অচলা
বততির
পারসন
পরতিকরিযার
ঘাডের
আচরন
লত
কষোভে
কমডা
সতরগলো
মঠবাডিযা
১২৬
সমসযাও
উদযাপনে
হেলপফল
বিধিনিষেধ
খোস
পডিযা
##রিপ
থাকাই
দিনকষণ
রাসলে
পথসভায
বাযোস
সাদামাটা
জবাবদিহি
মজলিস
পললীতে
সিপিএমের
আতমসমরপণের
##জযনত
##বারথে
খাচা
পডলেই
উইক
সমপরকটা
কানেকট
রাউজানের
জনমাষটমী
অমা
আডি
বসের
##যানডিং
অফিসারকে
দৈনিকে
কনসযলেট
মরককো
বিবাদী
দেশটা
তাহমিনা
ফিরেই
চৌধরীসহ
##হেড
after
##ইই
##খাদ
উপযোগ
রিজিও
ভটটাচারযয
product
গণঅ
পরবশ
ফাসিতে
শকরিযা
কসতি
ডিপারটমেনটের
দরাঘিমা
38
hol
অনিন
গণডি
মরগ
গতিবিধি
শাওমি
ডেনমারকের
##ет
এরিক
হলফ
চালিযেছিল
অধিনাযকতব
গরামাঞচলে
##ংলগন
মাসাকাদ
নযাযের
নেইমারকে
সহকরমীরা
জনসমকষে
ইউনিসেফ
চালাই
১৪৮
উচিযে
জভেনটাস
august
বিশবচযামপিযন
64
other
##সিসির
##را
কলমের
বৈদিক
অটোমো
নোটিশে
মহাবিশব
শারিরীক
অদয
থিং
নিও
আপামর
উঠেই
সবরাষটরমনতরীর
সীল
##কানত
রাজর
##িযামের
##বযবসথায
রামগঞজ
বিলপতির
সাতদিন
বিকলপধারার
করিযেটিভ
তততবাবধান
টমটম
রযাঙকিংযে
ইজারাদার
ce
উপমা
ঢকছে
ip
পরতিবারের
##সাধন
অপরাধীরা
নিশবাস
খারাপের
১৯৪৪
ফিনযানস
অঙগসংগঠনের
জোযা
নি¤œ
যেগলি
##োসিন
মারকার
##কোনা
ছাডিযেছে
বিবরণে
জিমবাবযেকে
আঙগিকে
আধনিকাযন
নেতবনদকে
দশচিনতায
ফলোরিডা
তমাল
লেনের
পাভেল
দেখিযা
পলিশী
১০ই
অপো
ছোযায
জেদদা
পযারেড
আলগা
করেছে৷
হইতেছে
কীরতন
মলযসফীতি
কাজির
আরোও
সততরের
বনদকের
ফকস
মেনড
##তোনিও
চৌধরি
##মলযে
আযোজকদের
বাযোপ
অলংকার
টরাইবন
আগাছা
pu
হাঙগের
জনমভমি
উমমত
শোভাযাতরায
2006
অননযা
ঊনবিংশ
টলিউ
পযর
##জাস
##rib
##মদদিন
##erjee
ওযালা
নদীটির
সকারট
##টিভাইরাস
সরফরাজ
যকষ
হাযার
##গডার
##ер
##াকষী
নতনতব
সবতবাধিকারী
তরে
##ভিসি
বিঘ
সটারলিং
টরফিতে
শমসের
ইশতেহার
এমসিকিউ
২০তম
সনধায
সখকর
ধনেপাতা
অনাসথা
##ধাম
অসটরিযা
which
হেনসথা
গোলাবারদ
alo
##পঞজি
এইরপ
শেষকত
নাজে
chann
পিযাজ
সানিযা
ওঠায
email
ওডিআই
রাজপরিবারের
বারড
তথযই
বাকশাল
পেশাদারী
এরপরেই
আদমশমারি
##বেষটিত
পাচবার
ধবংসাতমক
##াবলী
##ঘরিযা
নেছার
দিনশেষে
##চেতনা
##সটাইনের
শকরবারের
এডানোর
তিববত
##াইশ
মালবাহী
magazine
ঘনী
##চৈ
##পরযোজনীয
সরাইযা
পডছি
##গাছায
বেচারা
লগে
রহমাত
জাকের
বিদবেষী
সিজি
অবজেকট
১১ই
জামাতা
বযারাক
করবানির
সিদধিরগঞজ
উদবতত
রেফরি
ফরিকো
আলিঙগন
মওক
পদমাসে
আগরাবাদ
সেটের
আরতি
আইফোনের
সদসযগণ
করিলে
পলযানট
##মণডলে
সারভিসে
##ডিসির
ছাউনি
##ডারিং
বারল
##থিলা
শীরষসথান
কককট
по
##সলি
তারতময
মহরম
চিশ
school
লটারি
##খরি
##৪৭
সরগরম
টাওযারে
cut
ওক
খযের
বিত
মসার
##চকরে
ফোরকান
মৌমাছি
শামসননাহার
থামে
##গরাফি
##বরতি
নামানোর
লেবেল
বাধায
ent
ডরেজার
dhaka
বিষযাদি
বিরদধ
ডিএম
মহাসাগর
মডারন
glo
##খাট
পরাদর
##বযসক
পরারথনার
কষমতাসমপনন
কালামের
ডিভাইসটি
চেলসি
নিরামি
মনিরা
হাযে
যোগাড
লিখলে
২৮০
see
মাসটারের
সলিমললাহ
famil
##নাধীন
২০২২
চিতরের
নাজিল
এফডিসি
বেগনি
ডাকার
শইযে
নিশচিতকরণ
##িসটদের
শতশত
ছোটবেলার
অতটা
পাঠিযেছিলেন
লঘচাপ
ভাসা
##ny
গরিল
অভিষেকের
হোসেইন
কোটিপতি
অংকে
পারমান
মেহন
লিউ
মোতাযেনের
পলেযিং
অকষা
নিকার
মাগীর
সহমরম
পথসভা
তারেকের
##arkh
ফেঞচগঞজ
অগরহাযণ
চেরা
##গেল
চৌহ
নালিতাবাডী
অপরতিরোধয
পিডিতে
সংরকষন
জবালাও
নিরমাতাদের
পরিমাণের
open
উচছেদের
পৌষ
গরেগরীয
সবীকতিসবরপ
গরভধারণ
যনতরণার
লিভারের
সলোগানকে
চডি
নবদ
##দনের
আদরে
শরীরাম
জাতীযতাবাদের
color
মরশিদা
লযাঙগযেজ
war
লঞচে
বিপাশা
মোসা
শরমিকলীগের
রামচনদর
অশানতির
মেঘে
যাচাইযের
ডেনিম
##ux
পরসতি
তলসী
##ized
১৯৩২
কাওছার
এমএনএ
বেটা
মাঝখান
হাতডি
মহিবল
সথাপনার
আওর
উললাহর
পাঠাবে
তথযানযাযী
মহাদেশ
কষমতাবান
অসসথয
হেডফোন
শেকড
person
har
এধরণের
থমাস
নামবেন
বাকযের
এফএম
সমঝোতায
রাঙগনিযা
নওযাব
মনিকা
উরধ
কারিগরী
দততক
বলবৎ
কনফিগার
48
অপবয
অবাঞছিত
নিবনধটি
ইশতিযাক
##মগধকর
bel
test
শাযিত
হিত
##ধরে
##led
##রাইভ
নিব
আরমির
##যমতে
পশচিমাঞচলীয
গেইনারের
##বষটি
##পরসত
মহিউদদীন
ছটছে
পদোননতির
পিটিশন
হযামিল
অসহিষণ
##াতাম
পরবেশে
site
আভা
এযান
মহায
মারছে
বযাংকক
রপকার
আনাচে
গোযেনদাদের
development
ওভেন
আগমনে
##ালিযার
ওযাইন
রকতন
সমমানী
ঝলছে
শোনান
এতিমখানা
উইমেনস
ভলিউম
বীরাঙগ
অনিনদয
সবায
শিকষামন
অযালা
মাছরা
এনেছি
ইলেকশন
##মিনিটে
তাবলিগ
ফিকস
##গরসর
করমজীবনে
হাসনা
অবকষয
সৌমিতর
২১০
arr
নোটিফিকেশন
বেষটিত
du
ককে
সপা
ফেললো
তাকওযা
ফযেল
নিমনা
পরিযন
গলিসহ
ly
গডের
সরমার
বিরোধিতার
কাপতে
অঙগনের
পেরেরা
জাহাজটি
##পলেস
কালাই
জমতে
নকআউট
রিকশায
##ii
##জলাই
##ঠো
অথরিটি
পাহাডতলী
সরমপকে
banerjee
vir
##গপতের
ডাকেন
যাওযাটা
কষিতে
বাগদা
conf
সিআইপি
১৯২৬
রেসটরেনটের
গরযাজযেট
ছবিসহ
সবারথেই
অগণতানতরিক
978
বানচাল
মহেশখালীর
টরিপ
ডরাইভারের
তেহরান
ছবিকে
ভেলে
পরভত
জননির
বদধিবততিক
২১তম
ভিননমত
মেযাদো
টানটান
সরবাপেকষা
উপাসনা
##তরন
রাষট
ভাঙনে
select
পাপডি
পারসোনাল
cop
আটটায
এমও
চাইতেও
সটাম
ভাবলে
দৌডাতে
নিউকলিযার
ঝলিতে
##রতন
##tain
চিতরে
অযাপোলো
সেততে
পরতনতততব
##খাস
##টটি
কেজির
বসলে
দবারাই
হইলো
উদদেশযেই
চরিতরহীন
আসাদল
ঝাপসা
দআ
##বাটা
কোনায
বনদা
১২তম
##বদধভাবে
২৬শে
tam
আপরাণ
৬শ
##ফড
অনদর
কাযা
আডত
টেকনোলজির
কষণাঙগ
বিবেচয
পষিযে
রযাংকিংযে
বাদর
চাইনা
হজরের
তিলে
manag
might
আছর
কলিম
থযা
##দষটিতে
পরনের
উতস
বাকলিযা
উপেকষিত
মোকতাদির
##ঞজক
মিনারেল
জমানো
পরসাধনী
থাইর
ষটাফ
##icate
এফএ
সোনাম
বিভরানতিকর
কনসালটেনট
শৈলকপা
কতী
ছাতার
কেনই
রেসট
১৯৪৩
কলমবো
সাইনস
##বাবের
কষণা
অরথবহ
শাফা
বইমেলার
হটা
২জন
##াপো
নরননবী
ফটকের
আযহার
লালবাগ
বদলায
আখডা
মিটিংযে
মনডপ
লবঙগ
##iel
নামধারী
গতিপথ
ফালগন
কডে
##শাযার
মতান
মতভেদ
সরবকষেতরে
মামলাও
সবিশাল
বসতনিষঠ
লংগদ
পরহরে
এলাহী
রেফরিজার
##সটি
এমভি
উঠছেন
টারগেটে
বাকযে
ফকিরের
এটআই
ঘিরেই
অসাং
নিতযদিনের
ধরমানতরিত
বাদযযনতর
ঘষের
অরপন
চতরথা
আদরশকে
মজলিসের
44
রপির
##পোলি
পারছেনা
পাঞজাবী
ওযযারলেস
দরণ
আনজ
মমবাইযে
এএফসি
বিমোচন
##৪৯
নিরাম
আইরিন
কলস
সডঙগ
ইমেল
ভদরলোকের
govern
বনাঞচল
women
রাজপত
##িতযশা
মহাভার
ষডযনতরমলক
rom
মীরা
অভিজঞতায
##emb
৩৬টি
mom
তলোযার
##ка
##াজার
অকথয
যতগলো
চলচচিতরটির
ভাডাটে
খেলোযাডকে
উপতযকার
লজজাজনক
পরতিপাদযকে
পিলারের
কঙগনা
কারযকলাপের
কালিহাতী
##পানে
পরিভাষায
অধরা
১৯২৪
চোষা
তালিম
ঠিকাদারী
নলছি
মহাকরষ
বেকাযদায
43
টেরি
জাবির
বিবেকের
লাকি
হাযাৎ
চারজিং
ছাডছে
জানাজায
মোহামেডান
##mi
##তরিম
নেযামত
রাজপতর
বোনা
কনভার
সনামগঞজে
আমদানিতে
অনরপভাবে
কোটচাদ
তাওযাফ
বৎসরের
ঝপ
##শংক
নতনদের
উলযাহ
সযোগটা
বদলির
গরতবর
কোকো
সরবদল
কাজকরমে
##ধারীর
খেযেছেন
চরমসার
মেশান
নওগায
সাজেদা
কেললা
dem
pussy
মিটে
##ীগন
অবশ
##বোঝাই
রপপর
সাহাবাযে
বাউফল
সিলেকশন
কেকে
##হানী
গরজ
##যাসন
সবিধে
ফিত
একনায
আললা
পরযটনের
একসটেন
channel
একেই
পাইন
সেবামলক
নিরকষর
রানীর
নাসিমা
বিকষোভকারীদের
নরমাল
কষণে
বযাটার
জিগ
নিশচই
হইনি
আডডার
উইকিপিডিযার
সমযসচী
দামডহদা
##যেতে
সরস
বেশে
সেনাস
তরযো
সবরগে
সংবাদদাতাঃ
আতমীযদের
আমঝ
উদঘাট
গেমের
দাতে
কতকষণ
বিলাল
পাটা
##সিএল
জাতিকা
##েনডন
রসদ
##নিউজঃ
দাপতরিক
বাষপ
##ping
##খলি
জাতীর
টেকসটাই
শরদধাশীল
পরিসথিত
বোলট
শমশান
ঘোরাঘরি
উততরপরদেশ
চসিক
আনলিমি
আশচরযের
চিরনি
ফটবলাররা
##মভে
হারতে
পডানোর
জিলহজ
এভারেসট
ঔষধি
নেম
মিলা
বসতবাডি
মৌলবাদ
লাগালে
রাঙামাটিতে
##গরনথের
চরমোনাই
চনড
মশাল
##লতে
মহাজা
ইসত
ফিরি
##reen
পরথিতযশা
পাওযারের
দঢতা
##টেকার
friend
জৈবিক
খয
শামি
##ীগণের
ওযাহাব
শরীরচরচা
রসগোল
চকরটি
মদিনার
সফিক
অযাশ
চেযারমযানকে
চোটে
অলপের
রোডসথ
ককষপথে
ফরিকোযেন
##ফাল
##79
রোহ
##পেই
চালনা
বালখালী
৬৫০
অনপসথিতি
বযাবসাযী
দৈরঘযের
ওমে
##বিযায
##কযকত
বযানডে
পিসির
রিমোট
মখারজী
july
মোজাহ
বযাখযায
অংশটক
সেকেনডার
##ely
বাচবে
design
pc
ডবরি
##যীর
##ইবি
বিঃ
##পেকট
গানটা
পরিবরতনশীল
##ama
অরাজনৈতিক
99
আজার
থালা
বিজন
##কতামলক
সনদে
##সংলগন
যতবার
মহাভারত
করমচারি
মেজাজে
বযালন
internet
ফতেহ
রেষটর
সিজন
গাও
##ভাগা
বিদেশীদের
একাগর
কারযকরমকে
অধীনেই
তামাননা
পোলার
##দকষ
সমযটাতে
নিরপেকষতা
মণডলের
আশরযের
দশচিনতার
তষণা
##iy
বযতিত
কাণডে
রাজেনদর
এমপিদের
বেসরকারিভাবে
নিরবিকার
বৈচিতরযময
dhakar
##পানি
জাতিসঙঘ
তাকান
ভোগে
লংঘন
পলযাটফরমে
চিরা
টলস
বধয
##যেশন
আসবো
অযামের
বরিফ
usd
শিকষানরাগী
হাইসকলের
নসরল
অনাথ
পরীর
সমযোপযোগী
দাবীর
মকতিযোদধ
কষটসাধয
গমনের
নডেচডে
পারিপারশবিক
dar
mal
বযপক
পিং
সতরটি
দরতগতির
সিআইএ
আতিউর
সকটলযানড
জবরের
##wood
পারদ
##টেইল
কেম
জিআর
অধিবাসীরা
সহিষণ
cp
অসর
সাহেদ
সেলফ
dev
ইচছাকতভাবে
##ৈকয
একবিংশ
##ভাত
আরপিও
##বরতনে
লেখককে
সমতিশকতি
১৯০৫
march
শাসতরীয
বিদযৎসপষট
হলোঃ
সঞচিত
শৈতয
রইলেন
langu
থেকেঃ
পথভরষট
মিরাজের
ভিজিএফ
চাটমোহর
রযাংকিং
সাফারি
পরিজাই
কষেপে
১৫১
অপারেটরের
উদভাবনের
ছতে
আমরণ
নিভে
দরবেশ
বযাসত
টরানসপার
ltd
ঠাসা
লজারের
শমভ
অপরাজ
সবরাজ
জেনেই
জানোযার
কষীর
কাউখালী
দষটিশকতি
##use
সারাদিনের
যেসকল
মহযা
বরাযান
গরামবাসীরা
পাকিযে
মাহির
##lex
মীরজা
ডোবা
শৌচা
টকটকে
বিদেহী
চালে
কযেকমাস
ভরতা
লিখব
চিনতাবিদ
গবেষকেরা
পতনী
নিরৎসাহিত
কেনিযা
ইতযাদিতে
সসজজিত
ফলকপি
অতন
লপ
আমাজন
রাজবাডি
নামাতে
শাহবাগের
ইতিহাসবিদ
হতভ
আরথসামাজিক
ডিসটরিকট
ঈগল
##বোট
##ভযত
##bi
##রেকট
মানহানি
রোমযান
জাদর
##পরতিদবনদ
ইউনাইটেডের
পতেঙগা
নজরদারির
শাহনেওযাজ
cu
##যকতরা
##বরিক
ভাযা
##বহীন
তোযালে
সেইটা
##সেদ
আবরাহ
গাছগলো
ইমারত
ছফা
বশর
নিরযাস
নিরণযের
ফাউল
ইনডাসটরিযাল
ডাইনোস
##বিএম
আগেকার
চাইতেন
##সমাজের
রাযগঞজ
কযালোরি
##শাক
কষমার
ইউনিটি
মযাড
পরিমাণও
রিযেলিটি
কবারী
রোনালড
দিনটিতে
দাযিতবভার
##হরতে
গরাউনডে
দেউলিযা
somoy
গতা
দমে
##বাচ
এগতে
গাছটি
অগসট
সটরিং
ভঙগর
পডযাদের
৮শ
##যতের
আমদের
চাচ
বিজযা
কিলার
খটিযে
##আলা
##োলিক
চাবক
দলেরই
সাতটা
দবারপরানতে
আলহাজ¦
অঞচলটি
মরযাদাপরণ
অকসিজেনের
চিডিযাখানা
শঙকায
##ки
বরষণের
আখির
ঐদিন
##তললাহ
##ৎসি
বিযোগ
চযামপিযনরা
ডাকাতদের
অডিটরিযামে
##ফস
সিএফ
১৬৯
##শরমে
পরতযাশায
সেরাটা
টরাকটর
চিতরাঙকন
elect
##াজান
আরিচা
বরগফট
নেতরীকে
##ফেযারস
টেইলর
ওযেন
##আআ
কিছকে
পদাযন
নারীবাদী
ফটবলারের
খেলেছিলেন
যকতিযকত
ফলাইটের
রাজাকারের
পরথমারধের
নেভিগেশন
##সংশলিষট
ভিনে
##ছনা
জানেনা
কেমনে
ফরমান
ততটাই
##দাযিতব
অঙকন
কৎসিত
ফলোযার
##ণেই
আশঙকার
হারভারড
লেখকঃ
চরমভাবে
গৌরবময
feb
মানষেরই
অকতরিম
নোটের
পঞচগডের
বাযর
##ape
পরিবেশনায
শরীমঙগলে
আদমদীঘি
##টিনের
নাবিল
উপমনতরী
এসএন
তরৈ
যাওযাই
জেটি
রেলমনতরী
ভাসানীর
index
গণাগণ
ছাযার
সযপ
##ীনায
বারতার
##ঙকশ
আখযান
তাসলিমা
জডা
ধারাকে
আজহারল
ধিককার
পরটোকল
ঘনীভত
jp
##my
লেযার
its
বারধকযজনিত
পরাদরভাব
##ববা
দেখিতে
##বীকষণ
দাবিও
১৬৮
কানাচে
০১৮
ঝরিযে
ধরষনের
law
সসংহত
গনযমানয
##ভাষয
তোতা
ডিজে
##নাথপর
ডিসকাউনট
##িসটের
##মানষ
চোপ
হেম
দিকটি
মহাপর
নেতারাও
##াসমহের
পরাবনধ
রাসটর
বানী
অভিনযশিলপী
০১৯
পঞচাশের
আবরতিত
ঔষধের
পিএইচপি
উবাই
অবজার
পাচছিলাম
পতরকে
good
group
অনধরপর
কেনাবেচা
ফলিপ
তথযগলো
মজাস
১৯৩৫
শরাব
জগল
সবোধ
ভিটা
হরন
helpful
mamata
দোযার
সচিতর
টিজার
ফোনটা
ste
তাছাডাও
দোলন
আনলিমিটেড
পরিজাইডিং
pak
আঙকার
ঘরা
লংকা
##ঞজের
সমপদে
##মাধযম
ফোনা
অদযাব
শীতকাল
পরযালোচনায
ডিরেক
বযাজ
হিনদসতান
নিযতি
পারশবপরতিক
তারপরেই
তফাৎ
উমা
নিঝম
##গোপন
ওযালী
##নারী
আলটরা
অরথদণড
##বোনের
জোনে
চাদে
টাকাই
জিকির
##সাপে
##োহী
৩১টি
ফেক
কিট
সনতরাসবিরোধী
কেরালা
ভেসতে
অসতরধারী
##iver
৭০টি
অনসরন
fore
##get
জানাবো
বৈবাহিক
খোলে
কাউছার
ঈদগাহে
কোটালী
ফজিলাতননেছা
কফির
তখ
যাত
কারিক
##িযাং
লিথ
অভিযোগটি
বসলো
অপদ
খেদ
অযোধ
উপাখযান
অগতযা
এককথায
ছডতে
phoneky
es
ডাবের
১৩৬
##ঙখলার
কলযাণকর
হাবিবললাহ
মহললা
সেনানিবাস
কজন
##মালের
করলা
সনদীপ
আসাদের
##arkhobor
মহববত
সকোযার
সাহসের
দরতগামী
সনধযে
ঢাকারখবর
তাকবীর
বিকষোভকারীরা
মিনিসটার
dhakarkhobor
বোযালখালী
সহিদল
মৌজা
হিপ
রাননাঘরের
##বাগানের
##ze
বিলো
গোপী
রেই
##হিদর
লেঃ
পরতযাখান
user
কাকরাইল
উদভাসিত
কবা
পাকসেনা
##জিযামে
১৯১৭
টথপ
##কক
##িতিক
কোষঠকাঠিনয
আপডে
রেখার
পাকের
দবাইযের
পরিকষা
সাযন
##ror
জানবে
##ওযালের
পডতাম
জেলেকে
ফারমাসিউটিকযালস
rob
##পরদান
করেছেন৷
জযকে
রাখেনি
ভবনটির
বরাজিলে
ইনডোর
পরমোশন
লটারির
##িকট
দইশ
হামাস
বোলাররা
সবযসা
জযপরহাটের
মারকসবাদী
মখিযে
অতিথিবনদ
রাখেননি
সথগিতের
মেমরি
##ঞজারস
পরথমারধ
শিকষানীতি
উথ
##লাকস
##নিহিত
##তমখী
মঙগলবারের
সামপরদাযিকতার
হেনসথার
কাজীর
হওযাই
সটান
সফী
নিজেকেই
জমায
শিকল
চৌদদগরাম
বিজযনগর
বারথ
##শানের
কারডিও
নিশানা
পরতীকষিত
জনসমমখে
সানস
##রদধ
##ভাক
বযথিত
##তারি
খবরা
ওযেজ
পরতযাবাসনের
##বিহারী
সাননিধয
ফাযারফকস
##বিখযাত
##তিরেকে
লেদার
হাতিযা
আইএসপি
##ization
ফেরদৌসী
information
রমান
##৪৮
##কারদের
##ঞজয
অঙগন
পদধতিটি
##ipt
ঝলসে
khan
মজাসসাম
অকষণ
নটর
##বিচছিনন
##পাতার
অকসিডেনট
আশাশনি
আকরষন
এযারপোরটে
সযালাইন
##ণত
বাসি
নিরঙকশ
শাসতরী
দবনদবে
ঋতর
সমরাটের
জনদর
আপততির
দাঙগার
উঠক
##itor
হতাহতদের
card
por
ফেনা
রযান
সমেত
রাজযপাল
গতিবেগ
ওখানেই
ঝাঝ
social
কটিযা
##শকতিকে
##টিউ
গোনাহ
##omb
হিটলারের
পরতিযোগীতায
আযরবেদ
super
সচিকিৎসার
বাধাকপি
খতবা
সমারথ
##ভাডা
গরহে
##যাশনালের
সবারথপর
কলপনাও
পরিলিম
নিরাশ
##গোপনে
hind
ফোযারা
যবর
ষাড
##73
সমকালের
সমভরম
সবতব
দেশজ
নামমাতর
১৩ই
##ouse
বিরোধীদল
তাদেরকেও
খাশোগির
software
গরান
##সেবার
উৎসের
ঠিকাদারি
এনবিআরের
লরি
আরন
বরমণ
দাগের
মারণ
২৫৬
তারিখঃ
ডরামা
অযাডাম
জেরার
খোরাক
##লামের
তথযটি
সতযেন
সাধারণতঃ
##জাহাজ
আগারগাওযে
ঝাকে
সবীর
দরগন
খাচায
যাইবে
বরিটিশরা
টানাটানি
মতিযার
মরদেহটি
বিএসটিআই
সিএনজিচালিত
clo
সেকার
পাবনায
সমযক
##uter
বাডাবে
বিভোর
অসবিধার
নেদারলযানডসের
##কণঠা
সথাযিতব
ডেক
সগনধ
করিল
দিনেশ
ইউস
জীবাশ
পডাশনার
search
সসমিতা
আযনার
সপরিমকোরটের
বিষেরবাশী
mer
অলী
বযঃ
##পরতিম
বেডান
ঘটিযেছেন
ফিকসিং
বালাগঞজ
রসিকতা
নিযামক
চিরিরবনদর
অফিশিযাল
উলি
ওরি
##সেকস
তথযাদি
শঙখলার
##দফা
পরিকরম
##বেহ
উপড
শোষণের
##শিকষক
অটোমেটিক
বালিযাকানদি
সৌহারদয
পরাবনধিক
পজে
##পেকস
১৫৩
টরানসফরমার
১৯১৮
বিষণন
আহামমেদ
রেজিষটরেশন
##كم
কারলাই
নামলে
গাওযার
ইংর
হযতোবা
নিকটসথ
ভযালি
কণঠের
42
বলরাম
কিনবেন
##োটক
সোমাল
দেখাও
রেডিযে
অযালাযেনস
কালর
##তাসমপনন
##soft
##ency
ca
ভেনেজ
হতিক
##দশা
উলল
##ada
শবদগলো
ইনদোনেশিযায
ওযাইলড
##লাসে
নিধনের
দলনেতা
মাধযমকে
বরাদধ
রেললাইনের
পারলামেনটারি
গরিড
অতযাচারে
চেসটা
সযে
##ga
একঝ
কাবযের
সপরতি
ইউএনএইচসি
মোহনবাগান
ওলি
যমনার
##মিতি
বিলট
রাসতাঘাটে
অযাডভানস
ইমেই
গভরনমেনট
বাযারন
সেগনবাগি
পরলিযা
মাসেও
##ident
সাবরাং
যবকরা
মাতামহরী
ওগলো
জটে
নিশি
##পাডের
হাইটেক
যাচছিলাম
##ury
জাগানো
টেলিকমিউন
##ঙগর
বনানীর
ইনফো
দকষিণব
অযানট
করিযাছেন
খাদেম
অরাজকতা
জেরজালেমকে
খটা
সেপ
গেঞজি
##হাটা
হারিকেন
কলাউ
উততরাঞচলীয
১৯২৩
মোখলেছর
দহন
##ববির
রাজের
টারকি
মাহফজল
মাহাববর
##সপর
ইনট
##ালীতে
দিললীর
শিকারী
##পরতিষঠান
##ract
সাইযযিদ
গলী
পাচবারের
জাহেদল
সতরীদের
দঃসহ
টানেল
অযাসোসিযে
ঘনিষঠতা
সঞজীব
বযাবসায
বাজাতে
সবাযততশাসিত
লণঠন
বযাকল
সহদ
হাতকে
মগজ
##word
উনমতত
অভর
##পশচি
##সথলের
##ততবরে
কনসটরাকশন
বিবিএ
কোলকাতা
যেরকম
на
নিযামত
পযানটের
বরষবরণ
বাগদাদ
বিআরটিসি
রেসতোরার
রেবেকা
##বাকে
##নেও
জানবেন
গণযোগাযোগ
বঙগীয
লকষযবসত
পরসকারপরাপত
রকমই
##istan
বোলিংযের
ইউটিউবের
বানদাদের
মগা
সানী
##নযা
সাবর
বারলিন
বাডেনি
##শরীরে
উডড
সবগলোই
ঢোকা
পরহসন
টরিবিউনকে
পরসেনজিৎ
উলে
শেখায
শোবার
নিউটর
ধারণাকে
সাকষাৎকারের
nbsp
সরবদলীয
বিউ
আমডা
কারণের
দেওযালপতর
ভোলাহ
দিকগলো
মযানেজারের
কাদছে
মেইলে
ডবো
কোনটাই
##go
##ит
লোকবল
বেরোতে
১৭৬
জাহাননামে
রদবদল
সেবাদাতা
don
চপি
ভিলেন
লোকস
শনযের
নিউজঃ
জরাজ
পলিটিকযাল
চিটাগং
ইনসলিন
hand
ওনাকে
লোপ
অধযকষের
##যবশত
টযাঙক
সজনশীলতা
সঙকটে
blond
গোদাগাডী
পরাণকেনদর
নাসাযী
সবলপদৈরঘয
পীরের
একারণে
বিমরত
বিদরপ
ইসটবেঙগল
এইচটিএমএল
number
একটিমাতর
##োধিত
খেলেছি
১৯৩৪
শঙখল
একধাপ
পরণাম
##আরএল
##umbai
শরতাবলী
অঙকে
##োশ
##বরিযেল
চিৎ
উপরও
বাহরাই
##ঘাতিক
সালাদ
১৯১৯
সটেটমেনট
অযামনেসটি
জীরণ
সিদর
দালালের
##দেয
১৫২
অযানডারসন
ঐশবরয
নিরপণ
বনভমি
##বীপে
##িসিং
##read
আকতে
##ছডিতে
পেনটা
girls
ঊরধবমখী
ডিউ
বীরগঞজ
তাকাই
খননের
ওপেনের
সিংহাসনে
কাকস
admin
বারসেলোনায
টিকতে
ইওরোপীয
অাস
শযন
##আল
##ভাতে
পাতে
জানাননি
##ane
নবীজী
আলিপর
১৯২২
সাযমা
আঠার
ইজতেমায
এবেলা
অনগরসর
পরাইমারী
১৯২৮
শলোগানে
অদযাবধি
##জরী
অতিমাতরায
##গরিকাল
ভোগের
রকষণাবেকষণের
তরযোদশ
কাবাডি
২২৫
বেধেছে
দঢতার
করিসমাস
পরবনধের
মনডলীর
নসযাৎ
বিশরামের
গলযামার
land
সনদি
রেণ
একইরকম
বীভ
ইনডাসটরিজের
যদ
##রর
রাজাকে
জিব
##এমএ
পরোমো
সারাবিশবে
চততবরে
কিবোরড
বাংলাদেশও
সিউ
কোরবানী
আতমতযাগ
পজিবাদ
পলেস
জলাধার
রেডকর
দরশনারথী
যোদধাদের
##ple
বাসকেট
দলমত
বিদযাপীঠ
লমপট
##ডিআর
গণতনতরে
১২২
উঠত
শনিনি
জমিযতে
বিপথগামী
##ঠিত
তথযও
বসির
নকশাল
পাকিসতানিদের
মাদকসেবী
mach
উবায
খেসার
ছডার
##হম
##পরীত
মারিও
উৎসবকে
সোহেলের
বেঞচের
##ভরি
পাছার
পেতিতে
##inc
বকততার
গহযদধ
চাদপরে
বাহাউদদিন
বৈর
পরতিরোধী
মনাফিক
রপকথা
টকটাক
নঈম
এদিনের
##পরবা
রাখো
ডিগরির
যৌবনের
একটখানি
মহাসমাবেশ
মজলিশ
বাবলা
সাকিবকে
রঙগিন
general
সংকরামক
##ডং
##ডাস
##ইটি
##যেপ
##িসতি
এসটি
অপটিকযাল
শনযে
গানটিতে
গোলকিপার
গাজায
পাইযে
পরানতরে
গোলাপের
মহাদেব
নেহের
##কিংস
##লেটরি
বিডালের
গোলাগলি
ইবরাহিমের
তরটিপরণ
বানধবীর
রাগীব
##নাথে
ফলোরে
কিশোরীদের
সদসযরাও
amer
গজরাটের
সালোযার
তদর
ছিল৷
কষনন
করমপরি
অরিনদ
##তততবের
##খযাতি
##াপাতে
মোটেল
পরিনটার
الر
পেটেনট
চৌরাসতা
ফজিলত
##বিরতির
মাহী
চোদার
আতমপকষ
##দাযি
##নেসিযাম
ভৌতিক
বদধিমততার
শিউরে
আললাহতাযালা
##যাকত
বরেনডন
সথাবর
সাপাহার
পষটিগণ
বিপিএম
মচডে
হোছাইন
gh
কসট
##বসের
দশযত
বদধার
মনোরঞজন
da
##ভেনের
পরিমার
হাসের
ফলসবরপ
হাতেখডি
সাতটায
বাকিটক
গৌড
জামালগঞজ
amar
মেযাদোততীরণ
##ны
শিলং
##ita
যাইনি
গোপালগঞজে
ছাপার
head
ফারনিচার
মযানেজমেনটের
gal
ঝরা
##82
পাছ
কাদি
লকষীপর
আডাইহাজার
একসটরা
কেনদরবিনদতে
কারবোহাইড
md
ঢি
মাকর
##তবড
বিষযগলোর
শোভ
বযরথতায
চিরাযত
##other
পরামান
##কষীদের
##সটোন
কনসোর
নামাযে
ছততি
বলটি
পরসংগে
কতপকষ
##umi
ঢকেছে
নিযমন
ফানডটির
সটেরযেড
চরিতারথ
পানথ
##পাতির
মাইকে
ফিলমের
বারতাবাংলা
পরারমভ
একচেঞজে
কিনন
বযাপতি
ঐকযজোটের
বযবসাযীক
কপো
রলের
সিএইচ
আলসার
##বযকত
চারদিনের
পালনকালে
জাহানের
দীপত
##ody
বাগম
রাখবো
নিজেরই
##arh
নবীগঞজে
মনোমগধকর
offic
মনডপে
অনমতির
##গমেনট
উঠতেই
education
ve
##রক
মাধরী
বহনের
মাসি
লাইবরেরির
ইপিজেড
অবতারণা
নেমেছিলেন
মিযানমারকে
সনধানী
সংকলিত
শরীকষণ
আতশ
তারকাকে
পরবরতি
function
পশচাৎ
জলপরপাত
##জলের
##ষান
নযজন
##ফরনট
সটরা
খেত
চিরদিন
বহিষকারের
দীঘিনালা
ভাবের
সকিম
আবছা
১৬৬
জানাযার
আককেল
বেনজির
মগবাজার
resp
সাননিধযে
আতব
তনর
##লামী
রেখো
##শাহিদ
ফরিডম
##rop
খলেছেন
কাশিযান
সইসাইড
১৯৩১
ডালপালা
চলকানি
অষটাদশ
##যেলার
##টিযাম
পেতেই
ফেরানোর
লিখার
##ley
ধমপানের
রানারসআপ
শীতলকষযা
পোযা
পারফিউ
পলটনে
আতœ
১৯১১
মোডা
মালদা
বাইশারী
পারিবারিকভাবে
হরিযানা
adm
আঙগর
সযামসাংযের
অমিয
ভই
##par
##ছেদ
হেমন
সমসযাকে
আগরাসনের
নিতযপরযোজনীয
সযানডেল
তৎসংলগন
ডিঙ
উঠানে
##যতনে
চমবক
কারতজ
চিরে
নাঙগল
##াতম
বিশবযদধে
নিশান
জীববিজঞান
কমপানির
কযেতের
অনিশচযতার
##ছিযা
দিনদিন
হলঃ
দশজন
২৬০
##change
তরিভবন
উপদেষটার
গলাকাটা
কনডিশনার
রিপরে
শাসনে
পরসততকারী
নাদিম
মাথ
মিহির
##ওযারি
খবরও
##ভোকে
পঠিত
সবহানাললাহ
আটি
উদধোধন
আতমতযাগের
১৪৬
শভশরী
জনসাধারণকে
পরাতয
বিটা
ডিটেক
##িনেট
ins
টেররিজম
অসবসতিতে
বোঝাপডা
খরশীদ
মহী
গরামবাসীদের
ফেনীতে
বডিগঙগা
অংশীদারিতব
##নক
##াইরা
দিগ
বিষনন
বিষযেই
##ished
লাকসাম
হোযাইকয
##ij
##হসত
যেমনি
ইনক
ইনিযে
গাট
##দললাহ
খেলাম
দরততার
সামপরতিককালে
কিনডারগার
চেষট
নিনদ
দেশটিকে
##ines
মরভমি
এনজাই
বিনযী
বাকবি
অনতিম
শহরতলীর
নগণয
নাদ
বযফরেনড
আপগরেড
ইনটারনাল
মিলনাযতন
গণঅভযত
হতভমব
গজল
কারাম
একটিই
##তমীয
কষণনগর
সমারটফোনটি
খাশোগিকে
##অরডার
##বলেনস
নযনা
সঙগম
report
##গোলা
কমানডো
মাইকরোবাসের
রজত
ইউকরেনের
ঋতবিক
##গচছ
##রিত
আরত
##anews
আইনকে
পরণালি
২২তম
ভযাকসিন
বৌদির
আশঙকাও
সজোরে
ফী
বনিযা
ভিসির
হগলি
##ль
##রাশ
দেহর
মলযাযনের
শরমিকেরা
##ams
বটেনের
অসবিধে
deshi
টেনডল
##সচি
##71
##যাই
বারমার
বৈকি
নাইকো
এডরেস
বিপদজনক
বানিজযিক
খাদযশসয
##নিযকত
উপনিষ
মানিকের
চেটে
বিষযগলি
ভোদার
##রোচক
##বযাধি
কযারোল
histor
##জারভেটিভ
সারিযাকানদি
লডাক
এইটক
##দিযায
অরডিনেটর
কেনেন
উপরয
সিরীয
গরহণকারী
এনেছিলেন
কৌশলী
হানাহানি
family
এপস
সাকা
সেগলোতে
কেমো
অভিযকতরা
পরেমী
অযাসে
কনফে
ফটকে
লোহিত
##এফএল
##পোডা
পরবাঞচলে
গাইডলাইন
এনটারটেইন
মসতাফিজের
ইলেকট
মছতে
করতাদের
ভালবেসে
সিলিকন
অমানষিক
মালিশ
ডরেজিং
##চোরা
##যারীর
তলবেন
জরজিযা
আফরিন
আঙলে
টপটেন
টেরোরিজম
কাকসিকষত
##সটে
সমযটায
দারস
কিউবার
পললবী
##দওযান
##ভালের
নিশা
বনী
লকষযের
অনষঠানটির
লাগেজ
বিশলেষকদের
গেরযা
গণআনদ
খটির
মোহা
##োটায
গণনার
জিনপিং
ধারণাটি
ফযাশনে
150
চিলির
protect
কডাকডি
যী
লাজক
##গেটের
অনতরনিহিত
জবদকত
আমঝপি
বেকস
শেষবার
উৎকণঠা
গোলক
করণার
রকন
শানতা
রযালিটি
##পরাপতির
সিজদা
cir
##কাজের
##ঝাপ
মানষটার
সারজ
##ala
পরোভাই
পরিবারটি
সিসিক
নযাচারাল
title
বিলকিস
ডরয
##এমে
আমজন
কাথা
খাব
কারযকরি
তরী
prov
থযালা
##জারড
ধরলো
যথেষঠ
টরিটমেনট
নিসতবধ
মরববী
পরাতযহিক
3g
জিনে
মবিন
চেচিযে
##সেপ
মাসা
হারদিক
রাযচৌ
##ility
##শিলপীদের
##তালিকায
আকাঙখা
পঞজিকা
##কণঠে
হালযাঘাট
নিতযনতন
ঘাব
##নীল
মখরোচক
সকলছাতর
গোলার
চাকরিচযত
কযানডি
ইবতেদাযী
পনে
আললার
দইটার
আইনশংখলা
অসথিরতার
গরেফতারকতদের
commun
##ار
করমবযসত
বাডিটির
এতেও
পাচদিন
গলানি
মাগরিবের
ডিবে
১৩তম
ফাইলে
শিখরে
সৌনদরযে
নিবনধের
ভোকতাদের
##ner
##হলে
##39
##bs
চৌমবক
বিজেপিতে
তেজসকরিয
mess
##শানে
##যামপ
করিজে
রাষটরদতের
মনতরকের
ঢাবির
মফিজল
আসো
##যাযনে
দশটায
মযদানের
দোষের
অঙগের
পারটনারশিপ
জনগনকে
কারচপির
##বডি
তাবি
দাবিকে
##কিশোর
##উজের
জডান
সযানি
নিরদবিধায
কোডের
নারকীয
বিসিসি
রাননায
যতনের
শবশরবাডি
পাউবো
ফাটানো
হেরিটেজ
তাচছিল
উদদযে
সারকাস
ওমেগা
let
অবলী
করমযজঞ
##iter
নিশচিতভাবেই
শোকর
##ott
অগা
মলধনের
আতমিক
আধিকয
শনেছে
শনেছিলাম
##মিরাল
রেগলেটরি
পরলেপ
april
##ককষে
টিতে
হোমস
ep
সমতিক
বারং
হাটছে
নিউমারকেট
ঝন
##ণট
নিবাসী
কাশী
কষতব
১৯০০
বিপকষ
##itter
আকন
সাধনের
পতরিকাটির
রেশম
কযারেক
আলটিমে
বকষরোপ
nu
que
##rent
##কষকের
##ীগের
##িকালে
চলতেই
সনতরাসবাদী
জডী
উডছে
পিরাম
sport
থো
পলের
##ংগা
##86
অনিম
##েলী
মানবক
লাঙগল
দাওযার
##মিনিট
সোমবারের
mad
##টরস
##ফাযেড
এডিসি
আমিরের
বীভৎস
শলে
সরপ
##বকযাম
##সংযোগ
কলামে
কষককে
পরতিশরতির
الم
পরসততকারকের
বডাইগরাম
পরিকাঠামো
জডাতে
বদৌ
##ডবির
ভালোর
করমদিবস
চারচের
সবাধীনতাবিরোধী
রেজিমেনট
মরববি
ডমরিযা
মিরা
##বাকয
উপবততি
পোহা
সমতিসৌধ
ঠকে
শবাশ
মানেন
তমিও
করিকেটকে
কষতবিকষত
শতে
হালের
হেক
দরষট
কমলার
##চছার
লেখাগলো
দারি
নৌপথে
##বিলমবে
রকমারি
##মালিক
ফটেজে
যানজটে
চলনবিল
দাদী
চতবরের
পোডাও
সমকামিতা
doggystyle
direct
##সাতমক
পিযের
গোলশনয
বাঙগালীর
কিতাবে
ডযার
পদিনা
##নিম
কারে
বরকল
বারমিজ
এনটিভির
##পরকাশের
নেকসট
ছোযার
##পিসি
বলেড
সারিযে
##rob
মযাজিসটরেটের
বযাবসা
হেদাযেত
নিমি
##পারক
কোনওদিন
জোযারে
শালি
##মমা
##ious
অভিপরায
##hel
কেরালার
##টনেট
ওযাইড
পনরদধারের
jo
##তরো
##নিযাম
পরবেশপতর
হিফ
দীঘি
মহাকাশযান
ওডিশা
সতীরথদের
খপপরে
হারিযেছিল
বিমসটেক
bir
##সিবি
হাটি
উতযকত
ভাবতাম
জেনারেটর
##ource
রিসক
সাদাত
লিওনার
অরথাযনের
কোনোরকম
কচক
##সতরী
##৭৫
বহকাল
আতমগোপনে
পলাযন
##গোশ
সিরিজটি
অভিশপত
অনরাগী
##সেক
বডজোর
সাতটার
লালনের
ref
চিঠিটি
নাগালের
বদরজজামান
দরিদরদের
ওযাসাললামের
ভেনযতে
detail
ইহসানল
##বিবর
##মানবিত
বযতিরেকে
কাপিযে
ঐতিহযকে
আরসেনিক
জাদে
##ীট
##পনথীরা
সঞচযপতর
হালিশহর
টেলিকমিউনিকেশন
squ
##ভেস
##শাযী
##dr
##লিযান
পরতিবনধি
জেমি
অনরোধের
শতররা
ভাংচরের
পরিষেবার
ভাঙগনের
সটরাকচার
সংযোজিত
শরনার
খোদার
দাডাচছে
মহাদদিস
এএন
মলের
দরকারী
লোকই
পারিবে
রোববারের
them
বীরভম
ফযজর
মাদরিদে
লেভেলে
কযালালামপর
##no
দকষিণী
##পালিত
এনেছিল
বরষপরতি
##ants
বাগিচা
অসাংবিধানিক
রচন
##পতনী
##49
মিতরের
##পেতে
তিনে
পরসনন
অযাডি
ডানার
নিযমা
পযরনত
তষ
##োডেন
সকলটি
হেলেন
ইনটারনযাশনালের
কোলাহল
কারসাজি
sangbad
ওএস
কজ
খদদের
ঢিল
##cs
মাধর
##দনত
জিমি
মালিকানার
আকাকস
##মালয
75
ববলী
বঙগের
মৌলানা
সতরকবারতা
titty
১৯৩৩
ছেকে
মানদা
দরনীতিতে
মিউনিসি
সংসকারে
বহদলীয
নিশচিতে
পরশনফাস
চনদরের
সাললামের
ডিজেলের
সটরোকের
এপলিকেশন
আলটিমেটাম
মকেশ
##টিকা
রহীম
টেকনি
ফিচারটি
পবালী
##জিরা
নাডিযে
পরিভাষা
ধরপদী
রোশন
বারেক
হারিছ
করমচারীকে
ঢালাও
ঝরঝ
অগোচরে
পরবন
বাংলাদেশিকে
মহকমার
ছেদ
পরকৌশলীর
exp
আযাদ
মরণোততর
ভিলিযার
অসটরিযার
long
কফল
##কলায
##ডাল
গরভের
##ংশনের
আজমের
ফলটি
পরশনও
মতিঝিলে
কনফেডার
চেনার
সজি
##ঙগজে
মনোবিজঞান
রোকসানা
বরননা
##িতের
সিটের
চালকসহ
ভেডামারা
কলেজকে
ফালা
গহাযন
পযাকেজের
মচলে
##ভঙগের
##াকরণ
##বলার
আইক
অনেকসময
হইত
শিকারি
পঞচদশ
ইকযেড
##এইড
বঞচনা
সদরপরসারী
সতার
সংহতির
কমিকস
আগামীতেও
নেতাজি
পাকে
সবাসথ
নিযমতানতরিক
তমিই
সাবজেকট
সেবাদান
ফেদেরার
মহাজাগতিক
টাইল
নানিযার
##ফাকের
তারচেযে
##ওযাক
মকতিবাহিনী
সাজস
অভযারণয
##াসর
যেদিকে
কাজাখ
আতমগোপন
শিলপীকে
কানদি
বীরমকতি
টরানসমিশন
মারকেটপলেস
কাতালো
দিবালো
শরিযাহ
গাদদা
নোকিযা
##চলে
পরাসাদের
রাখাই
বিরা
অসখের
কলাবাগান
নরওযের
##পাতিক
আককাস
১৯১২
সেঞচরিতে
মাইনল
জোগা
service
son
##াজাতের
চলাফের
##পণযে
ফরিদগঞজ
অঘোষিত
##যামে
মানলে
##োধিক
মেযেটাকে
জলীয
মহানগরীতে
অসমযে
খাদযাভযাস
লাঘব
##টেমপলেট
##দীদের
##জকে
##dh
##াতবক
সরকারপরধান
আদিত
ডেসকনিউজঃ
রাযান
৮০টি
tele
রোটারিযান
ear
অচিন
সরার
##জনী
নিরবাক
সডকপথে
কাপছে
আরিফের
গালাগালি
আযাব
পসরা
শিরা
মিচেল
ইসা
##দীপের
কমারসের
দোতলায
পৌছবে
বাবলের
যকতিতে
আকাঙখিত
ভটটাচারযের
কনসারটে
শাবনর
পণড
##টিসে
##ীনতন
##লাইকম
পরসভা
নিনম
পরতিরোধক
হাকিমের
চিততর
সবেচছাচার
হাঙগেরি
der
আবী
এএম
সজাত
##আউ
##ли
গরদাস
ছোটখাট
নেমেই
দোযেল
সাঈদীর
মাইনড
ইযাহইযা
অখণড
৯ই
##uf
##থনে
##বনী
কিছকাল
##চরচায
জৌ
দবিগন
আরাফাহ
সসংগঠিত
জেলি
রেহান
চারটায
জাভাস
শেড
##কৌশলে
মেরিল
অনাহারে
৩৯তম
আঙিনায
বেদনাদাযক
ফলাইওভারের
হজযাতরীদের
business
wall
##ফতের
##ারথে
চিবিযে
কালিকা
বসতঘর
অভিনেতরীদের
শোভাযাতরার
১৯১৪
হাইকমিশনের
জনসমরথন
ir
অযন
থবডে
##ধনে
##িনিটি
##োলড
##পনথা
বালযব
মদীনায
রিমানডের
মণডপে
দাফনের
নিকষিপত
মেঝ
তৈয
পদমায
অযালেন
মরাদনগর
বরডবযানড
দবাযিতব
ঢের
নানী
##ৈষঠ
ভাড
##গাড
বিসতারে
পেশাজী
২৭০
ভাবলেন
আণবিক
language
তজ
ভক
মিতা
করিলেন
##াহারে
##পারথ
চাবিকা
বকতার
আবিস
শনছি
দীরঘাযিত
ইংরেজির
##পরতিষঠ
ডেকেছে
পরোটিনের
রিংটোন
বরযাড
রীতিনীতি
ফটের
৫জন
##টিল
##কসা
খরশিদ
সমমানসচক
##পালনের
কখনওই
##গিরির
অসথাযীভাবে
সিরিযালের
চেচামে
ডরযিং
দরষটবয
এয
ঢিলে
##of
##ডেক
কিনার
আনলে
বযারথ
নিজেরাও
দশেক
শিকষাকষেতরে
##গিজ
##শেন
নিদাহ
দেশগলোকে
রাতেও
পরাচযের
আহসানল
ডলি
ভযো
##হরে
গরহা
টরিলিযন
পাচশ
জননিরাপততা
মেমবর
আশলিযায
কযাট
জামার
১৮ই
১৮০০
পরিষকারভাবে
ডানদিকে
আমদানিকত
অকষাংশ
সমারথক
বালযবিযে
##rol
ওযাসা
##াবধান
করীডাবিদ
##াজাতে
মাতভমি
খাসির
ইহদিবাদী
ফিঙগারপরিনট
এমার
তানোর
রটির
সহমত
##ude
মাযাবী
গাডীতে
মজরী
দেখছিলাম
আলটর
চিতরিত
ইফেকট
##শিশদের
রাতরির
বিশবাসঘাতকতা
lib
make
পরতিকে
উঠছিল
জনমনি
এলাকাকে
মহাসথান
নৌর
চাদরে
অনষকা
দরগাপজার
দিযেগো
##লাইনার
জাটকা
মিশরে
অশবিন
জাকিযা
৯৯০
ফারমগেট
বরবরতা
300
ওহাব
##ger
বিভতি
অভিবাদন
রিভল
অনতরভকতির
বোনেরা
অনতিবিলমবে
পরতা
তারলয
করাবেন
নিরভী
অসাবধান
ওযারল
নদীকে
শিকষারথীসহ
##ভোগের
সানগলাস
পরবতমালা
করিত
##সতমভ
বিসমযে
হাতবদল
টেলর
ফিসফিস
থিওরি
উনের
ডোজ
৭শ
আনলেন
সমপাদিকা
মধযবিততের
cons
লিসটে
নজিবর
নেতানিযাহ
যাম
##সবাসথয
অপরাস
শোযার
জিনের
ফযসালা
সমপকততার
অজঞাতপরিচয
একগচছ
খলীফা
সিমে
পালিযেছে
চতরদশ
কলাবটির
অলঙকার
সোযেটার
চিরাচরিত
অরধন
আইডেন
##anj
কারযকারী
কাউনসিলার
রাজারহাট
আজিমপর
লাহোরে
করনা
বাদা
মতবাদের
##থেয
চলচিতর
জেদদ
অনততঃ
হমকিতে
বাজপেযী
সরবসমমত
নিদাহাস
ডবর
থমথ
সবাতনতর
উতথানের
মযানডে
ইরাকি
সিনডরো
পরারমভে
সওযা
##দষটি
নিথর
কাটিং
মাসদের
ডাকছে
জেএস
বাদীর
সঙগীকে
সিসটেমস
priv
হদযনতরের
উদভোধন
লবণের
সরযাসতের
সেলিবরেটি
নাদাল
উদযত
##ঞচা
হোসে
১৫৬
এতোটাই
পযাথ
হারডডিস
বরাজিলকে
হারাবে
মমিনের
সমপরচারিত
ফালত
ফতললার
শোরগোল
থযালাসে
দষটির
জনমদ
বযতযয
##মনসক
পরতিবছরের
ভারসি
##কাশনের
হিসাবেই
##বিদযায
iphone
জিপিএস
##রথক
সৌদ
মহিমানবিত
ফারমারস
জমিজমা
বিনাশ
ইজরা
ওসির
লগন
হগ
দাবার
চলছেন
রেজার
জামি
মরনিং
জোযান
বীরতব
বিপদসীমার
মকতাদির
od
##৫৮
##োপে
পরপ
বিই
কাপা
##টেডে
গডেছে
ওরিযেনট
শততম
ঘাটা
synd
নিঃশবদে
পীডন
গোযালনদ
মাকসদ
